7C5
7B0
0D6
0E3
7A6
122
729
039
7FE
7CA
122
10E
08C
7C7
078
7A2
689
01E
02D
73C
0CB
7D3
05D
0B4
007
072
18A
100
70B
0D6
15C
79B
062
09F
084
743
78E
0B6
04A
051
082
11A
1BA
080
0D5
7D4
7E1
750
139
04F
0F5
79F
050
008
7D7
754
771
750
0E0
7EE
057
062
748
7EA
09B
096
7FA
7EA
7C9
783
780
769
72F
7BA
7AF
709
7D8
7D9
6F0
7D4
708
7C2
064
038
771
07E
045
046
7B8
7BA
7B0
008
047
73F
786
7FE
0B4
03D
0C2
023
0ED
07E
1CC
790
0BD
7F6
75D
0F9
0D9
695
73C
785
07D
6FB
04A
154
010
028
768
74E
0C9
787
167
7ED
754
7C3
026
099
7FE
014
70E
751
71F
0B0
0BE
033
76D
7B3
768
10A
6E3
046
7AD
654
7DD
7E9
6F7
073
11D
00E
7FB
71D
746
0DF
7B2
77E
0CD
7BF
0EC
652
786
0BD
7C8
040
7AD
011
7C3
7B7
7CC
0D4
0ED
017
7C3
78B
036
041
05C
7B5
6DB
0DA
75C
006
01E
0E4
065
73B
064
7E8
7F0
0C3
0E4
7E6
0D8
0F7
7CF
088
0F0
742
10B
0CA
7C2
0C4
0BF
7A1
099
019
750
70C
78D
039
68E
022
7C4
07B
7C1
743
74F
07F
039
6F2
7E2
6D5
7A5
74A
021
6EC
168
7BB
795
7C9
76A
07F
0D1
027
06C
7F0
020
0CF
03F
755
04C
029
061
723
795
6F2
7EE
7DE
05D
79D
09E
081
02B
027
7A6
7A9
153
0A6
01A
774
04F
07E
755
071
7F6
0EE
7EC
73D
03D
699
77D
02B
12C
766
0C3
695
073
73D
7A9
053
13C
0AA
015
049
099
037
096
059
067
06E
079
065
127
078
159
73C
7BB
748
7C8
74E
0BA
057
096
741
0F8
017
7BB
7A4
0D7
70C
017
7C3
0C0
706
7F2
7B7
793
093
7D8
00B
6AE
747
6FF
6FF
059
7B9
735
013
7D0
710
0A6
09B
72D
032
097
7A3
72D
7BD
006
7FC
7F1
71F
073
7D7
00D
011
7FA
001
7DC
76E
013
76D
7CE
112
031
7DD
701
772
086
7E9
0B2
041
75B
6D6
108
6F8
6DF
6BD
07A
0A7
105
100
77C
0FB
114
08A
069
128
0B6
0B3
01C
73F
774
791
786
742
06C
7A4
1BC
6EA
11B
052
776
067
026
74E
0AA
7CF
7D8
04A
037
7E3
78C
6F5
098
715
6B0
0DD
082
6AE
0DF
78F
734
58A
71D
10C
06E
064
0DE
7E8
015
7D5
652
0EF
7E9
113
11A
7C5
7A8
6EC
13B
6FB
027
110
162
035
749
707
069
08F
7B5
0D9
7BE
720
0D6
131
7D2
01C
746
7D6
11C
716
766
758
08C
06F
072
078
07E
73F
7C7
0F1
7D8
7E5
073
06A
7F7
7C8
73E
7CB
08D
076
07C
0F0
6C3
057
0A8
013
7A8
0C3
03C
799
796
09B
71D
7F8
729
01B
0ED
05E
000
092
7DA
717
763
7F8
7A9
043
0A5
08B
717
770
74A
082
765
05C
05D
049
78A
7EC
72A
0E6
7FC
0E0
7DB
7C4
7C6
718
0B6
0CC
0CC
053
164
07C
067
014
011
7A8
743
741
0FC
089
7D5
071
6D2
087
75C
049
040
736
043
0D3
09C
0AF
766
69F
7AE
76B
006
067
143
11C
7A1
054
06F
12E
7FD
104
121
6E2
07A
014
655
047
046
746
08F
70C
740
0B4
06F
07B
0DC
07E
6AF
054
11D
77B
00E
007
127
0B0
7B4
76F
7CC
7FA
7D8
01D
7B9
6B5
7D7
7FF
05E
7F3
7B2
063
7D8
78F
566
066
7AC
78D
134
104
005
0E4
009
0AB
04D
15C
019
6F1
7A7
7DF
6C3
67A
767
6ED
044
0EE
00B
143
7B6
749
087
093
7B6
038
779
009
7BA
126
799
154
0A4
039
7B6
0AE
6E6
768
7CE
67A
10A
665
0AC
0D3
6CA
787
6B0
6FA
0B2
046
06B
7C8
0F9
06C
04A
7B8
7FA
079
7A1
7CA
758
076
024
7A1
757
029
6FF
7DF
786
068
7EC
6F4
080
732
7D5
01C
05C
0AD
6D2
035
018
79F
751
043
037
7F0
778
7DF
6DA
7FF
7FC
783
09D
046
049
03C
7B3
075
752
017
073
052
14C
010
0B9
0BC
026
015
7EB
035
745
7A5
138
002
7A2
00D
038
0B7
06A
096
0A4
703
68D
0C8
78D
734
7DC
7AE
776
04B
710
72D
73A
11F
7AC
760
0EA
7B1
02C
07A
713
098
723
7A9
028
05E
739
016
039
790
03B
7B2
7A8
7B1
002
0C5
04E
0F7
7A6
7CB
6A3
055
0B7
0CD
7AA
783
095
6C1
0EC
08D
03B
769
7E5
6E5
6C9
061
0EC
061
7DD
025
722
0C4
6BA
110
745
7DA
7D4
067
7EC
6E4
0DC
704
11A
7F0
78E
08B
73E
016
7EE
09D
7A8
0F6
07B
79C
018
7BC
0DB
0C8
766
72B
673
067
0AD
70F
739
712
7A9
731
088
7E2
03C
07C
053
03F
0C8
040
127
051
156
739
005
75B
7FD
722
002
783
19E
076
11C
7D5
0E4
09F
126
078
027
730
7B0
7EE
00F
063
7A0
7CA
7CD
0BF
76E
099
0B4
0B0
028
780
0A0
6BE
08B
7E9
74F
7C2
713
08E
712
7FF
6FC
0E9
7F4
05D
056
06E
0E7
025
09A
707
063
039
10F
091
799
6BC
095
044
026
7A2
071
735
112
790
0B1
74D
037
7AE
76E
751
7C9
7C6
025
7B0
0CB
74D
072
77D
793
0B4
7BD
793
055
08D
7FB
7B7
767
094
7FB
7B3
05D
7FD
766
6E8
04C
090
762
017
00B
049
0AD
02B
0D8
017
70F
0B4
023
05F
0DA
082
02F
07B
77E
015
046
028
0AD
06E
02E
031
787
7F1
680
7D0
784
02C
121
73D
7EF
07E
065
0EB
7EB
6D8
038
7A4
0BF
00D
072
0BE
06E
714
7E8
7E3
00A
152
048
06E
0B9
07C
00B
0D8
087
678
06D
144
00E
770
7AC
716
05A
79F
106
77C
105
0C7
111
036
7B0
06D
7CF
0DB
0BF
08B
760
12C
184
007
05A
06B
704
755
0D1
077
01A
014
0AA
7DF
759
061
01C
7AF
0E8
005
769
778
005
036
080
048
034
7FF
772
7D7
798
043
781
17B
08D
7DB
0DA
058
0E1
75B
715
6F4
782
772
0CF
7AE
764
7F6
10B
791
0D6
756
03E
07E
0C3
018
7AC
052
06B
02E
091
731
739
03C
73E
722
753
6FE
096
78F
037
7B8
6BE
7C7
76F
7D0
765
78C
005
0C5
70F
076
7B4
036
051
0D2
7CC
78A
016
754
00C
7CF
00E
0A6
035
19A
7D7
117
0A6
0B9
647
023
09F
036
047
04B
7B0
7FC
09A
7FE
78C
6D1
05A
093
1A7
098
0FA
7EF
7EE
04E
769
0BC
04A
01B
6CF
046
744
61F
059
742
7A9
6BA
167
69D
7AD
6CA
663
094
0D6
08D
092
014
7C0
10A
7B4
062
7CB
0C6
06C
036
042
78E
7B1
6BC
0A1
7AD
7FB
762
010
0C4
7AD
0E2
0AB
020
79E
76A
7FC
7B2
012
0BE
73E
09F
758
7F3
754
6AD
75F
04F
7D4
120
757
7D0
0A1
10C
03C
070
7DB
118
045
015
0D5
7B8
0BE
03E
123
050
7D7
7C1
0CF
790
03B
7E8
113
703
7E4
126
7C1
759
0A4
0D0
047
76A
713
761
762
76B
713
0B8
0ED
0CB
01C
09B
048
03C
6BA
0A4
7AE
7EF
07D
79E
003
0AE
032
76E
746
07C
02B
7E9
70F
7E6
785
796
05E
0BE
7D7
7F2
7DC
7B3
070
70A
0B9
0C2
057
730
69C
047
008
7F8
000
05D
054
7B5
045
734
0FA
726
111
728
7E3
002
088
0DD
7A5
07D
769
092
01C
7FE
7EE
003
760
775
735
0E0
033
7E1
7FB
7E7
7EA
7DC
7E5
0BF
0BE
014
07F
107
023
11F
126
74E
03F
75B
78D
792
00E
0E5
76C
009
124
011
6B4
6F8
015
70B
799
727
7EE
07A
72E
75F
7AD
6C2
73F
054
793
794
7D4
714
0A5
0EC
724
74E
7C2
74B
788
767
75D
7E9
77E
7ED
744
0A6
77A
0ED
029
0A1
008
0C7
0E8
0AF
078
06C
7D9
00B
7BC
009
78E
07A
0F9
795
0B4
78B
00F
03D
753
7A1
0E5
0BF
0F1
6A1
025
718
07D
0AF
043
0B7
0E2
042
7E9
06C
03A
06B
0E1
7BD
7E4
7B9
02F
03E
0BE
788
03A
72F
0ED
02D
153
066
184
121
063
093
7DB
231
0C9
058
03A
6BD
01F
719
7BC
78E
6CF
04C
063
034
77F
73F
01D
7AE
048
061
0AC
082
074
066
7D0
0BC
72F
03C
095
6FA
046
7F1
010
7C0
7FE
7A5
0DB
008
062
208
6E9
091
6A3
6C7
7C8
13A
7E9
0BC
6C6
7B7
70F
7A5
002
081
07D
70D
083
675
0AA
0B7
764
090
0DB
729
1C7
120
182
7F6
07D
0BC
706
128
047
0B8
052
761
60D
7F9
7C1
034
096
784
0E3
076
76E
065
03C
798
108
77D
71C
01A
155
0DF
78D
6E0
773
117
7F7
034
7A0
7BD
7A0
7C5
7E0
058
791
099
7EB
032
7CA
092
7BD
10F
7E4
77C
6E2
094
05B
720
019
0BE
6FF
025
084
016
0B2
062
091
7B4
762
0E3
0B3
04E
17B
050
79B
0E1
049
084
08C
049
02B
7A7
7A0
0AB
722
04A
080
702
066
069
00F
74B
055
0EF
7AA
7F9
107
056
0DA
6E4
79D
7BC
774
0B7
02F
77E
022
033
76D
74D
795
02C
0D2
775
00A
7E9
787
7CD
097
784
0B9
7A1
11A
0D2
740
161
719
6E0
0A9
788
7D1
784
028
72D
7B7
7A6
09A
7F2
6FC
0CB
754
08B
786
7CE
6C9
0E1
0CC
704
715
75E
743
0C0
0BA
01C
7DC
10E
6FC
016
0E3
73E
782
05D
003
0B3
09F
0AB
703
0A1
760
099
0E1
012
0E0
7E0
01F
0AC
7A4
0DB
0D3
0F1
690
797
0DD
6FB
6A2
025
000
79C
0B2
0F5
0E1
017
139
140
7C9
0A5
0D7
76E
09D
745
758
774
081
011
75A
7F6
74D
708
0A3
03A
728
7CE
07F
7F7
0F0
088
096
020
7CC
04D
7F9
03B
081
7F0
0A5
0C0
033
18E
7DF
7CC
6F0
7EB
0BC
03F
0B7
063
0BF
0A9
0CB
0B4
0F7
0B1
092
765
164
7F6
09A
0DC
0D8
754
05E
090
777
7C4
7FE
6CA
086
758
077
0F4
7E9
6F1
002
7DE
7CF
772
7D6
008
031
109
6DB
7E1
022
72A
7C8
7D8
7AF
069
091
7F3
7B9
6F0
0E1
0FF
0B8
095
052
79A
651
79E
77D
7D3
052
008
096
720
071
69E
7C3
0EE
7DC
74A
147
037
0F1
04A
0A0
786
018
00B
6EF
024
035
091
713
00E
7FD
144
023
032
09D
759
791
097
0F9
78F
0CD
0FD
71A
01A
7B6
069
60B
750
743
7C3
70C
0AD
782
79B
004
7F1
7F5
0D9
7C5
10D
7A7
7B1
17A
772
754
1ED
1E1
0A1
181
73A
075
0F2
799
7BF
7D9
05F
04E
078
77B
733
6A6
760
00E
06F
05F
735
010
77B
737
7DE
717
793
108
049
7D3
127
776
0F8
665
0DE
740
75E
70D
07C
143
760
04E
79F
6EA
043
7A2
7A3
062
039
7BC
008
039
795
145
074
76F
787
7CC
0B9
741
0AC
056
148
189
18E
138
7A7
750
797
7F0
004
189
755
766
029
111
19A
725
117
6A0
76F
75A
175
7A8
081
6CF
0CF
04D
01A
08B
0E2
02C
0F3
7CD
084
6A0
781
01A
024
041
6FC
079
07A
193
11D
7CD
0DB
097
0C3
767
0DF
03A
016
76C
08E
168
098
089
744
0E2
66F
6F8
092
713
6BB
0E0
713
6B9
04A
0CC
12C
020
0B9
154
7F4
7D5
04E
0D3
725
736
0DE
73A
017
030
6EA
064
6CB
755
7D6
7A5
013
035
7AA
055
017
05E
7B8
123
7E9
737
7BE
7F5
0F0
705
7EC
0FC
115
724
0F2
7B6
7FE
7B9
017
7FB
6FE
6F0
71C
07D
75A
7DC
7AA
7C0
7DC
076
7CB
12C
0CD
05F
7E9
0D0
165
042
053
73E
006
77F
0B0
751
016
7AC
003
062
046
055
6CE
080
004
72A
790
7AE
0A8
735
160
753
7E2
6F1
04B
774
7F0
7BF
7FC
7A1
6C7
0DB
09F
0D3
07A
702
092
06E
02A
0AD
02D
0AC
0A9
008
78D
7B5
7F8
0F4
056
0B7
09D
664
7BC
0AA
028
756
736
048
67F
734
084
7AC
09F
0E8
656
7A8
771
08F
082
73E
7F9
120
7BB
042
01A
06A
092
0A8
788
6AB
792
0B9
765
0BC
0B1
7A6
038
043
03A
7C3
0B5
100
6DD
127
6BA
053
089
787
752
018
71C
135
7BB
7FA
7BD
054
097
7BB
731
786
7D8
7C6
7CF
02E
7ED
7F9
04B
743
72D
75F
7A8
00E
70D
005
0A4
7F5
7DE
6AA
773
09E
73A
77B
7C1
74D
0A2
00A
719
057
033
0A7
0EE
0F5
093
0DF
0C1
0AE
054
0FE
0A5
01D
7DD
7FE
755
7F1
00C
0F9
7D8
014
74D
0EC
065
0AC
69C
76E
71B
0A7
78E
64F
0EC
775
0E4
78D
790
6DD
10C
786
7DF
01D
06A
74C
706
004
0A1
02D
72E
776
7C6
003
7E4
7A9
050
0F7
689
779
7CA
03D
12D
039
7DF
7F5
793
01F
75E
6EF
0ED
6EF
75C
764
6AD
76D
090
044
7FE
7F6
020
156
7E2
062
01B
0AA
7D7
780
160
0AF
7EF
79E
06C
7EB
07D
64F
167
000
7B9
0A4
027
718
0B9
003
6CF
020
0F8
729
07E
010
7E1
00C
7A9
0D7
0C1
6ED
0B1
02A
0A8
0F0
097
003
6FD
123
77C
0E7
01F
13B
097
761
724
097
773
035
028
021
6AD
025
71F
0E9
7D4
71E
70A
076
794
0B4
105
764
7DE
0D1
064
78D
78D
764
123
035
7C6
7F5
060
759
731
042
77E
097
745
7C4
7E0
769
7D1
782
7E4
772
085
7CB
7C7
7D0
7BE
093
785
7D3
74A
0A0
0F4
79A
0C2
6F1
78E
7E6
76C
0DF
7AD
781
069
78B
7F1
0E2
783
083
71C
006
741
146
7B1
003
067
131
767
094
7F1
084
677
7E5
7EA
014
79C
097
039
7C7
78F
0BD
0B5
7C0
77A
776
7CE
099
7E0
761
024
048
6CC
793
7E0
711
0C8
736
023
07F
032
06C
7FC
05E
7FE
75F
140
7DF
7F9
0E2
732
762
0FE
107
796
0D1
7D1
7FC
138
078
7BD
063
779
7A0
007
060
05E
69B
0C2
00A
0D3
748
0AA
7A8
01A
7C8
0AA
785
7A5
097
7DF
7D8
037
76D
089
07A
6F6
7F1
04A
768
767
06C
08A
083
041
75C
759
7A2
00F
77F
05D
033
719
015
751
071
7AB
0C2
7C7
79E
04D
0B1
73C
0AC
79F
7B6
70F
672
19B
0C2
115
764
071
05A
727
037
164
162
7F8
145
7AE
77E
0F7
0D8
70F
7F8
75A
09E
78E
0BD
024
7D4
7DD
052
745
701
70B
7FD
096
775
76A
00A
784
063
06D
01F
7E7
786
024
7BF
089
0E1
0A1
073
00C
7F6
09E
7D0
7EB
06C
05F
0EE
754
02D
03E
06B
0B9
71B
6EC
77C
7C0
791
6FD
087
72F
727
78F
7D9
754
0B7
69A
00D
79E
033
731
062
7AD
7D1
01E
6D9
74C
097
7E8
0AB
094
087
0C7
04B
6B1
77F
6F8
046
025
6A7
00C
03D
7C2
7F4
142
7E7
6E0
786
7A4
094
745
71D
0D8
164
08B
03D
793
780
04E
049
132
7C1
79C
745
041
03E
7D3
7A2
008
7DC
71B
18C
7E5
73B
05E
7F4
01B
70E
10E
7C6
134
07E
0E7
7AC
725
06C
767
7E4
042
71A
08B
0BC
772
043
764
0E3
035
0CD
09A
01F
00E
027
102
755
76E
7F8
6FA
027
7F5
066
764
723
763
73E
0D2
085
78C
070
0D1
6FC
088
6D1
7D4
784
025
01B
012
0CA
049
070
021
083
79A
167
77F
7D9
12E
794
69F
781
6B2
763
752
683
7AB
01B
72F
71A
768
02B
073
79D
113
0AD
058
69F
7A6
084
7F7
12F
149
030
7C7
046
7D4
072
0EB
071
66A
7AC
09A
7E6
6BF
049
04A
0D6
0B0
08C
7E9
7E3
742
046
734
066
071
024
098
0C3
020
069
751
768
0BE
7DF
05C
7A9
020
74C
7BF
778
000
03D
7B5
0A4
750
06F
746
004
0B4
77E
787
0A0
7F4
78D
0A9
7A0
755
7BB
760
09A
7DF
783
0BA
017
08B
08F
0A6
088
780
008
004
74D
05E
748
76A
7E7
7CC
7D7
011
07B
774
7EB
7B1
01C
021
71E
0A8
780
0CA
021
05A
74D
010
74E
0B3
7C5
7C3
0C8
798
7D5
0F6
7C8
123
715
010
037
7DA
7F5
0A1
7C0
0AC
068
0C5
014
054
09B
008
7FE
798
08C
0A4
0D1
743
048
067
73E
7F1
7B5
7AC
7C6
7E3
086
018
79D
0C4
790
792
04A
02C
000
064
7F3
7BE
7B2
78F
7D7
793
093
7D2
7EF
0D7
7A4
044
75A
092
0A5
06C
776
0A6
7E3
04F
71E
7DE
0EF
7CF
047
097
08F
7E9
0B1
0FA
788
7B0
117
75D
082
7E2
0DA
6E2
764
0E9
087
078
0BC
0BA
092
090
0E1
7BE
08A
6F6
6EF
7F9
042
0A5
767
7B1
0E8
71D
7E7
013
735
001
725
0D8
0A2
082
7A0
064
6F0
086
763
7E0
766
75E
79B
008
012
758
7A4
75D
109
071
68B
729
6D5
70F
737
0FD
057
071
741
163
09F
0FA
0DB
1C1
703
792
083
0E9
022
044
66F
7FA
7DA
788
71F
7C9
17C
73D
097
77B
153
0DF
1DC
137
7FF
732
799
148
068
08E
7D1
7C8
7F2
757
040
799
05A
0B9
706
75F
7A3
788
03C
77B
7E7
00E
7BF
78A
727
7E0
77A
0FF
7F8
7D7
74A
14F
0B1
777
79F
01F
101
047
079
7DD
73B
7CC
029
093
0E2
6C5
0A0
7C9
721
0B1
7B3
014
75A
012
031
7B4
056
0B4
0FC
7ED
73E
7A1
004
0DF
0CD
15C
0E2
75C
0D4
56B
147
129
0AB
0DA
72E
00A
0DB
069
760
01D
772
1BF
09E
009
10F
6BF
7ED
02D
1A4
060
794
7CA
7E3
6DD
100
082
012
052
08C
00D
0D1
7A4
745
6CA
7B5
12C
75C
7A4
02D
7F2
082
080
73C
063
0B8
7F2
00A
0B3
759
6D6
6D5
722
013
741
6B7
701
03A
090
74D
728
7E7
73F
063
005
088
11C
089
6A2
76A
078
6CD
0A3
135
10C
7EC
6F4
70F
71B
6FD
1B6
15B
085
7BE
5FB
108
049
7B6
005
782
05A
75B
060
0CF
113
062
11A
7E9
7EE
130
7C2
7CE
08B
116
018
71F
060
792
7A4
03E
7F6
0C2
10D
08A
79C
702
73D
7F7
72F
09F
0A0
72D
7D5
6F5
006
6E3
7EF
784
087
038
6E9
7CD
1D2
7EB
79F
732
05B
7C1
0A9
04E
7AE
772
7D0
741
742
7D6
0AE
6FC
7CA
7F3
045
097
08A
0F5
76B
00B
057
72E
0C5
7FE
07E
749
006
044
042
781
0A7
009
793
0A5
103
740
737
0CF
7D2
107
7EC
0DC
0A6
776
7D7
02F
7A9
6F8
0A5
043
6F9
068
02F
7E3
03B
04F
009
084
00A
005
071
7C3
71E
0C7
7B1
768
77E
7A9
712
6DD
108
7E3
7BD
113
00D
04B
6C2
0A9
7E3
7EB
0CE
7E7
778
7C8
7F9
021
7F3
798
7E5
091
0CE
642
0CF
002
6F6
05F
0B1
712
099
0D5
611
7C8
05B
78B
71F
052
056
0CE
0C5
75C
0CD
098
128
09A
75A
747
727
04F
75E
75C
736
797
0E1
014
702
08C
01E
103
113
024
06F
080
6BA
732
0B2
061
7A3
140
09E
0E3
6F8
061
7E2
6C1
106
0E5
00F
006
6FF
08E
78E
06D
0D3
7C1
767
7AB
7F5
064
0D7
0B1
10B
0E1
73E
003
7A8
179
750
1AA
772
67D
01F
714
754
04A
154
6D8
7EC
088
007
029
08B
7B2
6FD
751
0F5
716
7C9
7C0
717
13F
77E
103
142
040
776
071
062
75F
7AC
71C
03D
08F
7F3
002
6E7
026
0CD
777
089
004
00D
7C3
0D2
7F4
103
7ED
12B
701
127
076
063
6B9
780
7B3
060
1AF
7A0
6DD
0BD
7D9
0B5
053
051
7D2
06F
71E
710
684
0D1
026
0D5
07D
7C8
76A
7E5
6FA
0E6
79A
7A2
7E2
0E6
0CD
70B
771
7E8
111
121
034
702
7A7
09C
7D1
06D
065
737
013
05D
0F4
0C5
7B3
797
76C
76B
768
0DF
76D
7AD
7A9
13B
040
7FE
761
76E
7DD
7CD
04E
7C2
145
75C
772
7D0
08C
11C
0E8
12B
123
788
7D6
0C2
787
122
04C
07A
02D
77C
14D
0F5
7C6
05F
003
6A5
05B
776
05B
026
75D
168
7C4
725
65B
0C2
038
770
00A
7BD
756
643
03F
109
7C5
7D5
149
7FA
239
0CC
745
0E1
0CE
712
7CE
0DD
0C9
61D
5B9
09F
1FA
090
7C4
7D8
22F
64D
69C
0A2
798
7B7
7C3
0B1
796
044
10C
15D
07D
0F4
6FF
79C
079
746
030
0CD
0AA
058
02D
045
03F
777
7F6
112
7BB
008
7E2
7CB
79B
713
079
021
78F
74A
009
077
014
061
009
719
07F
759
07D
784
77A
718
010
0CA
7FC
068
755
028
05F
094
094
084
7E1
08C
039
6E3
7D3
014
064
04B
007
03F
02B
7CE
065
7FC
663
0D5
7F7
79E
730
6DD
6B1
7C2
7AF
0F2
790
6C7
6EA
088
73F
07F
052
0C9
7A5
083
0BB
03D
71A
003
072
0BC
7BD
008
70C
745
06D
00F
72C
059
105
7BF
787
7F4
7DA
73E
035
6C2
6F0
74C
113
789
068
7BF
143
7BB
7F7
102
014
065
6FF
061
01D
64A
7A9
0AE
7BB
013
070
012
79D
768
68C
144
105
077
126
168
0F1
105
037
788
02F
17E
041
7E8
00F
6C1
0F6
746
6AD
7F3
0D0
0D9
034
09A
07C
7D2
7CA
7D9
110
01D
022
0E0
7EC
729
02F
03B
7C7
72E
67E
05D
0FA
06D
6A4
017
713
7A3
7CD
721
110
100
0C0
025
7C2
08F
09F
109
096
7F5
76E
0F1
06E
090
7B9
0D0
17B
7EA
10C
099
04E
7BC
044
749
16B
14E
7D1
1FA
73A
120
7AC
032
16A
076
1F0
0B8
74D
033
07E
6BF
016
7F1
7F1
6E4
10F
0A6
192
7D0
6EE
7B7
762
745
767
221
796
75A
7DB
688
7E9
148
71B
788
07B
728
7F3
65E
6F0
77D
0DF
064
6B6
7EA
741
142
72A
049
74A
0E9
691
78F
6F2
78A
026
784
793
060
15A
001
06A
722
739
74F
793
776
091
021
0E6
01B
0C1
022
149
0B2
11A
6B9
0A7
7F2
762
102
0E3
767
02D
129
11B
7BE
021
7E4
0FD
0D2
123
748
00D
0F6
7C9
7E5
7F1
000
0A1
790
765
7AF
14F
7E9
70A
09E
0C4
0DA
11C
023
66A
057
653
7EB
057
7C6
69E
713
79B
735
036
684
0A3
09A
0A5
0A4
7C8
02B
7B7
110
7BE
061
740
14E
779
763
6CD
01D
164
795
088
744
7B5
77A
1E3
737
75D
783
6E7
0DF
733
077
79B
033
131
059
7D8
0BD
10F
7F4
189
0A7
072
66E
006
0AF
7A4
7CD
7FE
02C
78F
02E
6A0
7DE
002
102
745
7FE
06C
7C8
64F
743
7FB
036
7CF
00F
078
04A
0AC
01F
7AC
087
09D
074
78F
065
0F9
089
0F6
7C1
7FA
7E1
0A1
091
7BB
06F
03D
0A7
6A9
7E1
6F8
6C8
044
76A
73F
7BC
0B4
755
779
090
730
755
7F8
77A
087
077
10B
7D7
0E8
7E8
12A
6DA
7CA
7A2
003
759
7FC
71F
001
740
08E
7E0
090
0BB
7AA
75F
7DB
793
7C6
7E7
0DC
022
7FF
7BF
7F1
799
6EA
7A4
7EB
067
761
0D1
023
7C1
798
033
092
7B0
065
051
700
046
7B4
07B
796
791
007
017
060
745
019
0C4
75F
708
0F3
031
0FC
7D9
6CB
783
70C
7F7
7A3
014
021
0DC
73F
700
7EC
04C
018
7E5
018
057
716
05C
7A6
0AB
766
029
102
6FF
79C
0E8
023
0C7
06E
75C
7AA
08A
783
711
744
6FE
7BB
723
7F7
0BB
0F0
74A
71D
0C5
00D
0AD
0F2
747
03A
08D
70E
7F7
6AE
03E
0A1
120
71D
0B9
7EE
06A
0B1
7AA
0CA
0C4
7DD
796
754
047
7A7
024
676
074
075
78F
7B7
6C9
7B6
7C2
0A5
094
083
7EE
064
0A7
79D
064
77D
7A2
7E8
761
040
744
7B6
06F
086
061
04B
7A7
048
029
7C0
0B6
0E0
7F8
7C4
09D
78A
0B4
031
0F6
77E
7A3
060
083
0BB
066
09F
7D1
751
097
0C9
045
0B1
05B
75B
71D
7CD
05B
0E6
043
7AE
77D
06C
740
11A
73B
745
7C9
11C
7DF
7AA
742
083
0AF
769
068
7E9
7A3
092
0C5
794
06D
03B
746
036
6EF
76C
024
6B8
7D9
7D6
0D0
00A
194
0B2
009
0E0
7D0
7F9
7AA
6B4
1CB
11E
7FF
79D
018
7EE
751
018
7D2
7AF
05C
7E8
028
001
738
606
042
7E3
145
7FA
0CB
040
133
755
173
04A
0FF
12C
704
04F
012
7D2
120
7E1
7B9
7B8
739
7AB
008
0C2
16F
0B2
0B1
7AE
7D6
01F
114
03D
097
78C
770
0EF
6AB
739
7B4
01E
13C
096
168
0C8
065
0DF
76A
02D
005
10D
129
0F8
016
742
7B8
6E9
007
7F2
041
0E2
74D
047
758
6DB
16A
6A2
6F9
143
0F1
772
061
7D9
0E6
772
7C9
03D
1B6
789
775
732
668
07F
6AA
6F5
7CE
7F7
76B
720
209
7CF
7C5
7A7
0F5
749
04F
78B
754
160
6BC
04C
789
209
6E8
77B
234
120
053
042
79B
077
14E
14E
15B
7D9
11C
1DC
1B8
5ED
6BF
76B
03A
027
775
79C
031
135
0E6
7AF
090
0D1
7C6
121
748
07C
0E2
73E
7DD
07B
758
73F
083
7AC
130
789
09F
0A5
098
040
028
07D
7F0
041
077
068
6D8
6A2
056
795
11B
00A
7F7
069
72C
7BD
797
7BF
06F
782
7BC
6D9
756
7CA
05D
7A5
0B7
6D4
793
09F
6BB
015
730
078
0F7
7B4
7F7
7E2
71C
169
012
7DA
040
06F
7E4
111
18D
64A
7F3
1F7
090
062
72E
77D
68F
79F
7E2
026
743
01C
66C
7F8
72D
7B8
00E
7F4
061
746
794
0B1
10E
0F1
205
04E
76B
077
6ED
01C
762
044
71B
723
018
767
765
00C
0A5
77B
0AA
032
037
70D
777
6C5
768
756
747
073
6C3
02B
06E
6C9
72B
087
11C
07F
7F4
0DE
713
7D2
06C
6F1
7CA
7E5
0E2
042
7AA
71A
752
79C
192
0D1
6A8
79B
74C
768
753
736
5F4
0FD
6C4
718
6F1
79E
058
11D
0D8
747
03E
004
09E
6B5
00E
7FE
6BF
71B
06A
037
057
117
0F2
78B
0B5
7BE
6D5
056
0DC
092
71B
7D9
0B1
7D2
7F6
09B
18E
799
0EA
02E
6FD
138
04D
0E3
013
026
088
7E6
7C0
0D1
6B3
7BB
796
765
720
769
00D
0C2
772
7F5
796
7E2
07A
05E
025
778
694
681
11E
7F8
787
797
0B6
6A7
794
711
017
08C
12F
091
739
03B
063
71B
0C1
112
0FC
122
075
0AB
045
033
7E9
124
09F
722
75A
0AB
103
0B0
08B
00A
0AE
190
016
0F1
094
7DB
057
139
076
6DF
025
7CA
021
0AA
0E1
06A
075
075
70A
7DA
0ED
0A2
13C
00A
07F
0CE
0C2
6D5
7EA
799
0DD
7FD
0D4
0A5
739
13E
7A9
7E0
736
0B3
6F8
0BF
7DC
6EA
794
029
779
7FA
132
7AD
0FF
012
0CF
0A0
6FE
035
75B
00B
6F7
708
77E
006
7A7
025
102
083
132
713
784
02C
067
7A2
7D3
002
003
798
17C
190
084
733
091
7BE
7DC
7A4
784
10D
74B
0EC
7AA
6E6
025
04C
734
173
0B3
091
7A5
024
754
7A4
0A6
6C9
685
111
7FD
752
067
05E
711
7AB
7CD
095
740
18C
7F3
049
721
68E
6E5
110
6B4
6C3
098
0E8
010
14E
67D
06F
749
78D
77D
09C
70E
6FF
007
048
762
6C8
77D
00E
734
0E1
7F7
6E0
052
0B1
749
02D
001
7D8
7FB
761
7C9
69A
000
0CC
01A
773
088
003
7CE
040
7EC
76E
74D
0DB
7B1
787
799
033
04F
78F
6C6
7B0
7DE
7D7
7DE
0A5
777
057
094
71C
019
09A
7B1
723
060
786
7BB
0C2
0C0
087
08F
76C
0D0
0E8
03C
7E2
72C
721
0C2
7F9
00C
7D0
6D3
05C
792
072
109
7A7
688
6DF
749
0A3
019
03B
05B
02B
064
0BB
0AE
7A1
75F
03B
7FC
701
7C2
072
14C
718
759
7ED
764
755
049
738
7A3
021
0A8
70B
78C
156
066
782
71D
7ED
001
06D
7C1
0C7
70C
6C9
0D1
79C
10D
71C
175
083
765
7F4
6B2
019
053
719
7B6
787
76C
7C6
0BE
0D5
7C1
7E3
734
7B7
10D
7E0
744
742
7E8
71F
0B8
0B3
738
7C4
030
0AD
062
639
76F
021
044
112
024
6E8
79F
788
152
75F
0CB
7A4
719
0D7
008
7E1
0DE
68A
08B
07C
7A3
765
66F
775
07B
0F5
05B
05B
069
170
0AE
72F
10B
082
02D
129
725
007
7D7
7EA
7F5
01D
7C8
0BA
74D
0FF
098
0BD
7AB
03A
700
032
144
7DF
00C
024
7D0
794
0AE
7C4
01D
77B
0BC
011
720
012
095
7E3
113
03B
6FC
739
772
7BE
6ED
0D7
07D
027
743
036
7C1
0D8
798
055
73B
070
0FA
120
0E4
7F0
014
7AB
7F9
04F
7C9
031
74D
0B4
75F
771
059
04E
0FC
79A
7AD
71C
09F
0D8
054
06D
093
037
0A0
0B4
02D
0C4
0F6
0DA
022
07C
03F
118
017
09E
04C
78C
031
7F3
77E
0F3
7CC
762
7DD
0DE
77C
786
048
023
7A4
74C
0C6
721
0AB
74C
097
7A4
04D
7AE
7B0
040
7D9
04D
7EF
06D
0AA

