7C3
011
7B4
7C0
7C6
7E9
7FD
7EC
7C2
040
014
024
7BF
006
043
03E
017
7BF
037
00F
00D
7CF
038
7C2
044
005
7D1
7F8
040
7EA
008
7EE
7ED
04A
7CD
7C7
7B4
002
7E9
01D
7FF
7C1
7AB
7FD
029
7F4
037
7C3
7CF
7C5
01F
03B
048
046
7D5
035
7B4
7C2
047
7EE
03E
7F0
7FC
036
034
01C
7C7
7AD
028
7E1
7F4
7FA
7F3
7E2
7DD
7CD
014
7BE
7B6
7F2
031
7CE
7C4
035
046
042
7C5
021
7CD
7F3
03A
00E
046
023
7F1
00F
014
7BE
01A
7DF
005
003
032
01C
04B
008
01A
7DE
014
01F
02D
7D2
7EE
034
01B
7E8
00F
042
7E1
7EF
7FB
7CB
013
053
035
039
7FB
014
7C2
7BE
7DB
7DF
7B2
018
047
03F
7D7
7B6
7F0
7DC
7B0
041
047
015
003
02B
053
7DC
02E
02A
047
7B7
7EE
025
052
005
7EF
7E6
7C8
7CE
7CE
046
7AB
03B
035
054
016
7B8
7BF
004
7EF
7EE
01D
7DF
7C5
7B4
7D7
7C6
040
7F5
03D
00B
7AC
052
7B4
7C4
026
041
7DD
050
042
00B
7D1
000
7E1
7C8
7EE
7FD
045
7C0
019
7C2
04B
04A
7DA
03C
03F
031
008
7B6
7D2
7AE
7DE
01E
7D7
7F7
7BE
011
04F
045
7BA
7CB
7B6
028
7C0
7DC
7EE
013
7C1
00E
7D7
024
043
015
7F4
005
052
02D
012
031
029
01F
7B2
004
7E9
03C
7D4
7DE
7CB
7BB
7DD
7BF
7AD
03E
7B2
00B
00E
7BE
7F8
7F0
02F
038
005
01C
7D6
050
7AF
02D
7F5
052
7F6
7FC
013
7C3
032
7B9
7D2
02F
7EB
032
012
01D
022
021
038
03B
035
026
7E5
7AE
022
7FD
7C1
7F3
027
029
7F4
010
7BC
7EE
01D
7FA
04C
054
7AE
002
7AE
7E2
7E5
7B7
034
7CF
7C5
00F
030
7DA
7B3
7DE
00F
7EE
7F0
04B
041
04E
7F5
7AC
7D6
7AC
011
7F0
7B5
7E5
031
046
7AD
029
022
7B0
032
028
00B
037
027
7B3
03F
7B9
034
03E
04A
028
051
7CB
7E8
7D4
7E7
020
016
7C2
047
7FC
007
020
007
031
035
7C3
01C
7F4
7BE
018
038
7B2
012
027
7B7
7CD
044
045
7D5
7B4
7C3
015
01A
7C8
000
7B2
7B2
044
7C1
00D
7B9
01E
7E9
001
050
00E
025
7D9
7B8
028
037
7C5
7EF
7EE
7E4
7EC
005
036
045
000
7D6
7CF
7C8
046
034
004
7F4
7BC
001
7FB
00D
01B
009
7EF
7C8
7E1
7E2
02A
01A
017
01F
02A
7D8
033
7E3
7B7
01C
03B
7C5
001
028
009
017
7CF
002
7B4
7CC
7F3
017
046
7D6
032
015
01F
01E
018
7CE
02B
044
7D9
7F9
7D4
031
000
01C
7EF
016
039
7FF
009
051
7D7
026
7E9
7AF
7B1
7AE
03F
7F4
00D
018
014
02C
7C6
053
7F5
7F6
023
7F9
01B
7B6
7F5
7CB
03F
037
7D0
024
7D9
7E3
00E
034
7BE
011
03C
7E4
7FC
7B8
03E
04B
7CA
7E4
02C
7AF
7EC
7BB
031
035
7F6
7BB
026
7F3
7C3
03B
7AB
01A
047
7F9
7DF
7CD
007
02A
7F1
7E9
033
7C3
03D
7DE
7AF
022
03F
052
7C0
010
022
00A
036
7D6
7CD
7E0
038
018
00A
040
052
7C8
04B
004
7D1
01F
7B0
007
7BB
7B4
7EA
02F
054
7D9
026
03F
7E1
7C8
7D6
011
7D3
04C
00A
002
01A
7D4
00F
7DA
01A
7FE
7E1
7F7
7D1
044
009
7AF
020
7CF
001
02D
03F
7D2
7F2
7B6
039
7F6
7F6
7E4
7CA
7FA
7EF
7E9
7AD
01E
034
7DE
7AF
045
7EA
04B
02B
024
7E2
7DB
04D
7F2
7FA
7C6
7F1
7DB
01A
7C4
017
7F0
043
7C1
7B2
00F
04E
7FC
040
7AE
01D
04C
026
013
038
7FD
032
010
03A
016
031
008
7E1
04A
009
7FC
7E1
02B
02C
7D7
7D5
7F2
013
02D
7E3
025
013
019
02A
04E
04D
7DD
7DE
041
7CA
026
7C3
7E0
7F2
032
04F
7E4
7D3
7F4
038
7DA
7FF
7F7
050
00B
7B2
7B0
7E7
045
7EA
019
7AF
017
00A
7D6
7E7
7CC
031
7AD
7FB
7EA
7CC
02C
7DF
01C
7F9
03D
7F4
7E7
7F9
027
027
7D4
7AC
005
7F3
034
7E5
7D5
7C6
7C6
7D7
01F
02E
032
7D4
7D9
027
7D9
01B
7E6
7BE
01D
7E6
7B4
012
7F5
020
02F
7FF
052
008
048
7C9
7CC
7B8
00C
027
042
7E1
7D3
7F5
003
03D
025
7B8
02F
7C3
7E1
04C
7E4
017
7F2
025
7FF
7CC
7D8
000
005
02F
036
7EB
7BC
02F
7E8
025
7C0
7EA
7F3
7E2
03F
7F9
03D
015
7C2
7C8
7F7
01F
00C
7F9
000
7AD
7DC
03B
022
7F2
7FE
7EF
053
04F
024
7EB
03C
036
7B6
02C
7DC
7FC
7CD
022
040
7F2
7FD
7D6
7C6
00A
7FE
026
7F4
047
7EA
024
7ED
040
026
046
7C1
7FC
003
050
7C6
7CF
7B5
7F7
02E
7F1
7F6
7CE
04A
7CA
7BA
048
7C8
02E
7C4
7BB
04B
040
7F3
035
011
7FD
7B0
02B
7BD
7B7
7E2
04F
049
03E
025
7F8
03F
017
7DD
02E
7F7
7B4
00C
052
7CA
03D
003
053
035
7C7
7B5
00A
7FB
03F
037
7DE
014
021
016
7AC
028
033
7B9
04D
7E5
7CC
051
019
7EC
7E1
005
012
021
7D9
7C7
7DD
00F
7CA
01C
004
7DB
014
7CD
038
020
7E6
00D
7C3
7C8
7CE
01D
7E3
029
7C7
01D
7CB
7C5
7E9
01E
7C2
7D4
007
7B2
029
023
7AD
7B5
005
033
7FA
7B7
7BA
7E7
021
7B0
041
00C
048
7C7
01E
7FE
036
00F
00E
7E5
7D6
7D2
00D
004
7E5
048
7B8
044
049
042
7BD
7B9
7D8
7C1
039
7D1
034
7B3
7DA
7AC
7B0
7C4
00C
7C7
025
7FD
024
7F0
03B
01B
015
022
7D0
7AB
7E7
7C8
038
7D7
7D1
034
7BF
7D3
034
7C7
7F9
01B
7C8
022
03C
037
7BF
7CD
047
7BF
017
7C8
038
7CC
7E5
043
7FE
7DC
043
7D3
7E1
03F
7D4
7D2
7CD
7D1
7F3
051
7AF
7F6
7CE
030
00B
04D
040
7B0
7DC
01C
048
7AF
7FE
7DD
7FE
001
003
7D4
01E
04C
7E4
044
018
049
048
00F
7CE
049
022
7C2
7DC
003
7D5
7DF
7F2
7B6
7C5
7BC
00D
7F1
004
7F5
7CF
01B
7D2
000
04E
035
7CA
024
001
7D7
010
034
7B6
7DB
04D
017
7F3
7B4
02D
7BE
7F5
7C5
00F
7C6
050
002
038
7FA
7E6
026
7BA
7D3
7EA
7DB
02D
7F6
7E5
7B0
7E6
7EF
7F0
03E
7F4
7DE
027
7F8
7D6
7EA
03B
016
02A
005
7FF
7FE
021
008
010
7FC
7F3
001
7B9
7C3
043
7CF
7C5
042
7DF
7BD
7E5
7B8
7BE
7F4
015
033
04A
015
037
008
7C5
004
01E
7BE
7CA
042
050
7D0
01A
7C7
7E4
02D
7E0
7F4
049
7C9
7AB
7F2
7C0
000
7FA
023
7B3
02A
017
7B6
7CE
033
7B1
7BA
021
7ED
033
7B4
7E8
02D
7C5
7FB
7EC
019
043
041
023
03F
00F
7C0
7DF
027
7CC
03B
7CA
044
028
009
7BA
02E
7BA
7FF
01F
05F
021
7D5
046
04E
7C0
062
031
010
021
02F
00B
020
7D4
01F
7D8
7B2
038
026
7FC
018
042
7D2
005
031
030
7DA
030
026
7CA
009
006
025
029
772
7CA
042
7FF
7B7
07D
06B
00C
009
019
04D
072
7F2
080
029
7F2
7D7
772
7C0
008
7DD
7E4
048
7B7
06E
7ED
7D0
7B7
04B
7CD
08E
050
012
7CB
017
06F
7BC
036
029
7E0
057
7B7
075
058
013
7A8
7AE
021
011
7BA
078
788
7FA
7F8
7FE
011
031
040
77D
7BF
783
7B8
7F6
031
000
012
04A
7B4
7F2
04E
7EB
004
09A
048
040
008
019
017
013
7FA
00D
7B2
008
00A
08B
021
7BB
034
043
03E
05C
02B
03C
7B7
00C
7DB
7EB
006
024
7C8
00D
7E7
7C6
02C
034
0B0
057
047
7DF
7E1
013
06E
788
03A
049
05E
00F
76F
7F4
7D1
7CB
791
7C5
7FB
003
7B9
7C3
01E
7DC
7D2
065
7C1
7F0
028
06D
040
027
7C3
01F
021
00A
005
00B
7FA
07A
7A0
015
7EA
01A
01D
065
7A3
00C
7F8
7DF
7CA
03E
7FF
79C
76C
7D1
00F
7B7
7C3
014
05A
7F5
7D5
7CE
7E8
7A8
022
04F
7D9
7F1
7A3
7F2
7FD
044
7BA
7AC
7B2
019
031
7CB
7D7
02C
7D4
015
061
060
019
7F5
01E
7FE
00C
7B9
7D6
7E5
7AB
02D
7D1
7BA
030
015
044
01B
7D2
7CD
7CE
00C
7B4
003
006
00A
7DF
7F5
7DD
7BB
7E3
7C6
7F6
01D
05C
00D
021
007
041
7E1
059
7D2
7FA
7ED
7D0
015
7B7
7C5
03F
7D1
7DD
05D
022
7FB
060
018
7E6
7E9
7F2
7FD
042
792
7ED
7CA
002
018
04A
042
031
010
000
055
025
7B6
7E9
7E4
061
026
7C9
7C0
011
7EC
035
7D8
7E7
037
029
021
7D7
7D6
7E0
009
035
7E0
7BA
7AD
7CD
7BF
7FF
028
7E1
7EF
7DC
7AB
023
030
02E
7B9
7FF
011
797
019
033
7E8
01F
7FC
037
792
7E8
7E1
047
7B8
7C8
7EE
02A
035
050
7C3
029
7E2
049
009
7F9
7DB
7E7
7BB
04E
025
008
04E
030
03E
7F6
016
7AB
7F7
052
03B
7AC
7C6
017
039
01A
06C
7CE
04B
7FB
7B7
02B
037
031
7CE
7E7
7BB
7FE
7FD
02E
03C
062
00B
7BA
01B
7B1
008
027
049
007
7C5
00D
7B3
047
7B2
7E6
7CA
7DD
029
051
01D
7CD
033
03C
044
7BA
045
041
7F5
025
7C2
7C0
021
7E1
04B
021
7DE
7AB
7F0
7AE
040
031
021
7FC
024
7D7
01C
007
03C
7C2
002
00B
002
017
7EF
050
7D1
7F5
7C5
7CA
021
004
03F
00E
04D
018
038
7C6
7BA
03D
7CF
041
029
7C1
7F4
7CE
008
025
047
7BB
00A
7E6
043
7F4
019
01F
7B6
7C5
029
7ED
7D9
006
7E3
024
019
048
7DF
004
030
7CF
7FD
7F3
033
03D
02C
006
7B5
7D5
048
7CA
04A
7B8
7C6
014
03C
04D
03F
026
011
048
04A
036
021
7CC
044
002
011
041
7BC
006
7DC
030
7F2
037
7D0
7E0
02D
033
7AF
02D
7EB
7DC
7C4
046
7C9
010
04E
7DB
7C4
03C
7B9
7E6
049
7D5
7CD
01B
7B0
7E9
035
7BD
051
7D3
04D
7AE
7C0
7BB
7DB
7C6
03F
014
00E
00C
7F7
030
7B5
7B0
008
7F7
02F
7F8
015
7B4
04E
7D7
7D9
04F
7F4
7ED
011
02F
03E
026
7C2
7D9
02B
044
016
7C3
017
7E0
7CE
02E
7EB
7DD
020
7EF
00C
7C1
7D0
006
7C2
01A
042
000
7CB
00B
021
7EA
014
041
7CE
7C7
7EF
02F
7CE
7DB
7FA
030
03E
049
7CC
7AE
7BF
7E7
053
002
7DA
7CE
7F0
038
7DC
7BB
7F2
7CA
045
7B0
03C
7B3
7FF
039
014
7E4
00C
017
04C
7FB
030
027
034
7E1
7F3
028
011
003
00D
026
7B9
006
047
7F6
7D3
053
7BC
7D0
7AC
7C7
7B5
044
046
051
04A
7DD
7BA
02D
046
7B8
7FC
7B8
003
7B3
7DA
029
7C2
015
7AB
7FE
025
7DE
006
7B4
7D7
7DB
00D
7FD
043
7F1
7BC
7EA
7CD
04F
052
7D2
7BE
7E6
031
01B
042
012
7DA
7DD
7EB
7F5
7C2
7B4
7FB
01D
7CE
7DA
7E3
7DF
009
00E
7F1
052
7F0
7F7
7BF
050
7EE
020
04F
006
021
02E
7EA
7C3
7D3
02D
7B9
027
7AB
7B3
045
7B4
051
7CD
7E9
008
7D3
7D1
01A
7D2
002
7DA
014
7C5
03E
036
03B
7D3
04D
03A
7EC
025
7DE
025
7B9
7AE
7FA
7E9
7E5
7D4
7C8
031
040
014
048
042
7C2
7FE
7FB
03F
02A
051
032
028
017
037
7D2
00E
008
7C1
7AD
052
031
7E2
004
00F
00B
03F
043
7E0
7E8
01A
7F8
7D4
050
7C6
006
7F6
014
7D4
7EB
001
00D
7B8
7D1
7D8
053
7D5
7B2
001
7C7
7BD
7BE
034
002
037
7F7
049
7D6
7CD
043
02E
7CB
01F
7E9
048
006
7BD
7C8
7D6
7E4
041
04E
7B7
7DD
000
7F6
02F
7B2
7CE
7EC
7FD
7E5
00D
7E0
7B8
00D
7C1
7FF
7D5
7D8
7CD
7C9
008
026
02A
029
7D0
7F7
7B9
03A
052
7DA
00A
004
7D2
7C1
7EB
01F
7CC
7FA
00F
02B
031
7D0
7C4
7F8
7CC
7EE
7FA
7E9
7DD
7B3
042
011
040
00F
01F
7ED
7B9
7F9
7B2
7F4
7F1
7E4
7C7
7C2
7E0
7F0
037
7DA
04D
039
7DA
01E
04D
7C6
02F
025
7C1
03B
051
7C1
045
040
7F1
7AD
7B5
7F8
7BD
7CA
7E6
006
7D7
037
030
022
023
042
017
7FE
034
00B
006
7F8
7FF
7BE
012
005
00E
026
7E1
025
01D
032
008
02E
7FE
7B0
016
008
030
7D1
04C
02E
018
03F
041
00E
7F3
04E
002
7DC
03E
02B
007
030
00E
7E1
7BB
7EA
7BA
02A
013
7BC
7C3
020
033
04D
7D9
03E
7D9
004
7C9
048
049
7BF
7E4
7B6
7C8
7CE
7BC
7F6
054
7C7
7DF
04E
050
7E6
00B
048
7B9
7E2
020
7D4
010
045
01A
7C4
017
7D4
009
020
030
7C2
7C3
7E0
02E
7D3
043
042
7FE
7C5
02A
7B7
7C6
01F
7C1
7B6
7F9
022
7FE
7DA
03E
04E
7C6
037
7C3
023
015
7D2
7AF
7FB
7AE
7D0
7E8
7DC
7E6
033
7DC
00B
7F5
7D7
003
7BE
009
00E
7AF
047
049
7F3
7C7
7FA
00D
003
7FF
034
04E
7C0
044
7DE
7D3
7E6
005
7D6
012
7B9
7F8
029
7D6
7E5
006
03C
7C3
00B
033
042
7CB
028
013
021
028
023
02B
7CB
02A
03A
7EF
7E0
03B
7DA
7B3
7F8
03E
016
02D
005
040
7F8
7FD
7FF
7FB
7D7
04A
7E5
016
02B
7B1
7D8
7AB
7C2
7B3
7BC
012
038
7D8
7E1
7D7
7DF
7B5
7E4
03B
029
00B
7EF
7ED
7CC
7C4
7C0
7BB
7F4
7D8
7E4
047
01F
006
04B
7D9
04F
04E
7FF
7B7
7B5
022
044
7B6
7F6
016
029
016
7F6
7CB
7CE
7B7
01E
02C
7EA
7BB
7EC
7F5
7C9
7B8
7F4
035
7EF
7C5
023
7EB
7C9
003
00B
038
7B3
7B9
7B9
7DF
000
7D6
7AC
7C9
00A
017
009
7F3
7AF
7F3
04A
013
7D5
001
7D8
036
047
03C
028
017
7BA
7BA
036
013
7D5
7CB
7AD
7B1
032
7B4
017
035
7F2
041
037
7B4
7F5
7D2
04B
7B9
7D9
7EC
010
01A
7DA
7FB
00A
7CF
7B8
7FF
020
7B7
7AE
7E7
04C
7E2
7E0
7F9
7B5
048
7D0
005
044
00B
028
7F8
043
04A
032
001
7FB
7F7
019
7D4
7E5
019
001
04F
7FC
7BD
010
7E5
01A
00D
009
023
7F1
044
01D
044
7F4
02B
7EE
7CF
022
04D
04B
7EA
04C
00C
016
026
00F
7FB
7C3
7D8
7CA
7CC
7EF
7FA
036
01C
7B9
01C
7F6
015
7DC
01E
01B
7AC
7C1
7D2
7D2
7B5
7B4
7C1
029
7E4
7E4
03B
7FA
7B2
7CE
051
7B9
7F6
02E
7F5
7AF
02B
7F2
7F6
7F3
7E8
01B
7FC
025
013
7B0
7B0
037
7E9
015
008
014
01F
010
7B8
7F2
7E0
053
7D9
009
035
04C
01B
7D8
7D1
011
01E
7CA
033
7CA
006
7B7
031
011
02F
045
010
037
00F
044
000
047
01A
011
012
7EE
7ED
04B
7B7
7DD
028
048
027
031
047
029
7AE
01E
7D2
004
7ED
7B4
036
7B9
044
043
7D7
7DE
031
7D3
7FC
7EA
7F4
034
036
7CA
7C3
7F9
02A
7FA
7AE
007
001
7F9
7E2
7BD
7C4
053
7F7
03A
010
7DE
7E7
7E5
7AB
7D0
043
7E6
02E
7B8
03B
03C
042
7AC
7C3
7D5
7EB
7C4
7F2
03C
7D6
7D3
038
7EE
7EC
7DD
7DE
04A
02A
017
7F3
03F
025
7BB
006
04B
7B0
03B
7FE
023
038
02A
04F
7DC
7C6
01B
050
7BB
03E
012
036
03F
042
7DE
012
016
7EF
038
7AF
7ED
7CA
04A
7F8
02C
7E7
7CF
014
029
7EC
7F0
7C6
7E3
00B
040
040
00E
010
7C8
044
7BF
7F2
7F8
04E
002
04C
000
7DF
045
7B7
015
7FF
046
003
7F3
7E8
7C8
007
7B2
00A
053
00A
032
7C1
01C
7D5
7C6
7DD
02B
012
7DD
02E
7E3
7CF
022
7E2
03F
7EA
7CD
006
049
014
044
026
037
04C
7E0
7F4
7D6
7BC
7D0
040
026
029
7D0
7EC
7C7
020
7AD
002
7E2
02E
04E
7FD
7C1
042
01C
038
7C3
041
010
7B0
034
00F
008
018
7E5
7DC
008
7E9
00F
008
01D
031
7EC
03D
7F9
7C8
7E2
7D6
7EA
03B
04C
01A
041
7F0
030
050
02A
7C3
7BD
7E3
03D
002
7B3
001
03A
7E8
032
7C6
7E9
7B0
032
7CC
011
040
033
7FA
03C
007
018
021
7ED
023
010
01C
014
7E5
03B
7B6
7F7
035
04D
7DE
7F0
032
033
03E
048
020
014
003
7FA
041
051
7F5
024
7BD
002
023
006
7B4
7E1
00D
7AF
7E1
033
7E1
010
7E0
7AD
01E
7B3
00B
050
7DC
7AC
00F
7C2
020
7CC
7E9
7FD
7B3
7C6
7D2
7F1
7C3
7F8
7E2
7C5
00F
7F1
7E8
024
7C3
030
7B5
7D8
030
042
7DA
7CE
7DB
03E
016
7C3
01B
7C7
7D2
00E
02F
7D2
018
7DA
012
001
7E8
7B1
7B2
7D7
7DB
01B
026
7CE
7B6
02E
7F7
7F5
7F9
7EC
7D6
000
04D
7B7
7F1
03F
048
7B5
7DC
7DF
048
03B
014
7E3
023
7E7
7EB
04B
034
01E
7B7
7FE
000
050
005
010
019
04C
031
7CE
7B0
018
032
00D
01D
02B
04B
7EB
7E0
003
7BC
045
7F3
000
007
7CA
7AC
026
032
7F5
7D5
7FA
7D7
7CA
04F
014
00B
030
7E9
010
02C
048
006
02B
03A
004
7D8
010
7D7
7CE
042
01B
004
031
7FD
02A
03F
7CC
048
7F6
7CE
03F
7AC
7C5
02A
010
00E
7C4
7EF
01C
043
022
02A
7FD
7EA
7EC
7F6
022
7FC
7BC
02D
02C
02C
7B7
7C8
031
7E4
03F
7DD
006
7E3
7DE
7B7
02F
006
7BD
000
03E
7F5
7EC
7E6
7D0
7EE
7D0
7C0
7D7
7DC
020
041
7B1
042
7F8
021
030
7DF
7AC
7CF
041
7AC
012
7AC
00B
03C
7F9
7B0
7E3
007
7C2
7C5
7C8
032
7E5
7BD
046
7F3
7FE
045
7E6
050
7F1
02D
7D6
7F6
030
7C8
02E
038
7E5
052
038
04B
01D
043
7EB
01C
7EA
7E6
01D
053
00C
7DA
7DA
02C
027
01F
02A
049
7F6
7F8
002
03E
039
7E6
7BD
002
029
7B9
7E6
7F5
7EC
7F1
035
7EA
7EF
7F2
7ED
020
038
04A
031
7D9
03F
7DC
041
7C2
002
7B3
7ED
7F6
033
7AC
7B8
7F8
7B2
7BA
7F9
021
7F6
011
010
049
009
00C
005
7B3
7D4
7F9
053
034
7CC
7CC
7E5
005
7B9
7D2
024
7EB
02B
7BF
04C
7D6
04D
02D
03E
048
7D8
7FA
7F8
7BE
007
03F
7D0
03B
035
01C
7B8
7C5
7F8
7ED
023
038
7F4
056
01B
7DC
7C2
024
7D6
7DF
02C
7E1
7B3
7B5
056
051
7B6
027
7CB
7B4
052
02A
7D0
002
7ED
01A
047
7DE
7EB
7F9
7BE
02C
010
7D6
7DC
7B6
7F0
04C
7F3
7F3
7D5
7E1
03D
04A
7FB
7D8
7B5
002
7F5
7E7
7E5
054
032
7B0
7F0
7EA
7C6
7E0
7F7
7CC
7FD
048
7F6
7E6
01F
035
7D5
7CD
7C3
7C1
7BB
7E2
7E3
015
048
7E1
7DE
001
7E0
02C
03A
020
7E5
041
7F5
7AB
7F8
7C3
7E0
01E
7D0
019
7CA
7DA
7C6
7E2
02F
04E
7AB
7B0
7CC
002
043
7F0
058
023
06E
05A
012
023
7BF
7F6
036
7D6
7C2
01E
003
7D7
7D0
03A
7B6
043
7DA
004
00B
058
7EE
025
017
7F1
033
033
01A
053
00B
024
7B0
03F
7C6
016
01A
7D3
00E
7F5
7AB
7B0
7C7
058
04D
7DA
7B8
7D9
7CE
7AF
7A4
7CE
049
005
7F9
057
022
7AA
020
7D4
7FD
7EF
00A
7F1
04E
7ED
7E2
022
7B9
044
03F
7EB
012
7CC
7C9
028
7CA
02F
7C2
7B6
7C3
014
7AB
044
7AE
7B2
7CE
7DA
7BB
004
7E5
7DF
7E3
7BB
78A
074
03D
011
7EA
04E
054
036
0D0
07E
7EB
03B
7EE
03A
7DC
03D
040
797
790
7AF
7B1
7E3
004
7D3
76B
03C
0C1
7D3
030
7C3
035
7FC
050
081
02F
03E
7E3
028
7E6
7E2
7D7
031
06F
02C
031
065
7C1
05A
74B
0A4
0B2
06F
79E
745
7E0
793
7D6
771
04C
77C
047
059
7D2
7CC
7B8
019
05E
023
7E1
7F0
06C
053
7FF
766
02B
7D1
79F
01D
099
7B2
007
79D
7C9
028
07C
00A
07A
050
7D1
7D2
76A
7C9
799
05D
72E
7E5
02C
02A
074
78D
754
025
011
7F9
055
79D
06A
7CD
04D
047
003
012
04E
7D8
7E8
02F
7D7
024
783
75E
00C
7C6
7EF
7DB
7FC
0A2
019
07F
061
7A1
7F7
012
098
007
0A5
078
7AF
042
7C9
7C9
043
04A
09E
053
7E8
014
7DE
013
790
05D
09C
036
786
7C2
7F8
7E2
78C
778
7C4
7D4
0A2
7F1
7E2
7F8
028
030
0BA
7B7
7D3
7DC
023
7C8
7BC
7A5
03D
7B0
759
7C1
0C3
059
7DD
033
7E8
7C6
020
04B
059
7C1
007
7DD
74A
031
77A
018
79F
7B2
008
798
7FC
7D0
79B
034
042
76E
036
7CF
077
7EE
01E
04A
7EC
7D3
05F
03C
056
7DA
048
009
7DB
791
077
7BD
7E1
781
7A9
046
7EE
7D3
024
7D1
031
7EB
070
7F8
058
7E4
7E1
01E
06A
7FC
01B
032
013
048
015
051
7D1
0BF
7AD
7E8
051
003
049
799
7E9
793
01D
7DA
01D
7E9
00D
057
02C
7E0
7DA
7FC
00D
00B
7F1
04B
01E
787
001
01E
037
7F1
7E7
7F1
02A
7D4
7B8
037
037
001
7E9
7FF
068
7F8
78E
034
7D2
049
7FC
043
778
02A
069
7CB
044
792
7C6
09A
0BC
741
7D7
79A
0CB
7FD
0AB
05C
00C
04A
032
07F
7C6
7AB
023
037
7FF
77E
0DC
7EE
7A2
000
000
08E
047
060
052
7D5
013
010
061
074
08B
7CF
7DA
01B
7C5
010
7E2
0C1
080
003
062
7A3
018
0CF
7AE
7AD
00E
06A
7F9
7C2
041
7AA
7FA
07C
020
009
0C2
05C
7C0
7E3
78D
000
01C
014
7F4
7F8
099
7EA
7FC
78A
7FC
77A
7AE
7DD
074
018
7B4
02D
7EF
7BD
001
038
02E
7D9
7AD
03C
755
043
022
015
7BC
7A6
012
000
01F
77E
77E
035
08C
7E4
008
7DE
0DD
796
041
014
7B4
031
060
02E
7E0
7A0
00E
7E9
008
79A
053
02B
7AB
024
08E
7F7
037
07E
7EE
794
790
02C
029
7E3
04E
7EC
77B
7E7
00F
7B8
7EC
0E9
7FA
07F
7C9
7FF
7D1
05F
78F
01C
05B
050
063
784
7AC
006
7DF
040
7B5
003
0AD
7E8
000
7BD
7C3
7BC
7E6
7D9
01E
7B4
091
031
7D4
024
083
7B3
7B5
7CD
066
052
7C7
7C7
001
7E6
7CE
7B8
044
7D0
7F2
035
79D
7C4
798
067
730
743
780
02C
058
7DB
781
7EC
7D3
795
050
7FD
7F6
7BF
02F
7C8
030
066
7A6
7FE
02F
026
7F8
74E
793
7BD
061
041
7F4
00B
7F0
03F
003
084
79F
7E7
021
7DA
086
012
062
7AE
7EB
7DD
018
7F0
05B
03E
01D
018
03F
087
7CF
7D8
026
054
006
071
017
7C9
7AD
7ED
024
02D
009
7EB
01C
7F4
047
7F1
7F6
7EE
7E4
744
004
7D2
7FB
01D
7F3
7ED
0A1
002
038
781
024
7D9
7EF
797
04A
7FB
052
7A8
033
7A3
02C
027
009
785
03E
7F7
048
7CB
03D
059
03C
791
7F8
06A
01A
791
01F
7EF
015
785
089
00D
01B
08C
78D
0C7
04F
7C4
04E
7E8
001
712
09A
7DA
7DA
7D6
7EA
7C4
04E
034
04D
78C
7A8
79B
0BA
020
055
02C
72A
011
7B3
7C5
009
027
036
0A4
79E
0CC
7B6
0A3
78A
09C
081
036
0D3
7A1
027
00A
7AF
054
79F
7E5
0CA
772
7CD
7EF
043
747
141
74A
029
7C2
025
035
03E
01A
0AA
747
790
7B1
0BD
7E7
060
00C
7CF
01B
7D9
021
066
79B
7D1
7A4
01B
7F1
7DD
065
7E9
722
7B1
006
022
7D4
7D1
7D5
7F2
008
7DA
04C
06C
042
009
7F9
008
118
78F
021
7EC
008
049
7C5
7EA
761
08A
01C
7E3
7D4
7EE
038
078
0BB
028
7C8
046
7CF
061
7A9
09C
7F5
015
021
7CA
022
051
7C5
04D
0F7
77D
055
7E2
04F
046
08C
003
087
0C4
719
7BF
7BF
7F8
062
7B0
7E9
0D0
7B2
7FA
7A0
082
7CB
0C5
785
025
005
052
052
00D
7AE
0CC
6D1
03B
7CC
05D
7E5
08E
7D6
030
78E
046
793
085
067
773
028
029
7EB
7DF
7F9
017
789
025
7D2
7DC
059
75F
003
7D0
7BE
025
07D
770
045
015
7B5
01B
161
7C0
7BF
7FA
7ED
043
07E
096
049
06F
7A2
041
7E6
7E9
7F5
7CC
050
771
062
007
7BE
7E7
7E3
7A9
7BF
7D0
7B2
7ED
02F
7B5
017
7C9
041
7BA
05F
024
71B
7DD
7C1
797
015
7C5
72D
027
7F9
76B
7E1
7B5
011
0D2
7D4
05F
07B
020
008
01E
031
7A2
7F0
77F
7F0
798
7B7
104
6D8
7D0
785
023
04F
7CD
043
058
06E
016
087
038
02C
035
086
08F
7B0
7D0
7C4
075
7C7
04D
036
7B4
03B
7A9
783
012
7EB
04B
022
7AD
024
0B1
7FA
006
0E5
7B3
049
7CE
076
024
08A
0C8
766
7C2
799
04B
7F3
791
797
088
03F
09C
048
7D1
7C1
0CE
05C
7C6
7C9
080
047
7EB
783
019
032
7CF
0C4
71A
05C
019
77A
793
05F
03C
014
7F4
759
7F7
7CA
762
7A3
7CF
782
16D
03D
7BB
03D
78E
7F1
112
053
7D9
038
77B
7E6
7F0
79D
074
777
74F
76E
0E9
7FC
08D
01B
0A3
08C
034
0BC
048
032
7A8
03C
74A
7CC
7C3
005
792
74A
034
7C8
043
74C
7E1
010
793
76F
7B2
7FF
767
04F
0C7
050
7F2
0C7
7EB
05B
7F8
7FB
008
02F
022
775
7CD
0A2
025
023
00C
06A
0CD
7F9
07A
09F
771
7C4
0C4
7F4
74D
715
022
7D5
7FE
761
7EF
7B4
791
01B
7C2
050
77D
7B1
772
088
0BA
042
005
7A3
7C4
796
7A3
7CB
047
023
08B
0CC
7E0
09C
042
084
0A4
04C
797
07F
00F
052
7B2
772
083
765
76B
78C
0A7
01B
09E
04B
052
7C5
000
0AC
7ED
056
75A
00E
718
762
76D
078
77B
028
0EF
036
0BF
79A
73E
752
7FA
75C
7A4
001
78D
003
0FB
0C6
7E9
140
021
13F
7DC
03B
06E
75D
027
74F
037
06C
062
053
7EC
06F
128
055
0A4
076
7E4
03E
0C4
0D7
796
79F
035
005
025
7DC
02C
018
056
087
73A
0BD
033
027
74A
13C
0D6
11E
7FD
761
7AC
78E
742
7A9
093
7F9
0D4
0F8
7BE
7E7
7CD
045
061
7F1
7B6
021
04C
04B
00D
786
08F
756
77D
7DD
0D2
04A
015
7C4
00C
75B
7ED
79A
0D9
09D
7D9
786
722
7C8
7B5
136
772
79C
049
7A3
0CB
7B5
7FA
016
053
00F
013
052
09A
7F1
0A9
0F9
7E3
11A
020
0CB
065
7AC
7F9
74F
7E3
7BB
09E
006
03C
7B5
7BA
7E1
0B9
09F
083
756
792
7CE
0F0
069
097
014
70C
7D7
7DF
7E5
7FC
7EE
064
016
7A1
0C6
052
0E2
758
099
0B2
03F
01C
780
02E
003
7B0
7C1
014
7CC
04D
021
021
77D
79F
78F
0C1
06C
023
7FE
042
7BB
7E5
7CC
05D
72C
795
7D4
0C7
07C
7E4
7D9
06E
7C1
7F6
7F8
03F
7DE
02B
7A2
778
78A
7F6
0FF
77D
7A0
02C
7FB
07D
75C
789
7BE
058
7BD
7C3
07C
08D
00E
0EE
0F7
774
087
02C
0B1
024
7D8
006
02A
780
724
080
782
7CF
798
78D
7A6
080
02B
102
786
7D0
7C8
0AB
089
0AA
09D
765
036
785
7DD
01D
7C8
0B8
7E9
013
0D3
7BE
071
737
0AF
0A1
0DD
7BD
7E4
7BA
78C
7C0
740
7C4
7A7
01D
04F
7B3
79C
76A
7CF
095
0EF
093
7BC
0F6
7F7
789
7DA
7E0
7A2
781
777
094
066
7B5
79E
00B
01B
7DC
018
044
77E
7DE
7FC
7F4
793
7D0
0CA
791
779
013
7EB
05D
726
773
780
0A0
7E0
02B
0CE
07B
07E
0D1
0D3
77E
063
04D
0AA
011
035
0A7
78F
774
7C9
073
7AA
7FB
7E2
7D7
785
0AA
095
0E5
7A0
7B5
003
0A8
03F
069
00C
7F5
053
79E
7AA
7B0
7A1
00F
027
022
049
7E3
05D
7A7
05D
003
041
7F2
771
7BB
017
7BC
758
77E
73C
7EA
077
78E
7BA
770
00D
056
09C
02F
7E5
044
7B1
7D2
7B8
7FA
768
787
79A
028
037
044
791
07C
7EA
7B8
025
02F
78D
7A4
7C1
7BD
7BD
03F
071
7C7
789
7F4
033
0A7
78C
7A3
7A8
07D
7EF
7D3
0A6
025
060
04C
07F
7C8
056
03C
026
06C
029
061
783
723
7B1
018
7CA
7A7
009
7A0
7B6
017
024
0AB
7BC
02A
7B2
046
005
05D
7BB
748
043
025
05A
047
7D5
095
041
045
084
7DC
010
77D
0A2
09F
084
7C8
7AA
039
7B9
7AC
785
019
7B8
027
07E
7EC
7ED
770
009
023
057
068
052
046
7FA
7C7
00F
7EF
7F9
772
008
050
063
01A
798
076
042
00A
03B
007
7B4
7F9
7B7
7AD
7B3
7A7
058
759
757
79A
7C8
02D
765
008
797
060
7BB
7B5
06C
008
013
011
018
7EE
014
019
045
040
7E0
00E
7F9
7D0
7E6
030
042
039
019
7F4
01D
061
05B
082
785
7D2
7E5
038
07F
010
013
790
02D
01B
052
03C
035
037
04C
01F
00C
7F8
045
7B1
052
04A
033
002
7DA
046
7BA
01E
7AE
03D
7B3
00C
053
7AF
021
7DD
046
082
01D
022
052
079
038
7FA
7BC
054
7BB
7C9
000
06D
037
7F3
7D4
010
7E8
7F5
7F0
05D
7CB
013
7C2
007
01F
7AC
7E6
7CA
7FF
7F5
01B
7FC
783
78A
7E5
06F
7E1
037
008
023
042
009
08A
017
038
029
05E
7F4
7DA
01D
00B
021
7B9
7FF
7F7
001
7AD
7C9
7CA
7F2
025
064
7EB
7BA
7BA
055
028
079
7B4
7C8
00C
033
7BC
7DA
01B
01D
020
017
028
7B7
06F
79D
079
017
05A
794
003
7F5
7AD
7F1
7E1
7C8
7FD
052
06F
7E5
799
00D
001
091
030
011
7D9
028
069
01F
79C
7D3
7A2
7F0
7B1
02C
7D3
7FB
7BE
048
049
7EC
7ED
058
02C
024
01D
779
7F3
7DE
048
78D
004
7C7
015
7F0
7A0
7F2
018
7EF
7DA
7B4
03E
04F
7CC
001
015
7FF
7C1
022
7B2
7E5
7D1
00E
015
002
042
048
7F2
043
7EC
7B7
040
7FA
7BA
7EA
038
00E
7E2
009
03C
023
7AC
7F8
013
7C0
7B1
7E2
03B
010
03C
03E
7B4
039
01A
7C0
053
7E1
047
7D0
022
029
02B
7E3
7C6
01B
7ED
015
7D5
034
7FC
026
7AE
7AE
7F5
7C0
052
7B9
04F
7D3
050
039
7D4
7D0
00D
02F
7C2
7FC
016
7F9
7C8
7E7
015
7B0
7DE
7C9
7E8
7C5
7EF
037
011
7EE
7DB
7B2
7DB
022
7EC
7C2
036
7FC
7AD
7EE
7F4
01E
7FC
7E3
03E
000
04B
7BE
7C6
7EC
7E9
052
7E0
005
7DE
04B
004
026
046
005
7F6
01C
7D4
7E2
004
044
046
7D1
015
038
01A
7EE
03E
019
7AC
02C
7E4
048
7F7
04C
01E
7B9
7BB
02B
025
03C
7DC
7DE
03E
00C
7EC
02C
7BA
014
7C1
02C
03F
7E0
7BD
7AC
7C8
004
7E9
002
042
7D3
051
015
7B3
7BC
7D9
039
7BD
03F
04D
7FC
051
7D0
7EE
020
7D9
029
027
003
02F
7F1
04B
039
7EB
00A
03F
7E8
042
02E
7E2
00E
7DC
017
7AC
02C
7DB
7F0
04C
020
7FA
7B1
7C4
046
7B1
01A
7ED
7EF
000
7D0
7EA
007
7B3
7FB
00B
7B9
02F
7C0
7D4
7E9
020
027
00C
7F1
017
7C9
7C1
01C
046
7AF
7BF
7D0
7B4
005
03F
035
054
035
7CB
01A
7CE
7B0
7F6
7C9
01E
049
7CE
7D8
00E
7B5
02B
01A
027
03E
035
01B
7ED
024
020
7E3
017
7B2
7F5
7BD
014
7C8
7F8
7E4
018
04C
7F0
7B7
7FC
7E3
009
7E4
7B5
04D
7C8
031
019
7EE
7C3
04B
7D1
7E5
7D2
7E0
00D
7B7
02C
7F9
050
011
7F6
7BB
7D3
028
03C
02B
7B5
04D
7E9
7C4
02C
7D4
01A
7F7
009
7BC
050
7D5
7EF
7C3
01F
7EC
01A
7FD
03C
7E3
00E
7B2
016
008
03B
7BC
7E5
7C4
048
03B
027
7EE
051
7E3
7E3
7CF
051
7AB
02C
014
04A
04D
046
7F3
042
031
03A
01F
7F0
7FA
00B
038
7D4
050
7ED
038
7B8
7D8
7F2
7C7
025
7AE
7ED
044
7E7
009
7F5
005
7C7
7D6
00A
7D5
021
7D0
043
7D8
7C3
7D7
7F9
7DF
00D
7BE
009
7C8
7BB
7E6
7DD
7FD
008
7AD
046
02E
02E
7D5
7AC
04E
7D4
003
007
04C
7D7
7F9
03F
7CE
035
7E1
7C2
053
7D6
001
04A
014
00C
7E9
044
023
00C
03F
00D
00C
7EE
7CB
7B7
7DE
03A
011
00C
7E8
047
7FC
008
049
7AB
016
7AC
7EC
7D7
7DA
7F3
7D7
7E5
7D0
7BC
7FC
017
044
7C6
050
7DA
026
7BF
7B8
7C2
7FD
005
7F9
043
7EF
047
7D4
040
7D5
7DD
7BB
7B3
016
7F0
052
7C2
7D5
7DF
7C9
02C
7DE
034
01D
035
7EE
7F2
019
02F
7EC
7F6
02D
7BA
016
000
008
042
7FD
049
7F7
7CD
000
01C
02E
7D9
7F0
03B
7BE
7F1
7DA
03E
7F8
035
7CB
050
022
00D
7E7
038
043
005
03D
02F
7FA
02B
7C9
04B
011
7DE
7DF
043
049
7CA
7FD
7BD
025
00B
7E2
7B1
046
041
7FD
028
052
7F7
019
04D
03D
00A
7C6
7E6
000
7E1
7D0
00B
036
011
7E6
7F8
00B
03A
7C7
7F2
7B4
7D4
7BF
01A
048
050
7B6
029
051
053
051
7E8
052
000
7B1
7F2
02B
019
01E
7DF
021
7AE
003
038
7C0
036
7B0
03D
03E
7EA
008
7DE
7FA
7BF
03A
000
7D7
7F6
000
7EE
047
026
7B9
022
7F3
7B0
7CD
016
7DB
029
039
7E8
000
7AF
00B
7AA
7BE
7CC
7D9
01B
01A
02C
7CF
045
009
00B
030
7C3
02A
03C
04F
7C1
02A
001
7DF
04B
7B1
7EA
7B4
038
7CD
036
7C3
028
7BB
7FB
7FA
7D1
7CF
7F3
046
005
7FC
7C2
7F0
7EC
010
025
7D9
053
7BA
040
03B
04B
033
032
7CB
7CB
02E
7C4
017
034
7B0
013
009
008
050
7D6
7DA
006
03E
7B4
001
002
043
7C0
7B9
7B6
032
7C9
7F3
02D
7E2
051
7F4
7FA
7EC
7A3
79C
02E
023
7E7
7BE
7BB
03A
7DA
7DB
7F4
05C
089
7F9
095
05B
7D5
7CE
7DA
7A4
03A
7D2
7D8
7ED
01C
014
7D7
062
00A
00C
024
030
042
781
08C
014
7D7
039
002
0B7
053
09F
002
7CE
006
7C6
7DD
7B0
013
0A8
098
77A
7B8
7C3
779
000
7B3
7E0
7EA
7D8
052
00B
799
03C
054
04D
7EE
7C5
7EE
063
074
7D1
01E
7E8
7DE
7CD
7F5
02C
7D8
081
7D4
006
7C0
7F8
7C4
065
7E9
7F4
00D
7C4
7AA
03A
01B
09B
00D
021
7CA
0A6
7A3
7BF
7BD
041
77F
7D6
7AF
7E9
017
031
7DE
76B
04E
7E6
0B4
7EB
01E
069
7C6
798
7B3
00D
7D9
7D7
7AB
7A8
045
06A
04A
0A3
7D5
7F2
7B9
0A3
018
7AD
057
02A
04C
7D2
005
039
05A
0CD
06A
7D6
064
7CD
7C5
788
7D6
0A6
09F
7DE
7BC
044
77B
006
743
7FD
7B7
097
000
018
7C8
006
022
034
073
035
7ED
0A6
09E
011
00F
7E0
7E3
792
009
07C
7E7
076
7DA
015
7C5
058
7EF
02D
7C2
077
019
7A1
7CB
022
020
054
7F4
7AD
008
0C3
7C6
79D
00A
0C5
7BD
7D3
038
040
034
08E
082
7AC
7DA
7C7
7EE
017
7CC
7E8
015
75F
7C2
022
04F
002
00D
00D
05A
00C
07E
7E4
7A4
7FB
7AF
7E6
03E
08E
00E
780
7D5
7DF
7DD
018
014
01C
000
7D6
7FF
791
0A5
77B
041
00F
06F
014
7DD
7C4
7D1
7CF
006
7D7
7E9
09D
7BB
018
773
7DC
071
07E
052
7C4
01E
0BF
7F2
00D
7CF
7BE
7CC
77A
022
0C7
7E1
7BC
791
04D
02D
7EB
009
032
02E
7F6
7D1
790
041
793
055
772
043
7E7
7CE
018
7D5
7B7
092
059
79D
049
009
033
006
080
09B
7E2
01E
013
00A
012
7E8
021
7DF
7BE
7A9
016
025
7F8
029
01A
069
0B1
03A
025
78C
7C0
79D
7D2
083
06C
042
756
7B2
078
7B3
023
082
07F
059
017
007
783
0A6
79C
09E
058
021
039
7DA
7B0
7DA
006
04C
79F
78E
073
7ED
04B
769
00E
008
0A6
7E5
79E
000
056
7CE
01B
00F
7E3
7C3
7AC
005
08F
7B7
7A1
033
009
084
02F
003
027
05E
7A8
7F7
791
015
7F4
0DF
7A8
7B6
004
7D1
031
766
758
03A
018
7A1
7BC
7FA
088
77D
020
081
7D5
082
7F6
002
7F6
7BA
024
7CD
023
73B
046
038
7BF
7B4
7D8
0D3
0AD
09F
01A
7A0
7B7
79B
0B1
012
08D
00E
7BB
016
005
766
052
049
072
0B2
033
050
017
070
7A9
0DF
035
041
06C
75C
01C
7D5
7F2
7C2
02E
79C
101
058
7D8
7B4
7DA
02C
0F5
7D8
7E6
021
0A6
010
016
7A8
0B0
78A
7D1
79C
0CE
038
7CD
789
011
7E6
7EB
7BF
0BB
7AB
021
034
79C
7C6
7F9
0EA
74A
79C
7B7
7E5
033
789
7C6
0C7
163
008
043
7E1
053
7F4
024
194
7AD
7BD
010
00A
7C9
7E9
7BE
793
7B8
709
047
0AE
78D
7E3
079
10D
0A9
04F
7F3
773
007
7E8
79B
003
078
02C
769
04A
063
771
04A
111
082
02F
09B
0CC
7AB
113
7A5
12E
0DE
0DD
030
712
01A
7C8
01C
7D4
01A
778
0C0
7E8
008
79D
7CB
00B
01E
02F
054
04F
102
75D
75E
7F3
04D
78F
6D9
7B7
07F
032
795
7FE
7BD
7CD
7F7
7BB
068
0A5
7E8
04D
7A5
009
7EC
172
7D0
7B4
7FC
7C2
05E
7C1
7CD
079
112
7CD
080
78F
7FE
7AD
007
129
741
7D9
7C8
01E
7BA
7D6
75E
76C
7C6
6E0
797
0A7
07C
008
099
0BA
157
092
7F5
72E
7BA
00C
7B9
7FB
7D8
7FE
6E1
032
0F3
005
007
0C2
097
7EA
082
01D
75A
0B5
083
12C
147
08E
065
75A
7EC
7AB
798
7DA
7C0
020
0DA
7EE
06F
7AA
76E
10A
792
764
06C
044
10D
723
77C
782
7D2
018
74C
000
7F4
7EC
736
020
004
7AF
7FA
764
7E5
096
7BC
09D
7F9
77B
727
196
0A8
028
085
75D
069
771
7D3
0DD
0FA
7B3
0A0
77C
7FE
0A2
06E
14B
78E
7FA
008
031
7C9
7B8
7C9
77A
056
799
7E1
0D8
7E2
7B8
06E
0EF
129
074
76E
6FF
78B
0B9
074
7E5
7D0
7BB
749
7F9
0BB
03A
7C1
161
006
090
001
0B8
736
0CF
7BC
199
196
10F
798
71C
7CC
772
748
048
052
7DD
0D5
7C9
7F2
7FD
752
09F
013
76A
0D9
7D4
0B8
7DD
01A
742
7B4
786
763
7FE
03E
075
7FE
7D7
04A
014
782
01D
05F
053
78C
053
7FB
001
6E4
153
037
072
0D6
7E1
7E2
751
7AD
0B4
130
7CF
050
76E
07C
0D9
081
135
787
025
00C
024
79D
78D
7E1
052
00B
6F4
08B
0E7
019
7C2
0D0
7F5
0FA
049
741
749
00C
7F7
0C1
06E
045
7E9
738
7FC
7D9
7EB
045
158
085
13D
769
01F
774
09D
710
102
159
05A
766
708
7B8
752
73D
072
7FF
776
13C
7F0
75C
01E
737
0C6
0E3
7E6
066
050
13B
7B6
7D0
7A5
7F3
7B4
7B5
03C
14C
066
030
781
09E
05B
7C8
065
10C
018
7BB
09D
7ED
7DF
768
103
78B
77B
047
79E
009
7A3
78A
027
086
76A
09C
772
040
06A
02F
0AA
787
002
7F5
04F
7DD
76A
781
79C
778
782
033
039
7D9
77F
064
7C8
05A
79E
686
70B
7B9
011
0BE
08D
048
79D
7D3
029
07E
787
7B8
0D5
091
06D
777
079
794
043
7C0
030
11F
02B
78E
79F
012
77C
7AB
029
01A
7D2
0D3
008
7E4
7F9
010
0B0
048
784
07F
00A
0AA
01E
7A8
777
77E
6DF
797
7DF
08F
012
01A
79A
0B6
056
7A5
012
050
031
787
055
7E5
778
6D8
131
76A
7AA
0D1
757
050
769
751
79A
044
7C3
0BC
04B
03E
05C
0D0
7A5
744
06C
04F
00B
02D
7D9
7DC
7C5
778
7CD
084
011
7C4
750
7A8
728
0A4
7C9
6C7
740
783
04A
057
7F2
7F0
738
7EE
7C7
05B
7C3
00C
04D
7E0
014
7EB
0D6
773
79F
7E4
795
111
039
729
00D
00F
74A
745
038
02E
737
04A
095
027
04B
05D
0B4
04D
7CA
79A
03B
0D5
77F
76B
7E4
767
671
7C5
7B6
0CC
02D
7B5
7A7
123
7AC
727
78A
0B8
014
757
055
7AB
6CA
6D5
06E
77B
7CA
044
748
04D
791
6EF
024
0BC
76F
0D0
01C
096
06C
03A
02E
6E4
7F8
7B2
028
012
7A9
091
019
773
005
0B3
073
7E3
7D4
063
7B5
06A
020
773
75F
77D
078
7F3
088
05D
707
000
7EC
030
013
78C
7A1
7DD
02A
03B
0C7
792
051
7F3
7F1
0CC
7BC
7D6
7E0
03E
703
72B
0DD
013
7D2
0E3
071
7D9
05A
7F1
0AF
0EA
756
777
03C
0A0
765
7A3
777
72C
6C0
047
76C
029
7F8
7BF
71B
0FF
03E
7AF
79B
039
001
7E3
056
7EB
71F
72F
0A4
74E
011
7C3
710
7FB
032
7E7
7C5
028
7A9
05A
0CB
028
089
0E1
7D7
6F2
0C7
045
02B
78E
7A7
0AE
0B3
764
702
0C1
0B9
7EB
7C0
026
754
043
065
776
7D6
792
7B8
7FE
0E2
055
771
7E2
79F
7A7
79F
036
7D2
016
065
753
05A
7F1
0C9
76C
7D9
049
7AE
040
7BA
7DB
739
741
0B2
797
78C
02D
069
00E
7A5
765
020
0D7
001
728
076
06E
7B5
756
73A
795
6D8
010
7D6
0E5
7BF
787
79F
0DC
7CA
76E
7E2
7C7
056
7AD
012
059
6FD
7D0
058
780
7C5
781
73B
7E0
7F0
7B2
05F
7CD
7B6
018
088
7C8
026
0F5
7B4
6ED
17A
00D
079
76E
7F7
0EA
0AD
78E
7F8
04A
10B
039
01B
00B
7AD
05E
03F
012
052
784
7D5
06C
0C1
00D
74C
001
716
027
7A0
018
019
06B
07C
73D
0C1
7EA
0EE
731
075
0D6
760
088
762
008
726
718
085
044
7C7
7DE
10E
7B0
7DF
791
030
086
7F6
715
054
0BF
08F
785
750
7D3
792
727
017
03F
7B1
7FE
7ED
12D
78D
77A
7D3
08A
0A2
7E6
7F0
073
70E
00C
0B4
752
7E9
6EE
765
05B
008
7F7
00D
7AD
7B3
01B
03F
75D
066
0B9
7DE
729
13C
052
019
7A5
7FD
03D
01B
7DD
001
02A
0C6
08E
018
07D
049
09F
0D0
020
0A6
7D9
78F
03A
0A2
7E1
73C
011
7AA
033
7CE
043
7BF
7AD
7BF
782
0BD
7B7
0E4
797
0B0
0C8
7E1
03B
061
7B5
088
000
0E7
091
7ED
062
12F
7BC
738
7C3
018
05E
7E7
005
7F9
060
018
795
787
046
004
7CF
7C0
064
75E
7B5
7A4
0EE
7D9
00C
018
0A5
0B8
7EA
783
7DB
7C1
7CD
076
7B2
791
77A
05B
034
7A9
001
796
7C6
72D
7C8
059
76B
0D3
03A
082
7CD
0A0
04F
0B3
030
016
08F
017
040
77C
7EF
0A9
0F2
056
036
7F6
125
122
05E
7ED
77C
008
0AB
083
01C
7F5
7D8
7F2
02C
797
04D
0BC
7D6
793
7D6
0C7
090
047
744
03D
063
7EF
7DD
791
7F7
010
059
00C
07E
74B
7ED
08C
6E5
7BE
740
7CC
086
05D
01A
7D8
075
7F7
781
7AD
03F
777
05E
023
137
7B3
7F5
79A
0CD
7AC
043
000
7CF
044
098
74B
758
024
7ED
037
780
777
766
0A0
043
7ED
7D9
723
05F
005
7E9
0A0
7F8
092
07A
017
73C
19E
01F
03F
01B
7BD
064
091
01A
730
7B7
79E
0A9
7BC
756
7B5
0AB
0ED
0A7
78E
7C5
7E9
071
04C
054
0E1
6B5
047
7A7
7E6
00E
0E4
7E1
7C7
04A
0C3
01C
088
765
77B
7C9
7C3
7E8
7BF
7E8
7DB
040
79B
05C
77C
057
792
6A5
7C4
71D
7CB
02B
03E
0CC
01E
054
7BF
766
7F5
04F
781
029
01B
111
7EA
6D3
009
094
79F
05B
7F6
793
7D4
0E5
7BB
00F
00C
7D3
026
6E6
790
760
086
03D
712
78A
7A6
023
7DB
7CC
0E1
074
077
0AB
09F
78B
1BF
7E4
06D
039
7BB
00E
078
7A5
7B9
03A
797
007
7F0
017
703
0DD
06E
0D1
782
774
7B0
094
7E2
050
0B8
72A
02C
7DF
7FD
7DA
7E8
00C
7F9
008
0F0
049
0C4
77D
774
056
07F
7CA
7D4
004
75C
7B4
7F1
7E5
77C
034
7E1
6B6
7CE
6DE
788
00E
028
115
00A
0A9
77B
744
7FA
004
7D3
7D0
7C6
041
02F
7A0
7CA
04A
019
032
017
7D2
7C9
0B1
7F0
7AC
7CF
7AB
053
6DE
77F
73B
07D
7D6
716
7F2
7CD
085
7BE
012
0B0
095
00C
0C4
0A9
7EF
12C
7A1
0FE
05C
792
03E
7D7
708
775
031
78F
7D1
039
7D4
79E
0EC
077
0D5
7AB
025
01C
04F
01B
066
098
6DD
03D
7D7
07A
7E7
7D5
7FC
07C
037
066
7E4
085
77C
7EA
05D
04C
7BE
7DA
00D
726
789
7E4
7F3
77A
7E0
03C
721
7FC
6D9
00A
7F6
07A
0E3
033
125
747
769
7F3
026
7C8
7EB
7D8
058
07A
015
792
00A
039
7DC
01D
7AE
01A
033
77E
780
77E
070
095
758
005
789
7FD
005
74B
765
7EE
099
7DC
028
04E
07C
7C9
06B
08E
7C6
0B7
001
0B7
037
7DF
00D
77D
732
7E0
08A
008
011
005
7E4
7EE
12A
01E
152
7A4
7E2
041
092
7ED
00F
02E
6E1
06D
009
097
052
05F
7F3
029
01A
0A6
7E8
0B6
75A
044
068
020
7B7
786
7E6
7EF
76B
796
7A7
7C4
011
7DE
735
7E0
6A8
7FD
015
072
10D
7E9
05D
774
7AD
019
7EE
02C
01E
02B
091
063
00F
7D6
7F9
06E
01C
06A
7E0
73C
038
761
7A8
799
034
08F
715
761
787
019
016
71C
7A7
010
03E
7C8
018
09B
7F5
025
031
0AE
7E9
089
008
0AC
093
7CF
03B
76C
769
721
005
7A5
05E
7E8
767
782
0FE
091
157
787
7E2
00C
08A
018
7DB
073
753
01E
012
7D0
052
04C
063
08C
7D2
0AC
7AF
0C1
75F
048
05B
7F9
7AC
7F6
7C2
00D
78D
776
004
7E1
7EB
08C
7B1
7E8
709
051
7D1
083
0DC
02F
08D
79B
7F0
7DA
7B7
7CA
7BD
033
024
0A3
060
7E7
7AE
79D
063
006
7F8
028
009
78C
744
7C1
7FF
065
74F
7CD
009
7B8
7FF
761
7AD
7F4
0C0
019
0A0
013
067
7BB
07E
122
014
07A
032
0F2
7F7
762
00B
7D8
76D
7FA
02A
027
75C
7A7
7B6
7EA
0DF
099
08D
7A6
027
056
04A
033
080
03A
7DA
023
014
784
75A
05E
0A6
01C
088
0FD
7A1
07A
7D7
0B0
106
095
002
052
7D6
798
6F2
783
7BA
7E2
7F7
04A
7CE
7FE
792
062
019
022
0F1
025
087
784
7C6
7CC
000
75B
786
72E
063
00F
030
7FD
0BD
79A
003
7AB
052
066
7F7
7BD
7BE
7C9
7B0
10D
7B1
067
7B5
7FC
0A6
729
7B5
79D
03C
7E2
026
7F3
7D8
02D
7F2
099
03C
7F9
00A
024
7CB
7A0
7D7
02A
7C2
7BE
7DB
042
7B3
7FC
7C0
7A7
0AE
7E7
7EE
7C2
7DC
7F9
068
057
05D
7E2
7E1
7E1
7FB
7CD
751
7CF
08B
7BA
7E7
041
7A5
080
794
078
08D
02A
79B
047
7E8
75A
789
7B4
051
7EE
030
027
059
7FB
7A9
035
7EA
02A
056
044
0A6
79E
011
000
7D1
78E
7F4
057
019
0B9
088
01C
044
7B1
7F1
7E4
7A8
7DE
79A
7F6
74D
7B5
7ED
0AA
7A7
078
050
02A
066
7B6
001
7B9
7AD
7C5
03F
7C9
7E5
7FD
7BA
7CA
02B
015
000
7D0
00D
7F4
7B0
000
7D6
046
045
00F
7BF
7ED
7B9
7CA
7E8
7F2
02B
7E5
7E7
7BA
03D
7E4
7D5
7AC
013
009
041
7FB
003
7C7
005
040
002
7F5
7BE
7D8
022
006
7C8
03A
7D1
051
7D0
01E
03E
02F
7C5
7CB
003
032
007
008
7BC
015
7D8
7CA
7B1
7F1
7BF
042
04C
7D1
7B6
011
007
023
7BF
7DB
7E7
7F2
018
7F9
7DA
034
7E4
04C
00E
00B
7AB
7F3
7CD
7FF
7BC
036
7C9
7E0
7CD
001
7FE
7CB
7D0
036
7C1
7C6
003
7E2
036
047
7D4
000
7CA
040
7B1
7C1
01A
01D
043
7B9
7F9
7CD
02A
7E2
7E3
7D4
007
7E7
7EF
7CA
7D7
7B1
029
009
7BD
010
7C0
7C1
00C
7E1
7DC
011
7D7
017
050
7FB
7AD
032
000
034
053
015
7B0
7FF
7CD
7BD
7BE
013
7E6
01F
00C
018
029
7F5
045
7E4
01E
006
002
7EB
048
7EB
04D
7C2
7CF
001
7C7
7E7
7CD
7D4
03E
7F4
053
037
7C1
039
7B4
047
7E0
053
7C1
03A
009
043
7AF
7EB
7C1
03C
020
7DB
033
000
022
043
01B
016
7EB
7E1
024
7E2
043
7D8
021
7BA
039
002
03F
7F9
041
7FA
012
7CA
7B3
007
052
7DB
01D
000
026
7F4
025
03E
004
011
005
03E
7F9
03B
7B0
043
029
7BC
007
7C5
02D
7B0
000
039
02E
7CA
04C
03A
7EC
050
7C8
7F9
028
7D0
7C7
047
7FD
03F
7FB
014
7F6
00E
7F8
022
00F
02A
04B
042
7F8
031
01B
7DF
7D7
014
007
01F
7CA
033
7EC
02B
7AF
7B6
7BE
7F8
038
7F4
016
01B
7E9
01E
7BA
7C2
7E6
03C
02A
00B
7B7
7D5
7D0
7BD
007
02D
7E2
7ED
039
026
7B4
01D
7EE
00E
019
050
7B2
02C
7ED
7E5
004
7FD
026
030
7D5
024
7E7
7BA
7D4
016
7ED
7C6
7AE
031
7E5
014
053
7D4
018
012
7C1
7DD
7C0
7C7
7EA
7F0
7F8
02E
03B
04A
02A
7C0
01A
04B
01D
010
7B8
048
7C0
7B4
7DD
008
016
7C1
02B
7CA
7E0
7B7
7D8
007
7DC
7AF
04A
052
031
7E9
7D8
03A
7F0
041
003
7AC
7C6
036
030
7AC
033
029
00D
00C
018
7B7
033
00A
7CE
01C
049
026
7E5
00F
007
7D7
00E
00B
028
07A
7EE
06E
068
081
009
05A
045
7D6
7F1
007
072
0A6
0AF
7A3
036
7AD
7AE
7C3
75A
787
73F
059
79E
7D7
059
0A5
058
030
79A
7C3
7C9
008
08B
7DE
035
016
782
7DC
7F9
0B8
016
770
798
7EC
005
757
77D
06B
7F6
7F3
75C
7DE
7DC
7F5
7D2
049
017
021
7F7
0C9
099
79E
0BF
04A
7CA
013
084
7FD
762
025
7D9
7B4
014
065
05D
7A3
04B
09C
7B8
030
011
06E
016
073
0C2
7FC
7BF
7BF
013
041
036
7CC
035
7BF
01C
74B
010
7D9
026
0D0
7CF
7E8
03E
023
794
044
048
051
7B1
062
02D
08B
002
7C3
77D
7C6
00F
7AD
7A4
7E0
009
046
7E2
045
04C
04A
061
7CB
7D2
084
7E6
7DA
01D
00F
06F
01A
02A
032
7AE
0A7
00C
74F
7B4
022
09A
0A0
780
015
010
7B6
7C9
772
795
007
7F8
7F5
7BF
005
002
054
043
79D
061
7BB
040
041
01A
792
7F4
7E0
72D
046
0AA
080
05F
058
05C
04A
7DB
048
7F8
02C
02F
0AE
04C
7F0
05B
7B3
02D
7C9
76E
7FA
030
761
784
01D
042
7DD
7CF
03D
083
7DA
7F5
076
7F6
016
032
0A9
038
09F
022
7ED
764
002
018
786
07B
022
020
048
00C
030
066
04C
7B4
7F3
00E
06B
08E
0C3
7CA
069
78F
7FD
03C
09A
01B
048
7E5
7FB
7A7
7A7
770
01C
03E
038
79B
79B
7D9
768
78B
7C2
785
7BC
086
794
001
7EA
00F
7D1
7D8
044
00E
7E3
0DF
0A9
7FE
7F4
048
7CA
7D9
066
057
7CD
7D3
028
7D3
00F
070
011
047
7EB
7E3
7C0
733
7AB
00A
018
791
766
7A3
7E5
067
056
7C8
7E3
051
7E8
06C
7C7
7FB
075
00B
07B
770
777
031
799
06B
7AC
01C
05F
7ED
7BF
7F1
001
0F9
7E7
03B
041
072
7E2
048
004
74A
7FB
088
7F1
7CF
06B
750
04E
7D2
01A
7A1
013
035
7A9
7CD
031
7B3
7F5
7CC
065
065
057
7C1
739
7CA
7C3
009
005
766
7D6
015
7C3
002
015
7FE
0AB
7E7
06E
046
029
088
06A
7AE
7C1
79D
7A6
7D5
047
085
08E
05B
05C
794
756
0B5
7A1
029
7F8
7CB
7DC
754
009
789
053
7B2
7C4
06A
7C8
076
003
78E
7F3
09E
7E1
7BD
7C6
047
07A
0F2
08B
784
7ED
017
060
017
044
06C
7B5
01B
711
7BA
028
7E6
7CA
017
7C2
007
7C5
7D8
008
72D
026
08D
00E
7B9
0A5
799
796
7D3
00A
7E8
04C
02E
7FD
03C
7C2
70F
08F
793
06D
0B8
064
7EA
6D3
7D4
7FE
7A6
7C6
7D1
015
0BC
7A5
003
7B9
7DA
0C0
7D6
03A
038
028
04E
7BA
02A
79E
02E
7AC
76A
7EE
0D7
035
7C6
05B
7DF
7FE
05F
7B5
06F
01A
786
044
796
041
77D
042
7A1
79F
093
79A
07C
789
78A
00E
063
063
7B3
7C8
02B
0D4
149
089
01B
7D5
7F6
022
79B
7E8
01A
7ED
086
67F
02B
034
7B5
79E
7F7
746
7B1
025
01F
009
7C1
06C
0DC
0BA
005
054
014
014
7D9
74F
76D
073
028
7BF
7A2
763
70A
079
786
049
0D5
10D
046
763
7F8
739
790
771
752
092
05D
7E5
78A
7AB
7F8
0F0
7B6
019
013
7D8
0AB
7E8
795
7A9
007
745
7EA
013
096
063
7E6
7A0
7EA
00B
7B8
08B
016
074
084
061
76A
7F4
782
082
7E7
02D
0EB
02A
051
7F9
6FC
102
0C1
01A
78A
74E
04F
0D9
029
0EB
75F
7F0
769
79D
001
72A
74F
06D
032
6BD
7A0
05F
784
7AA
0B6
084
7DE
7E8
7C9
6EE
788
021
030
075
029
000
7F0
0A4
01F
728
71B
088
094
77D
732
773
70F
067
7EC
140
10D
117
06B
7B7
7E6
74D
799
7F1
7C6
056
070
7BC
7C1
064
7E1
06A
002
737
027
006
0B1
05F
799
783
75B
759
740
076
037
059
004
7CE
7EA
76E
006
02A
00A
108
794
0FA
7D5
7C6
7CC
08B
010
7BD
0E5
011
7E1
028
7C8
101
16D
7D4
7A3
7A9
075
7EE
07A
159
798
039
7D5
7E7
7BF
76C
6FC
00A
7E6
70B
6FE
04D
7EF
7B6
0B5
04A
003
031
7C2
6F9
775
046
054
025
789
7C1
749
04A
09A
78B
73E
117
091
778
01B
023
778
12F
7B3
18A
14D
0A1
07C
733
02D
791
6D8
7BC
783
00E
0D1
7AC
063
7AF
76F
08F
034
727
0A0
7E2
0E3
05B
785
731
798
777
74A
0CC
004
02A
7B9
7F5
74D
7DC
797
060
0A8
0FB
7CB
042
7A1
75B
7B3
113
00E
024
11E
724
7DB
71B
7DE
040
058
7D9
00B
75B
7F1
0AD
058
134
01B
7FE
7CA
7D2
076
752
721
05E
7D8
733
738
03F
794
79D
7FB
07B
03B
7FB
70E
705
734
04D
05D
7E9
7AF
77B
766
037
00F
788
75E
077
061
7DD
082
01E
775
074
00C
121
0B4
139
070
037
01E
7CA
6EF
7CB
752
021
0A8
798
77B
7E6
013
080
7D0
68B
0E7
7FF
04E
0B4
7F4
7EA
751
7BA
7C3
139
7D9
055
7F0
098
798
7AE
78D
7F1
046
09D
045
080
79A
7B0
08C
13C
7DF
00F
130
72F
790
71C
02F
09F
108
7DA
79D
650
060
7D9
06F
0A1
787
798
03B
022
007
7CC
6EC
7D2
7D5
774
023
7C7
79C
7CC
0D9
7E8
0AD
779
73C
7CF
763
01A
087
004
002
01E
762
7ED
02F
798
767
0F3
024
029
06F
77D
793
0BC
7E3
0FF
0F6
10E
065
7E5
03A
7C2
779
026
77E
7D3
01E
79F
789
00E
040
06C
791
706
032
012
068
066
78B
016
6BB
74E
739
0BA
01E
04D
09E
78F
6EF
741
795
014
0D9
085
7B7
7F2
779
7B3
095
110
792
010
14D
75B
7DC
76C
70D
04C
0C2
725
018
6C8
7A3
039
0DA
014
762
793
052
777
076
78F
009
77B
785
6D4
024
7B9
757
042
063
7C6
088
7D4
636
6FC
741
001
086
076
7AE
73E
78D
7DA
059
7F1
747
047
019
07B
7D0
05C
795
7F4
7BE
7F9
129
0E2
6ED
7FC
043
6AC
6E3
033
7E5
00E
79B
0B3
7A8
031
7D2
060
029
03C
725
039
7E2
06C
799
7FC
743
6D1
784
083
082
07C
05E
00D
792
747
011
6DF
031
061
6CE
00E
008
706
7A1
075
713
769
10A
6CB
04F
728
6DB
00F
07B
785
057
7AE
7E8
7A2
0C0
04F
6ED
7C3
06E
7E4
0BE
75A
7B2
719
7BB
649
00C
04A
722
057
7CF
798
061
04F
700
77D
7D4
025
0E8
03B
7D7
69D
766
7A5
001
07B
776
7ED
062
079
02A
7F3
722
028
00D
7D9
077
7CC
79D
77C
012
6AD
6DB
076
009
7B0
032
0C4
002
014
7D0
090
031
7CD
692
7E5
7C4
021
71E
7ED
7AA
673
77E
04E
05E
002
084
004
058
6C4
7C3
6C3
09D
03D
7F7
796
7DF
6FA
011
069
6BE
7AF
11F
6CA
02A
769
701
052
02E
78E
7DC
7DA
7D2
00E
086
7C2
671
0B6
05E
79F
00C
76E
006
79F
7AD
6E0
7F8
014
784
09C
7FC
752
00E
059
781
743
7C1
7D5
02E
038
06A
751
71E
754
004
058
7F4
7AD
020
0E1
7AA
7A3
7F0
0FD
02D
741
04E
07F
04F
7A0
00F
75B
75A
08D
78B
78F
008
057
051
756
04B
052
035
7B1
69C
00F
7E5
7CF
657
75A
028
71A
008
099
041
7CC
11D
7FD
044
6EF
7C3
6A0
0B9
058
7EB
759
06D
760
7D1
088
72F
7A5
06C
6E4
028
02E
705
07F
02E
79A
793
7BC
77D
0FA
0B6
039
78C
094
026
7F0
038
790
033
05C
019
700
77E
071
012
0DE
0BF
799
7ED
034
799
7B4
028
083
070
015
076
72C
77D
756
046
0DD
01E
7AD
003
098
7BE
7F9
7ED
081
7D7
7A8
03F
047
7EA
779
7E9
77C
029
05D
717
79F
77B
0B5
7D7
767
01C
06F
78F
00F
677
00D
028
7DA
6EB
70A
09B
72F
08E
0A5
7E5
012
0A3
7CD
7EF
77D
009
720
7CB
023
038
6F1
042
7CC
04B
04B
005
07E
750
7B4
007
0B8
7EB
09E
006
76A
772
7B6
7ED
04D
06A
7E9
733
06B
096
036
77F
771
060
090
7F0
760
797
10A
02B
01D
0CA
79C
0A0
765
76F
7F5
012
067
010
072
044
6DE
7B4
6BD
09A
0FE
79E
7CA
030
052
7A2
027
03C
056
7B8
7FC
10A
029
019
6FC
7C0
748
7A6
0B4
756
739
799
0F9
7FF
7B3
0BF
0CD
015
7FD
661
7F1
09D
7E5
76D
726
7C1
76B
02C
012
01B
7EC
0B5
7AB
060
742
7E1
745
075
0B5
100
792
0CB
702
0DA
0BA
02A
7CF
72B
7E5
019
00E
00A
053
75F
721
765
7C8
031
075
0D2
7BD
7A0
03B
0D6
786
019
7A3
002
0C1
047
06C
783
0E4
03D
034
049
7A3
01E
78D
7C2
06F
7A7
023
004
06C
02A
6F0
012
6DE
7D1
0A4
035
012
04B
016
762
02F
048
025
788
774
0F2
7DC
01D
7AF
7EE
746
788
065
028
73B
037
0AD
786
78A
071
061
02E
068
753
055
002
7C1
7D3
795
008
78B
04E
06B
781
00B
0DF
7FF
075
770
780
7A7
08F
0EA
083
760
0DA
7F2
051
050
780
768
7AB
01D
06A
046
764
004
70D
7F9
79E
7B7
03F
03F
0B9
7A6
78B
0E3
051
067
7E6
002
04B
08C
04B
058
7BE
032
00C
0BD
78D
770
01B
7C0
05B
02E
089
01D
000
027
05A
6B5
078
7B0
7C1
061
03F
0B6
7CC
012
770
070
039
7D9
6A4
73A
0BE
02D
01A
7FB
028
75F
01B
7B5
073
72C
048
016
796
72D
015
778
7F7
053
00E
7E7
04A
03A
066
72E
09F
7EA
7B0
059
007
7BC
098
063
064
761
00B
753
036
070
7FD
743
7F1
799
7F5
791
71B
75D
6ED
7DB
029
015
7C2
75C
771
01C
7EF
779
01F
016
062
792
710
129
00E
0D4
063
7E3
7A6
05F
026
06A
066
790
7FB
079
703
76B
7FF
7FD
0BA
090
00A
786
7D0
0D8
0C8
7AC
01C
7F1
7F3
0C8
000
03E
031
7C2
016
009
7F1
016
715
70E
040
0A3
013
74C
7BE
750
7D7
79D
7C8
745
016
7B4
7CA
73E
032
7A5
791
03D
097
7C6
02A
7EE
00D
7C6
061
032
7E3
06F
044
03F
030
003
03C
783
7F1
7DE
7E6
021
02F
765
015
7B6
014
021
713
753
6DE
767
07A
7E2
779
79A
7AD
78E
786
7B8
0B8
08B
0C0
787
76C
11E
01A
7D3
7EC
029
00B
07C
00B
024
055
731
056
05F
78C
733
7A1
7A9
045
03F
7E5
01A
0E2
03F
070
060
721
7BE
732
029
7D9
019
7EA
778
034
7C0
027
794
74B
7DE
7A5
080
07D
775
025
7E8
02B
016
7E9
778
7E0
734
735
77D
0E8
755
7D4
013
048
769
05C
008
7F8
778
0B9
034
7EE
0A8
00E
066
0D4
73F
003
7A2
7ED
03A
76A
7F9
06F
770
006
7C5
062
002
6C8
758
79E
7BB
040
050
023
022
020
766
744
080
0EA
005
0FD
05C
765
111
0D1
0A8
730
0FB
7F6
7FC
7E2
7C1
039
78C
004
7FE
0BB
017
080
000
0FD
02E
789
7C7
086
00D
069
0B1
757
73F
766
7F8
03C
031
05D
769
04F
7C4
780
07F
768
070
7A5
032
010
786
7CF
030
001
7D4
741
79D
7A5
73F
793
7AB
7C4
71D
7D5
031
003
783
07E
04F
02B
7F4
033
02B
7B6
08C
07D
018
7DF
7EB
01F
772
7A6
7E8
085
7C5
028
783
7BD
01B
098
7CF
65E
79B
769
77D
7FD
019
7B7
026
01F
7A6
792
08C
093
787
0AC
0C2
7F1
090
05B
074
7B6
0AB
7C3
7DC
04C
7EC
0B5
016
7EB
7FE
0D6
057
02B
7C8
04B
7F7
768
770
0C3
7F1
7EC
055
798
7C5
77F
768
00B
07F
060
05B
024
040
7B7
027
790
088
7C8
7D2
082
746
043
02B
7B3
09F
7DF
71E
791
759
7D5
768
71F
7B9
020
768
03A
7B7
079
016
031
03A
0BC
7D1
746
7D8
05E
01A
774
7E3
7F7
06A
006
03E
015
76F
0BC
7D5
7E5
026
094
7D9
6C6
6F8
004
79D
022
7EB
791
0BC
0CE
071
7D2
044
080
768
048
106
7F6
02C
0C2
09F
005
015
7D8
7A4
7E0
012
052
025
793
7B9
0CA
018
111
779
02C
78C
7EE
7F1
081
011
7F1
023
744
020
6FE
034
0C5
02C
0BC
7A9
023
7BA
7D2
060
7B3
04B
049
7C8
076
73F
7B9
7C4
761
7F3
7DD
728
784
7AF
006
01A
711
05B
798
7DC
0FF
065
12B
036
0CF
01C
063
72E
76A
048
7CA
7F8
7E5
7EC
7B2
004
768
086
00E
75F
0C2
74A
00A
7ED
0EA
7CB
6B6
73A
00C
773
022
7D3
00B
071
12F
029
7B6
075
0A2
7C2
792
0B0
01C
030
01A
03C
062
7AB
774
7EF
7B6
068
790
035
7E4
730
7FE
01B
094
7A4
0B8
7B1
784
016
7F1
064
7BC
78A
7AD
7D0
764
7D9
0CD
04C
032
7E9
7FF
779
768
09E
7B5
072
01A
054
052
7DD
7B7
032
73C
748
7AB
77E
02E
062
00D
7CD
762
011
061
03A
0B2
7F6
055
032
084
7F0
0D7
76A
010
06B
7DB
039
7BA
083
743
78A
74D
080
05B
78A
08F
76C
001
7C3
078
013
786
787
7D3
7A0
7FF
761
7BA
110
0F6
029
7FE
794
028
790
00E
036
058
77D
7D7
01C
7D7
7DF
786
7DB
7D9
7D1
090
017
035
770
000
02D
7DB
096
04E
7E0
7C2
778
037
03E
047
7D2
035
7C3
7B1
7DF
084
7F0
7A7
040
07F
7AB
7CD
036
7A6
01A
7DA
783
112
7DD
026
046
7CE
7BB
7BF
7C6
7C2
032
7B7
031
040
047
038
007
7B7
00C
773
062
0C5
000
7ED
76E
7E1
090
7A7
7E3
018
7A1
732
064
795
03E
019
770
045
7A3
7D4
796
037
7F7
7CD
722
028
7DE
7A1
042
799
06D
03D
01B
7B1
779
021
7EF
020
7B9
065
7DB
021
7F7
7D2
02E
04D
05C
791
02B
035
7A0
09D
7B0
053
77C
7E9
056
023
78C
030
7E8
7C5
7D0
7B5
079
018
046
796
7B6
036
03C
7F2
0B3
7E0
011
7EF
047
7AA
7CF
7B6
022
00C
009
029
78E
042
01E
030
018
006
7D1
031
05A
052
008
7C5
065
78C
00D
017
7E6
7C0
7B7
041
7F6
7D6
024
7E4
00E
0E8
7BD
79D
005
054
027
7F5
7F6
7F7
765
76C
792
7BF
02F
79A
066
03F
7C4
7C5
7F9
049
7BA
01F
00F
7C0
7B5
7D9
02F
041
7BF
009
7C3
01C
02A
016
050
7ED
04C
7F5
023
01C
7D2
7B3
03A
036
02B
7B4
04A
002
7D6
7D8
7D0
031
7DD
7DA
03B
7FA
039
7BE
7DD
014
036
7DE
7F2
02F
7C8
7D8
7F7
7F1
00D
02D
7CE
7BE
02F
028
007
040
008
7EA
7E9
7BF
7AE
03D
019
00C
7DA
04A
7CF
052
043
7EC
7C9
00E
7BA
03B
023
7EF
7CE
01D
02F
002
7C0
7F3
020
000
7AE
7CD
000
7C5
7EA
04D
00A
7FC
7EA
00F
7D9
040
7F1
7F4
7CA
7E4
021
7F7
039
7DE
7BB
047
036
7BC
03E
7E2
054
7FC
7DE
7E2
044
7F0
041
7BF
02E
053
031
7AD
017
7EA
7E9
014
7FC
023
03C
7C1
008
7AF
007
02E
04E
7F1
03A
029
7D1
7B4
00B
049
027
7D8
01A
7AC
014
00A
00F
7FD
7E1
03D
7DF
7CE
042
7D9
051
041
00A
02E
01B
7B9
005
7E0
019
022
04D
7BA
7FC
043
7F5
7D0
03A
7FD
7BB
7C0
03E
013
009
7DA
014
021
00B
7E2
037
7D6
038
7C2
053
03F
7E5
7E1
042
04E
008
053
031
7B1
7F1
01D
05E
7F4
00A
00A
03F
7EA
7CD
009
041
052
7A5
04F
7E1
02C
7A8
7C2
022
036
7FA
018
7CD
01A
7EB
01A
047
7DA
7F2
015
02A
02F
00E
028
7BB
7CC
7B4
7B9
01A
7AC
02D
009
026
7A2
03C
7E0
7F4
03B
01B
7E1
018
012
03B
7B6
7BE
7FC
7CF
05D
03D
001
02B
038
7C4
006
020
048
049
050
019
016
00E
013
7BE
7F4
01C
7BC
7C0
027
7B9
02A
02A
7FE
04A
7DB
008
7E8
7D6
7F2
009
7C2
7FC
7FE
7D2
044
7F6
03D
7AE
7EB
7BE
7E1
7DA
7F0
771
002
091
01B
06F
7D9
019
0D6
0C4
7A5
02D
7CE
767
7AA
7D3
7EB
058
095
77D
7E5
7E6
75F
7CE
75E
033
769
7D3
7C9
7AE
0AD
0C7
04F
046
7B7
74C
771
7CF
07D
7BF
7E7
049
76B
7CA
7E5
031
7F2
7A1
7A1
04C
056
01D
780
068
005
010
77E
781
012
055
7CF
006
011
022
02D
068
09C
755
08F
032
7C1
7DF
08E
7A4
7BD
005
047
7B9
00A
0AA
09A
010
067
08C
7AA
0C6
01F
013
072
0C6
0C2
047
7D6
7A2
037
7DC
007
020
039
7DA
040
7CF
7D5
078
06B
7E2
05C
066
7FC
0A7
050
068
003
787
01A
7C8
7B9
0F1
079
059
7E6
7B6
794
00D
71A
7A4
7BF
028
7A5
071
062
057
078
022
7E0
7C8
039
048
06A
05E
7BC
022
74C
030
7D4
7DA
059
743
726
024
7E5
0AE
780
07B
039
03C
7BB
793
7EE
074
7CC
032
00E
04A
041
056
024
7EC
046
7EC
766
015
037
7BA
7C4
7FD
025
043
05E
085
03F
7B6
7AC
06E
05B
048
043
03D
7DC
06E
0AB
01A
01F
7A3
043
75B
031
073
069
7EE
7E9
0AF
03C
053
790
007
07F
000
085
7DC
7DA
7C6
780
79E
00C
028
0AA
05E
07B
7B2
022
033
794
768
048
7C9
7EE
7CE
045
7BC
03B
7F6
032
0CF
031
006
749
06F
7BA
772
7E5
088
041
006
7F2
035
7B1
086
766
78C
016
088
053
073
04E
77F
059
7EB
053
001
7EB
7A6
7E4
005
776
013
05A
76E
7C6
7AA
0A1
7A3
01C
003
75D
7DE
7CB
014
0BE
06C
013
7A0
00D
00F
028
7E5
7BB
00E
783
097
064
7FB
779
077
772
7FF
088
7BF
06B
001
02D
048
7FE
03B
77F
756
7CB
099
06D
7C3
7D7
7BC
7EC
7DF
084
7AC
0EF
0D4
05A
7F0
051
7B2
7C5
7EA
7F9
78D
7BF
760
066
05A
01B
027
0C7
0E1
00F
024
7CA
7D0
7A4
782
7EB
06A
7A9
776
7F1
01E
7D6
02E
791
75D
093
0A5
00C
090
028
7B4
7CE
75B
7DA
7EC
075
047
756
7A9
692
082
06D
086
006
7AB
038
7F2
7E9
07E
019
7E3
78E
78A
003
02A
059
021
01E
725
7A4
00A
7CB
02E
759
7E9
7E1
7E0
79B
0EC
6E2
789
0CC
7A2
042
77F
003
08E
7EE
02B
772
726
798
02D
0E4
044
7CB
782
78F
7A0
7EA
779
111
7EE
7F6
785
042
7B6
7FF
758
024
763
7CC
7AE
7BC
7CE
754
0E3
05F
052
769
795
741
7EA
04F
7F9
00D
0CA
018
736
04B
73B
77D
7FC
76E
7C1
0FA
0BB
76C
041
7F5
7E0
7CE
796
72E
7F5
018
031
70C
7CD
72B
103
024
030
018
7EE
029
052
70B
7D3
79F
780
016
794
08B
06A
047
046
023
780
79A
021
7C6
03D
764
01B
7A7
060
72F
0C4
768
06B
09C
004
000
7DF
7E5
064
044
76C
781
76F
037
0A8
0A4
081
022
7BE
79E
7D3
7D5
75A
08D
7F8
012
6FF
029
7BB
7BC
784
08C
71F
7A4
742
7F0
03E
786
0DB
7C9
048
700
764
7B3
7C2
072
756
7EC
168
018
741
037
785
7A9
0BC
7B3
7BD
05D
0D0
7A4
017
04D
7E1
78D
746
6E0
075
06B
794
721
797
7D2
0C7
7D0
75E
7AC
003
039
00B
720
7D3
7AA
744
07B
054
767
058
052
05B
7E8
726
029
0D2
792
003
022
009
7E2
796
79E
06B
010
061
0ED
7AC
7BD
795
7B9
05F
044
791
7A9
7C4
070
121
04A
036
793
7A1
031
7A9
022
765
015
088
04A
6F3
7DB
05D
788
73D
053
027
784
722
6F3
7DC
79E
0D1
044
7CF
74F
798
6AC
051
7DB
7CC
774
0E6
042
740
01C
779
795
082
032
06B
0C8
040
7D4
77F
001
7C0
7A4
71D
6D9
074
07B
7A4
6F9
7E0
7F8
0D2
003
726
7E7
010
09D
768
7A9
74C
769
776
025
05D
7F8
045
040
022
7A5
7B0
7BA
05D
02C
07F
009
0D3
7F3
72E
791
7F6
056
022
13C
783
7F9
75B
7B0
02B
077
6F7
796
07F
085
091
7D5
09F
007
7A2
062
007
01E
6E1
7DC
05E
03D
6B1
778
0D2
026
7DA
0BF
02C
7D0
7E7
7B9
7BD
743
0DA
034
029
718
772
71A
7D8
004
03E
752
0A0
0DF
7EB
092
7D8
759
06A
031
057
108
0B0
053
6E7
7C3
6F2
72F
761
683
007
05C
771
6E6
75E
075
0D5
074
742
06C
76F
059
7F3
065
7D7
036
706
01F
05A
7CD
08A
7FE
012
7D5
749
02A
7C1
071
043
022
7FE
7CA
78D
044
0A3
04C
027
0D1
7CC
73F
7D9
03E
042
0B4
779
03E
7AE
01F
0CF
05F
0C0
71C
7F6
7BD
7CB
0C7
729
7E2
0A9
053
6A6
7A1
07D
7D0
7CE
062
7C8
05B
79B
6CD
77D
7C4
132
084
7DB
725
74A
6D0
7AC
010
7E7
740
012
7F6
7E1
03C
06A
731
02B
086
051
0B6
0B8
009
765
7E9
79C
74C
7FD
698
064
023
7B3
705
7E4
04F
0F9
036
719
076
7DD
04C
78C
7EB
76A
031
78D
7FF
067
04D
0CE
052
0A2
7BE
79B
070
792
045
14A
7C7
04B
004
740
071
086
046
07A
0CB
7D8
74C
7BE
00E
056
018
00B
7A2
70D
7CA
02B
01F
0A2
7A3
7AE
013
72C
056
736
023
7D6
06D
6B7
7FC
08C
02D
046
05F
7CF
059
735
65C
038
03E
0F8
058
03A
784
78C
6BE
7D2
033
042
732
7E5
008
02E
7D6
018
79C
09A
023
01F
082
073
7F2
79C
7B0
73F
774
043
70E
052
795
018
725
021
02E
067
7A9
77D
78B
758
049
04D
78E
003
04F
7FE
7F3
0BF
04C
0BC
082
060
030
75D
00B
750
006
0CF
026
7E8
772
781
03B
070
7B4
06E
0BF
037
793
7C3
00B
07B
052
02C
043
761
794
7E9
09A
029
799
7B1
7DB
742
0A6
705
058
78F
06F
633
057
7F1
734
0A7
7FB
025
011
7F2
644
08B
065
0B6
091
7E6
7D4
7C2
6F5
7C3
052
000
65D
78B
03A
0C9
01A
7E7
77E
06B
03D
7EF
055
038
7B0
7DC
7BB
775
754
047
7E3
7F7
7A1
01B
7E9
03B
01E
04A
79A
7FC
725
79D
034
08C
04C
03D
026
07E
7D4
046
022
05D
0AC
035
011
7A0
7D7
6F5
08A
0C8
02F
028
7D6
7F3
7BF
066
732
7F0
0A3
7FF
7CF
7A5
76D
022
052
7D2
07F
00A
01C
789
0EB
04D
772
787
7E5
781
025
701
081
7CC
079
6FB
7CE
7FB
790
08E
79E
7A6
7EF
79F
722
7D9
012
07A
0A1
07C
76E
7EB
6C8
6C1
066
020
61A
79F
010
077
02E
7C5
027
7D4
03E
753
7E1
7F4
774
05A
02E
706
75E
7DA
738
79A
01D
76C
032
03F
056
020
062
03B
6FC
06C
7D1
05A
7EF
79F
029
055
052
048
02B
030
152
065
036
7C6
02E
75B
7EB
03B
016
083
048
716
7B1
792
736
03E
119
787
78A
7A9
6D7
00A
00B
07B
7B9
05D
7CF
009
0E4
06B
700
7E8
018
794
001
004
0B9
7CE
01C
752
7F9
09B
76D
0A7
7D1
795
774
074
77E
7AA
085
04F
047
06E
03C
755
6C0
75A
00B
037
753
71B
002
0A6
7CD
7D7
006
00E
7C8
78C
02A
7C9
7DE
72D
7DF
772
7C5
05D
782
72D
00E
7C1
005
02B
002
049
7C3
033
6F5
7FC
001
7F2
7BE
7C5
04A
045
02F
03F
0C1
05C
120
042
0C7
7E6
005
02E
047
043
057
05B
022
727
7B5
7F3
786
070
0B4
7A7
7E7
058
76D
000
7F2
009
007
021
734
039
7FA
012
7BA
025
06D
7BE
7CD
03F
090
065
0B4
767
779
068
77E
0E9
051
758
777
06B
797
7F0
0AA
057
7F4
01E
08E
7E2
731
71F
7B3
098
7FD
766
7C9
09F
73F
7C9
04E
018
7B7
755
04F
009
78A
759
038
76A
7CF
02F
6EF
782
7CB
04F
03A
7D3
076
00B
796
7BF
749
061
7C3
7BC
7B5
7E2
0AA
0A7
074
7F4
7D4
081
0DE
7FE
07D
027
072
0AC
046
036
0A4
01C
7FF
7D7
029
7E9
7DA
7B7
051
7FD
74C
0B1
7C9
00B
011
022
7CD
7FA
79F
05F
7AC
07F
768
00F
0AB
7F6
085
045
061
088
0D3
77B
7F8
112
024
0A1
7D5
7FF
035
7A9
78F
01F
034
05D
7A2
7FE
081
784
712
768
795
03C
7AC
76C
052
06F
7F6
08E
050
022
78A
7B2
045
7EC
7CA
72D
7B3
79B
7AF
0E0
6AA
7D6
026
048
7E3
76B
04D
085
7C6
7ED
7A8
034
068
7FB
7C6
03E
095
7F7
01D
030
77B
066
08F
041
07A
00F
003
0C5
021
076
02E
028
09D
787
084
070
7F8
7AF
7C2
7F0
7A5
085
788
085
7CD
002
7D2
013
000
7D2
7A6
072
7AB
068
06F
7DB
7D6
7A0
76F
06C
01F
7F5
78F
0D6
01F
0A5
034
05E
03B
7C9
7E7
068
7DD
016
7F7
7F4
025
742
74E
720
7B1
07E
026
7F2
00E
088
01D
007
7DC
020
7C3
7B7
049
7EB
048
73E
023
016
7CF
05C
692
75D
019
7D9
033
722
067
7B4
7AB
7E7
7B5
069
0CA
03A
00A
03B
043
75A
00B
02E
788
038
07E
165
0C8
029
015
06D
7FB
00A
096
7C2
003
05D
05C
0AF
7DD
794
739
7B8
765
04E
7BE
032
776
00E
73D
012
7C3
7DC
7E2
0A1
77C
068
0B3
7F9
01F
7FF
782
07E
048
089
7B5
03F
03F
055
77C
03C
00C
769
7ED
021
7F9
03B
7C8
7C5
017
718
70D
713
059
000
015
08D
7DB
7C2
028
072
7D9
052
00E
012
02A
09B
7E5
73D
023
03A
7DF
7F0
786
7B4
081
7D9
7DA
735
05A
7CA
775
793
7C7
0AA
0A4
006
066
010
04C
7D3
093
0BA
788
041
05A
092
04E
007
05C
05A
02E
078
0A8
7CB
054
070
06A
7A3
029
78E
77A
7C7
759
03C
02E
044
792
026
77E
094
082
7DF
02C
0D4
6F2
0BB
07D
033
7DF
05C
7F2
091
098
042
7F4
7B4
02F
0FD
73F
7B9
020
78B
076
044
06A
08B
06C
7BD
072
7D5
789
7C0
7D5
7C5
742
022
7DC
759
03A
072
05F
06B
797
7E3
025
7FF
7FE
6D3
043
7D2
7BF
7C2
7AF
78E
79D
0A7
7AF
6D4
7D8
7CA
7DC
782
07F
08F
0DB
0BD
7FD
028
08A
742
7A5
034
7AB
025
7FB
06D
066
00E
028
0A8
072
02F
042
79E
07B
7BD
0D6
018
794
01F
762
029
7F5
7DD
7CC
7AE
764
07B
72A
09A
0C6
78B
797
0AC
70B
069
055
066
001
022
730
013
034
046
7F0
7BC
7C9
0F2
7BD
7D1
013
736
054
096
778
7E6
078
794
7DF
026
786
761
7B2
035
7B0
03E
017
785
056
7B2
7C1
7FB
7BF
011
7B3
02D
7ED
6C1
01E
034
78A
7AB
7BE
7E6
744
00F
7AE
714
034
064
001
7D7
052
05C
064
01E
7E3
7BA
07B
761
783
7FC
7D6
05F
020
777
072
76D
7D1
086
7D6
054
02E
7DA
0E8
040
0BC
00A
79F
7C4
70D
7A4
7BE
7B9
0AD
7A9
78F
016
6E2
052
0A4
7DF
022
07C
75D
102
7F4
04B
02A
019
027
0B7
765
0C0
051
70B
7EB
09A
064
7CE
792
765
049
0B6
7CC
79D
070
76D
7A8
7ED
7CC
75C
7A6
7F6
044
7A0
03D
74B
01E
784
026
7BF
79E
05E
779
7A5
04B
7C9
7FB
01E
7F4
780
796
77E
752
7DD
7AB
7C5
7BA
782
717
015
037
7A6
02A
08D
01B
7C9
0EB
051
77F
082
785
7F1
7A1
79E
7E5
7FC
087
7EC
798
057
041
7E8
029
08E
140
7B4
748
77F
702
791
7B9
02C
01A
02E
7C1
7DB
6F3
01E
0BE
014
75B
7B0
7A2
7D7
7AB
061
09B
77C
7E2
07A
7DA
057
002
732
794
010
02C
746
79C
009
05E
09D
01A
7C1
791
744
053
7E0
7B4
77D
7CC
7D4
020
7D9
00C
798
030
78D
7FE
7DE
04D
7D1
79F
78C
001
7C4
7BA
03A
00F
01B
762
778
6B7
77A
7D6
769
7F1
7AA
6CE
02C
09E
003
065
020
04F
7E5
0AD
063
7C9
013
76F
7FE
7E8
00F
7F2
7EF
060
78E
7DF
03A
030
7D8
02F
007
109
74B
00C
77E
6F2
02C
7F5
028
05F
00E
0A3
05C
6ED
052
02A
738
79F
775
06F
7E6
75B
7E4
7B4
7B6
784
7F1
7C5
08E
041
763
7DD
7EA
086
786
7C7
022
02E
07D
7B0
004
7D8
7DA
01E
06D
72E
00A
7CC
7C7
0D2
7C0
7D7
75C
087
01D
783
07B
02C
016
715
74E
0B2
7A0
00C
02D
03F
7FF
7C9
789
745
797
032
79C
71F
01B
7B6
078
02A
048
0BD
7BD
0D3
7A0
116
046
051
7F9
778
78A
75C
7D9
7A7
0AA
042
74D
7B0
7A8
02F
77C
7EF
005
0BC
718
76E
7BF
725
7F0
7B9
021
091
0DC
07D
7ED
787
7F1
03A
023
76D
78C
06E
77C
755
7E9
79A
7EC
7ED
041
7FD
092
098
73E
7CE
7D9
088
7C2
052
7DF
7BA
06C
789
059
77E
7EC
7D3
078
7B8
00E
78B
762
050
094
795
76B
023
7B2
7AF
011
05F
05F
756
783
00F
7C2
005
01F
02D
011
77B
7E3
753
7A7
766
7E6
775
78F
77F
0AB
7E7
77C
11E
7B1
04B
7D5
10D
7E9
02B
073
7F0
782
78A
79D
00A
026
03B
7D0
7DC
70E
7C9
71D
7C4
05D
01A
722
7B3
051
7BB
04A
787
0BE
022
03C
07C
028
76F
7A4
7BE
070
7AE
7DD
0B0
08D
7D5
7F1
7B7
7FA
076
03F
05C
0BE
0E1
7E9
0A6
7EA
7C9
040
071
03B
7EC
02F
7F2
018
7D1
7C1
017
7A9
091
7DE
003
747
064
047
6F3
082
0D5
069
7EF
792
023
021
75A
6FB
025
79D
7C3
0C7
006
062
7A8
79F
7EF
7D1
7C1
7FB
018
018
7E5
0CB
787
766
11E
7FE
02B
009
0C7
7F7
7B6
072
7C0
051
003
797
06A
7CB
054
014
7FB
797
7D3
6FF
7A5
08F
015
7AC
7E0
7C7
7D7
0E2
784
0D3
032
0F8
00A
084
743
048
763
07A
052
092
07F
024
7A8
02D
04B
044
7E3
7CE
006
046
06C
07A
0C6
7AB
7E2
075
093
06A
006
7CA
01C
088
079
05B
7A8
757
054
7FF
7A8
78F
082
7ED
016
094
7B9
0B6
781
7EC
088
7AC
7C2
751
0A0
77F
7DA
078
7A5
0BD
7E0
7B4
086
7EC
005
7E3
019
797
031
035
7CE
01B
0AD
772
0A0
7BF
07B
7E3
7AE
070
7B3
01F
081
047
0C7
027
0EE
02C
017
7A0
7AB
7E1
7BA
011
03F
041
05A
790
008
069
013
0EF
013
0AD
081
7C1
7F9
7EE
02E
7DB
045
04C
7D8
04A
03B
04B
092
7FD
7F7
7DE
7EF
030
037
7E5
030
7EA
7CF
7A1
08E
7D8
0BE
7A3
023
7EF
7B8
7FB
7FF
070
036
004
795
026
007
7F7
074
01C
7C0
7E9
7EE
085
7FC
039
076
02B
00B
7D5
7F4
7F2
7AB
067
01F
7B2
7D0
7DF
00F
7AE
7F2
069
00E
7FE
058
7FB
03E
7D4
004
7CE
002
00B
7BB
7E1
051
7AC
02D
7CA
052
7DC
7DB
7DB
7DC
7DD
7E8
002
787
007
012
030
038
022
00A
00C
7F3
7C6
03A
01E
7FB
00C
02D
042
7ED
04D
7FE
7F8
7AD
015
7FC
7C5
019
7BE
7FC
000
7D6
04B
034
006
7C3
051
036
051
02C
041
7AE
044
022
003
044
7B1
037
00C
7BF
054
032
040
7F2
037
00E
7B1
7CC
04A
050
7D1
7B5
7B6
00B
036
7E5
7FF
7DB
043
02F
7FA
7BA
7D7
02D
01E
7C9
7C4
045
7B1
7E9
7AF
7F8
051
7AE
7E7
7FF
007
03A
048
002
7F3
009
7E9
021
7BB
7C5
7B1
7EA
7E4
035
7E5
01B
7C5
019
043
7EB
001
7DB
7C7
03A
02D
038
7B9
006
7BC
043
7F0
01F
009
7FA
7ED
7E9
7D9
7B8
01D
7D0
7BF
7EF
7DF
048
006
7F6
029
001
033
7BB
033
7FD
7E1
7B9
7E0
7F0
7AE
013
7CB
00E
7BD
049
036
7DF
7C5
007
01D
031
7DC
7FF
7CC
7E7
026
01B
7EF
044
7CA
7DC
04F
018
045
00B
7DA
7CC
7DC
028
027
04F
017
7E6
053
7CB
045
7D6
02B
7DE
7DC
7EA
007
7B5
018
033
04A
7E5
7B2
7F1
7DF
034
031
030
7E1
7F4
047
019
7E1
7D5
7BF
033
7E0
7E4
03A
00D
04E
039
7F1
035
027
77B
753
01F
7E8
03D
09F
020
7EC
08C
0CF
793
056
7C6
7F4
791
7A5
08F
026
0A9
7A4
7AF
7B4
76F
060
790
76B
7C5
021
7F4
010
057
032
015
062
7B9
7F2
77A
076
03A
7D3
7BB
059
7A3
083
036
0DA
016
734
76F
7C8
10B
006
713
02A
7E5
076
798
72C
778
00A
7A6
044
7DD
080
78A
0D8
052
76D
091
070
01F
7F6
04A
043
778
001
044
7F6
08B
0DA
049
7D8
095
0C0
03D
066
02A
08F
043
06F
044
018
7EC
7DC
7AB
01C
7E5
014
044
749
036
026
7CA
03F
001
7F9
040
0AA
743
7F9
007
7B2
7FE
7AA
02D
7B9
7AF
047
066
026
782
77B
7FC
04E
76B
7BA
02B
7DA
05B
07B
066
0B1
789
7C8
050
07C
06D
077
00D
7CB
041
03D
7A8
7E4
00D
011
050
74F
04C
040
7EB
006
71E
0BC
7C0
013
7AD
750
7BB
040
000
7B3
018
7FC
021
07B
057
006
04B
7B9
7BC
03B
025
7D4
7C6
7E8
055
096
05A
076
01C
029
00D
03C
7F0
0E8
758
02D
767
0EB
792
7B7
7D6
7E0
007
7B9
00B
03C
028
00A
796
045
09D
07A
794
75C
060
7F0
793
09D
06A
754
7E2
7C2
037
7D3
056
7FD
018
70B
79D
020
78B
7F7
042
7D9
781
77E
05A
7AE
064
09E
7BD
083
7B7
022
764
0B5
00D
77A
044
04E
7DC
7BF
037
02C
77A
045
7C5
04B
095
10F
028
02C
016
015
7DE
760
7B4
022
0B0
767
741
02A
7B7
7B5
0DF
061
0AF
7CB
121
7D0
7C6
746
75E
73B
7B9
7BD
0F4
04E
7D8
051
02F
7B0
02A
03D
7AF
779
7C9
104
79F
7AB
78E
0FE
010
76E
15F
020
7B7
73F
7A7
7CE
7A5
100
770
747
028
04D
00E
76B
799
7CA
7EA
7C5
00D
79F
15F
7F3
085
7D4
7C3
6FD
017
75A
755
744
005
7AE
024
07B
0D6
099
002
0D4
004
08E
7AF
094
7D9
76A
7F5
002
770
765
082
7CC
040
7BE
78B
707
0AC
0EF
04A
062
018
7C0
74E
789
0B5
079
004
01F
695
00E
77C
7FC
0A1
078
093
771
05F
797
786
06A
763
78C
041
771
0A9
7FF
046
74C
059
00E
7E4
7E4
7D7
78C
052
098
7E2
798
71D
05B
024
7DB
0BE
00C
7EB
6CD
763
791
7F3
012
792
70E
7F9
037
0BC
787
7AA
78A
023
75D
7BB
7C0
0E5
01E
0DC
742
029
77E
7AD
7E3
7E4
7DD
7A0
6E5
00F
099
0C3
0F8
01B
137
770
01F
77C
075
002
77B
785
049
7AB
68F
0A7
7A1
00E
01F
7E8
788
009
105
001
069
01A
7CC
7D7
726
127
057
7E1
092
6CC
706
766
079
7E7
032
05B
75D
06D
775
7A0
034
75F
76A
054
7C3
0BB
06B
010
762
091
7E1
047
014
76A
7BF
020
08E
02E
001
79F
015
006
025
0C5
79D
726
70E
75D
076
065
015
7DD
706
079
00B
08F
7D7
7DB
7C4
05F
799
06D
7F4
033
777
06E
001
7F2
7D2
7FA
7AB
063
052
7B7
6CD
017
0B7
7F2
0B9
7E1
056
772
757
7E4
06B
02F
795
7B5
0A3
755
6F8
077
7CB
7AA
010
024
009
7B1
069
03F
082
7B5
009
00C
6DA
09F
051
7A3
7CE
7A6
78A
71B
043
032
734
05F
015
04F
7F0
7A7
035
764
06B
07A
095
034
09D
7A0
7ED
76B
791
019
7E9
7CD
05B
7EB
024
014
742
7A4
7D1
00F
7E2
00D
754
768
74F
05E
07C
042
78C
045
79F
027
00B
7BB
763
7B5
005
0CA
73B
056
7B7
042
7B1
7D4
05D
005
7D5
7AA
795
00F
113
77D
707
786
7F0
743
010
016
015
731
7B3
721
047
03F
099
042
062
7A8
71B
088
75E
006
095
084
0B5
7B8
04F
047
075
7E3
7E8
7C9
796
0AF
034
033
745
768
74C
007
007
001
6B1
7E0
7FF
7D6
004
053
7DC
7E7
01A
0EC
019
0FB
7A1
740
7DD
794
710
044
701
000
064
043
042
774
7D2
7BF
7C7
011
760
082
7D1
7D2
722
050
02B
7D6
7CE
7D7
7B7
03F
003
7B9
77F
7E2
01D
016
71A
01B
7B0
7BD
017
7DF
7FA
0DC
7C8
7D2
7BC
7BC
101
750
73E
747
029
757
040
067
7B8
70B
018
749
092
022
7FF
7A6
048
7A3
009
0BF
018
075
001
061
03D
76F
075
7E3
035
7FD
7BA
02D
7FB
00E
049
7C8
00F
722
796
03D
010
7AD
6A3
0AF
7EB
7E3
034
04D
7BA
078
77F
06D
7F2
0ED
7AA
760
7E0
70B
6F5
053
73D
03F
089
7CD
01D
7E8
71F
005
7C0
7D1
7E0
02E
7E5
74B
03C
067
7DB
040
7CA
78D
75C
7F0
017
042
7C2
7B5
7C7
059
790
06E
754
7CE
00D
7F6
7C3
06A
7C2
01E
765
054
054
7B1
6EE
710
066
7D3
058
011
7DB
740
750
6E8
003
7D2
063
78D
05F
7B9
008
04A
036
010
028
012
050
78E
048
7F3
063
02A
7C2
021
059
793
7FB
7F9
78B
02F
7D3
07F
017
001
789
023
077
02E
03E
7D3
7F4
06F
742
7C8
7B7
0BB
04D
786
7DD
782
700
7FB
6BD
07C
03F
7EC
07B
74D
7A0
000
016
7C5
014
05D
7FD
700
7D9
7D5
024
001
057
7B7
76C
7EC
012
074
7F6
00C
78D
7C3
780
021
7EF
037
761
023
783
0B9
03B
015
72C
079
022
788
7CA
697
07A
7A3
0CA
7D1
7F4
7C2
77C
6FD
759
07D
7B9
760
037
7F3
09E
01E
005
001
019
098
014
72A
05F
793
077
02D
061
011
0F6
75A
025
77F
774
05B
799
0A2
086
7A4
7B7
772
05A
7CF
05D
037
78B
093
7E7
788
7AA
0B2
017
7C6
05B
7EC
691
7DA
655
018
02C
7DB
06F
785
060
7C3
761
761
7D5
0B0
7EB
73F
0B1
7BC
071
06A
01B
758
7A7
7FD
02C
0FA
071
7DA
7A0
7C0
77A
030
01D
050
7A4
061
740
04A
0B1
7F9
7BA
058
05E
7A5
020
6E2
7E8
7F5
018
7E8
018
7B6
002
634
7EA
08C
025
6AB
07C
79F
08A
7D8
01C
76B
092
08B
031
7A1
04D
7AE
005
7FD
080
049
076
7C9
01C
041
6E5
02B
034
04B
00B
7BE
010
711
01F
7D1
05C
064
041
7A9
087
025
781
0F1
04B
7F6
051
00C
6F7
7FE
60B
03D
060
7DC
05F
7B8
0E7
7E1
78B
76A
00F
0B5
7F4
75E
055
729
060
7EE
024
74E
7B7
777
079
05D
7ED
021
7DD
7F4
7B7
00D
7AC
083
7D5
03F
7CF
7AE
099
024
763
049
7EB
796
06C
7CB
706
7D8
08C
7C1
02E
003
7AF
646
7AB
0AF
085
710
794
00A
091
77A
7BF
77E
75D
7DB
054
7DC
02D
7BF
019
7B8
02C
7F4
01A
7E6
016
026
753
024
04A
0CB
7ED
007
042
6C9
005
770
059
04C
012
03E
7F3
004
7EF
05A
041
07F
003
794
6FD
018
742
080
7F8
03B
0BB
7B6
02C
7F0
795
791
002
0D3
038
7F7
7C8
79C
054
793
7EF
778
00C
7AE
036
082
7D5
049
059
062
79A
7FC
019
057
069
013
7D9
7C7
09D
7D1
782
7E8
7EE
77C
00B
01E
73E
7CD
00F
7A2
7FC
00D
01C
5B0
7E6
0AC
09D
7A4
780
01A
0CF
7CB
763
7C2
7E7
01B
023
048
022
00A
789
7E9
014
7B2
00D
764
01A
7D7
749
07F
07D
04F
7F4
792
034
77F
01D
038
020
03C
7C0
7DE
020
00E
7DA
051
060
040
07A
7EE
785
7F5
096
08A
7DE
7F4
028
7D5
7D8
7DE
79C
7FD
074
09E
76C
033
7FD
78E
7C2
7D2
025
019
7C4
7A0
031
04A
00C
77E
074
00F
7A9
060
7DD
05B
082
02D
7AF
6ED
0B1
7C6
7CA
7BD
7D1
781
053
010
771
7F2
023
79F
05A
01D
01B
609
786
01D
0A4
72D
01D
028
041
76A
7C3
79C
033
7DE
005
024
7B1
774
7D8
01F
7DA
785
07D
7A4
7ED
7FE
7C7
033
052
074
009
7C6
7D5
728
006
025
077
7DD
05D
02E
068
01E
03F
795
7E0
03B
03B
05B
7CB
78D
0BC
046
7F6
06E
0B9
005
793
7C4
7A0
7B7
7CD
094
737
7B3
7B7
773
024
761
7D4
7AC
776
796
020
032
098
765
013
049
005
048
026
063
090
01F
79C
750
095
02F
05C
7E3
04F
00D
017
7BC
0BA
7ED
036
7DF
00C
002
7DF
6A6
79A
03D
083
79E
081
7BC
027
75F
7C6
000
7A6
7C2
074
092
076
780
7D3
046
028
014
04C
77E
015
7F5
037
7B3
75F
056
03D
7B5
7EB
7A1
7D2
0AF
7BA
7C0
7B5
095
034
00C
033
7C6
06E
03C
08E
7DB
745
7EC
02A
79C
03F
00A
061
049
778
794
075
020
784
7CA
015
77D
7CF
009
03B
7BD
7EA
018
7B2
7C8
028
76A
0C3
772
067
01A
021
02D
7A9
7ED
097
7D9
7AA
7A8
075
00D
036
005
7D2
073
012
7FA
10D
02E
052
773
032
01C
7FB
6E0
70C
7E8
00D
00F
027
059
7BA
787
7EA
061
7CD
02F
06B
017
7F2
78F
778
03F
011
059
011
002
7B0
797
7D8
7E5
764
00C
014
7D5
020
7FC
7BE
051
7DE
014
03F
10F
7A2
7EB
037
7F7
074
038
055
032
7D9
029
077
779
029
04A
7E3
03A
030
035
0C9
016
725
78A
7F6
7C5
7FD
7D3
7FA
731
021
7B2
7C2
05F
04D
6DF
029
009
09C
072
0C0
00E
71C
70E
064
012
081
762
04B
7E4
005
7F0
014
089
7CD
7AA
01E
05F
08B
75A
7EB
7D6
763
6CF
768
7E2
099
7D7
085
083
7E3
7E5
78E
029
7B3
070
065
0CE
036
76D
765
02E
026
794
7FB
037
00D
77F
007
05D
797
09F
7E9
7BC
7E4
08D
7DE
027
7E2
7AC
054
071
770
015
053
7BA
7F0
014
0D8
024
7DE
790
021
7E7
7CF
072
7E2
01B
00C
06E
04B
0AC
7A8
7BC
7F2
7E7
78E
779
02E
7A0
07C
733
017
034
06E
75E
044
7F1
097
7E7
00E
7C3
758
00D
02F
059
030
003
028
7B6
007
7FF
7DE
076
7E7
7F0
7E9
017
035
7E5
796
7EF
795
7B8
764
7E1
063
7BA
03E
06C
78F
02C
047
7E8
015
050
7DF
0DA
059
7E9
754
7BD
7F1
7AF
013
787
79F
6D1
007
7DB
75B
000
789
79B
796
038
7E3
043
794
7E6
013
01D
794
067
00B
789
067
7F9
03B
01D
06C
7CE
085
794
7AC
066
7BE
040
7E1
033
05E
7E8
7F8
777
015
71F
012
7D2
7CB
018
04C
6A5
026
0D5
03F
72F
056
7D8
066
071
002
006
7A1
03D
015
03F
7CD
7C2
7BB
7F4
08A
001
017
059
7EE
7F6
7BF
065
04A
790
7D5
7DE
799
785
741
780
003
02B
7D1
061
73D
01B
063
7DE
7CF
050
76E
7F3
7DA
7FA
6E6
7F6
7E0
015
78E
798
787
703
7E2
078
786
7DF
7C5
7DB
0D7
7EA
04E
0CA
7A0
7CA
792
0B6
757
7D0
045
70B
0A0
009
040
0B1
06E
010
077
733
001
005
750
04D
7FC
043
02B
771
071
7BF
7C4
71A
7E8
070
7D4
02D
052
6BE
00D
030
007
6F0
002
05A
098
031
03B
05C
748
7BE
024
051
013
7FC
040
7BC
085
7AD
7FD
046
7CA
7C6
01C
7F5
7E3
7CB
74D
7FE
7F9
731
741
7E8
7B2
03E
7BD
0BC
782
7BA
00C
7EC
795
026
7EB
02C
007
7E4
767
025
01B
74D
000
72B
7A5
758
048
05A
7C7
7D0
755
7B4
01C
7AC
059
033
77D
7C2
7EE
0E4
7C2
7E4
024
6BD
077
011
01A
077
006
7BD
7FE
78E
7C2
038
757
093
02E
7F4
6FE
032
7D7
73B
7D4
6E7
0A6
061
7A1
7DE
049
74B
022
01E
7F9
6B5
785
7B2
059
78B
018
06E
760
7BC
018
7FF
7D1
090
002
029
086
7FA
7AB
006
016
006
005
05A
7B8
76C
798
7B8
7EB
70A
7E6
057
7C1
069
72A
09E
096
7A0
00A
7B6
781
7F4
722
00F
7F5
022
790
04B
7FC
790
793
727
787
787
06F
06D
744
0BF
791
720
02D
7D5
037
06E
7BE
7D2
744
0B6
799
7D3
054
774
085
00E
054
080
7EC
035
769
7D6
01B
7DB
7B1
054
026
06D
6DD
017
007
6D5
7F6
747
033
7F5
7D9
01E
040
77C
056
0A1
034
6B6
748
79A
0A9
7A0
03C
04E
710
03E
057
7DA
014
041
7A3
010
013
05B
7AA
00A
7D5
075
00A
03D
7BE
7D0
7B0
010
7BD
70B
7D8
013
785
7A6
748
094
00D
7D0
007
779
00A
02B
04E
7E5
769
7DA
7FF
7C0
7CF
788
79B
69A
78D
7AC
10B
744
796
041
7C7
7C8
0A5
001
068
0DF
788
7F2
014
0DA
7DC
7A5
02A
724
7C7
783
7E5
043
759
06B
780
788
014
01C
76A
0DB
7E2
034
787
025
7EB
70E
01B
6D7
056
031
000
039
02C
749
07B
033
052
745
7F0
008
037
77D
046
006
71D
084
036
7F4
0B3
0CC
7B0
005
7C3
05D
758
030
03B
06B
003
7EC
001
74E
00B
046
7F6
74F
051
7C4
72E
01C
7EB
00A
7D3
030
015
7FB
078
7D7
018
7D0
75C
7E6
776
7ED
7C1
00D
01C
6FC
787
7FB
014
77A
78D
7A4
75F
7C0
0B4
029
764
0D4
779
052
765
0A9
7E3
003
020
75A
7FE
707
7F3
099
7CC
00C
7A7
01F
751
7A9
785
090
7F8
772
73C
777
032
757
0B7
7A4
08E
044
10B
070
7E2
6FF
00D
00D
7E8
6F8
016
0B9
040
01B
05F
114
014
042
7C8
03A
04C
0E9
062
0AD
759
044
7E8
034
07F
7D8
015
03D
041
01A
000
014
7DC
7AC
7C3
7F5
714
0C8
069
7BE
08D
01A
0BA
7D4
06B
060
02B
7A3
7B4
03D
765
050
05F
06D
073
752
79D
05C
785
7CE
79A
7C9
012
011
018
01D
733
105
7B4
0E6
7DC
029
7FD
72A
017
036
019
034
041
068
77C
04B
7A3
7F9
76C
00F
79E
021
0A5
787
7F7
7DC
7F4
791
0F8
781
0E4
7D2
0D1
048
7B0
7AA
7DC
03E
08D
01E
0A3
0B1
7F8
7F5
7D0
08C
041
7B4
09E
00F
064
02B
022
032
7A0
009
020
09E
062
041
7E1
7C5
05B
79D
009
01C
7D8
07B
7A3
7AF
7AB
048
021
001
09E
76E
01F
7CB
7FF
00D
7D4
054
7F5
0D4
786
7CB
79B
7EA
09C
784
7C4
002
7BF
748
003
037
04D
036
008
07E
028
05B
7ED
05F
7A6
090
050
7B8
045
7C6
015
010
7E4
066
78C
06C
029
791
7D3
7FA
7B7
76A
7FE
79D
7F8
03B
058
021
04B
012
0B6
015
041
063
7B4
790
7BE
03A
00C
7EE
07D
7CC
048
015
043
027
04F
7DD
7DB
769
039
041
7A5
061
7C6
05F
7B0
057
08F
060
03B
7E7
7CA
042
7F0
7C6
050
7EB
7F5
7D8
7CC
073
013
06B
0A4
00F
7E8
7EA
08A
7AE
047
01C
077
002
7A1
7F8
7C3
7E3
08A
7B3
7F8
004
7B0
7E7
7DA
040
029
02E
7AF
073
047
06E
01C
7AD
7E3
7D4
08B
7FF
7F3
006
79C
7D1
044
01E
7A4
7EA
7E3
7FB
7D1
00E
015
7FB
059
7AE
00F
003
020
02E
06C
006
7C2
00E
7F1
7AF
01D
7DD
03A
050
014
7FD
7CD
00B
7FB
7E3
7AE
7FF
7CE
7DB
021
7BB
02B
7FB
7DF
03B
7EB
008
014
7DB
7CC
7B9
7D8
042
039
7B2
7DD
011
7F6
02E
7FF
017
04F
017
04C
7B1
024
7BE
7FA
7E2
007
04F
017
7EE
7ED
7EF
7C9
7CC
7DA
7AE
7DD
04C
7B7
005
7C0
7DD
04A
051
7F0
039
03C
041
00B
000
031
036
013
045
7B8
7C5
7D6
7B8
011
043
013
7F6
7E7
7D6
00E
7FA
7E1
048
7BA
001
7DC
7D8
7CB
7B9
02D
7B1
7D6
7F2
7C4
7FE
018
7B5
7CD
7FF
793
044
024
030
04D
78E
7FC
038
7A7
031
7E7
7CA
058
06E
7C7
7DA
791
078
053
7C3
04E
056
7C7
7FF
04B
7D8
08C
044
7E7
7F8
7C6
00E
037
062
052
7F8
79A
7F7
7C1
7F4
041
7C8
785
7EB
7D5
025
04A
78E
001
7BB
7DF
7C9
7C7
798
009
7B5
7DF
7CA
7EE
7FA
00F
053
00C
007
02C
04D
01A
012
7D7
047
7C6
02A
036
04F
002
7FE
05C
7A2
7BD
7C1
7C3
7D6
005
7CC
008
030
7FD
02A
030
029
04B
01F
06F
019
7DA
054
7CE
010
7F1
787
00D
77A
79F
01D
7FF
02C
017
03E
093
014
046
7BA
7AE
7B3
08A
7F5
765
092
009
790
7D1
069
028
04E
03F
79F
79F
7A0
02A
7BE
7CC
037
04B
76D
05A
049
012
04E
012
0EF
7B5
7FB
7A0
03B
038
7B6
050
028
0A5
7B4
010
05E
061
7BF
01B
04A
7F3
024
005
7E2
020
012
0B0
760
7F6
767
08D
063
032
7F3
061
7E5
7C5
017
7C1
009
7D1
7CF
003
7F0
7F1
008
793
02A
0D6
7CC
0A5
7FF
031
7FC
082
078
007
0A8
008
772
7C2
041
01B
794
785
7B0
77C
7AD
01F
041
757
032
02C
77C
788
746
77D
02D
07F
79A
77E
012
7AE
7DC
048
79E
7C0
004
003
038
7E3
7D5
074
77B
069
036
08A
754
7C2
7B4
7AB
7E7
795
0DC
7A6
045
714
032
7E1
048
084
020
056
024
008
011
71B
10B
138
068
7F7
000
0F9
026
08E
03E
017
013
788
785
7EE
042
010
7C5
07E
04C
037
009
7F3
08C
7E1
782
00C
79E
09F
02B
744
018
07F
038
7BE
00E
76A
074
040
088
01C
057
7BB
780
064
07E
05B
782
77D
7CF
7DD
7FE
061
7AA
758
0A9
7C1
7B2
79F
017
08E
009
046
7F4
7CE
040
7F6
03D
7FE
78F
7B8
033
069
073
01C
7F0
09E
7F7
0AF
02B
0D2
798
71E
032
035
084
6F2
0AC
79A
7CE
7AA
7F7
7C8
0A0
114
7F9
02E
7F0
014
00C
772
041
0AA
022
714
7A9
027
75E
74D
015
061
020
7CC
09E
04C
776
003
79E
04C
7E9
7E6
03C
019
098
7E3
780
07B
062
02A
781
7C7
7CB
065
035
7DC
7A7
078
0B9
78A
100
037
07C
795
033
793
7E5
0C6
7FF
74C
065
00B
7B6
7B0
71F
721
0E8
7A3
787
7B3
021
028
0A2
08D
018
724
01F
7C1
7C5
7AA
7D9
715
0DE
0C8
07B
7E7
7CE
049
016
0EE
062
0A9
7AD
789
023
79E
6EC
674
0A7
774
040
795
76A
761
7CC
0AE
037
076
010
04F
040
6D1
10F
06F
072
7CF
6EA
79B
792
73F
7CE
7CB
01C
7AB
7E2
007
7D3
03E
732
038
04F
7E3
048
7DC
7E4
757
7B5
7BB
01A
75A
7BB
7F0
050
081
027
03E
060
7FF
06E
7FE
05C
7A2
034
733
726
76E
7D1
047
7F4
6BA
7C2
03D
7F6
7AD
76B
782
030
7F9
022
7CE
07C
7C1
07D
79B
025
77C
7A5
03B
7AC
7CF
7EB
69D
017
08A
012
067
7EA
095
7D0
040
7F8
012
7BF
7B1
7CE
05F
6A3
663
07D
7B0
01C
7E1
7F9
02F
790
0C8
020
0D3
02D
7DF
04C
6A5
0AF
043
018
7E8
778
7DC
056
7F4
04C
7EE
7DD
7CC
781
789
761
7C7
7A6
056
018
7DD
7F1
0BC
7F1
756
78F
022
7EA
774
055
043
7A2
0BE
06E
7DE
7BC
05F
7D0
78E
042
7C3
039
745
79F
7DB
7F6
7E5
7D5
759
03B
7E1
7E1
7A1
7B2
004
0A1
759
041
005
087
76D
043
7FD
068
792
7D0
059
045
088
7E5
6EA
044
066
00C
048
7D9
002
7E0
7F1
063
01A
7F0
09D
7FB
0E2
779
69B
00F
791
7ED
04B
081
072
76F
069
7D9
0C6
7A5
7DF
7F2
6CC
051
093
7A9
030
756
799
7A0
7DD
068
6F5
02F
7D5
002
019
79C
7EC
7CA
7FF
05D
7D3
023
0BB
7AC
7EE
732
7C3
7EE
006
024
064
03A
010
0C9
74F
7FD
78E
770
7AB
04C
7D2
7F9
767
7E4
055
77E
034
034
731
007
025
765
7DA
7E1
032
016
722
7F4
031
037
779
00A
7E2
098
7B5
79C
047
7DA
0C9
7DA
757
7E5
0AC
02E
7DE
7E1
7EA
7CD
7D7
009
023
7F3
04A
7A1
096
798
7B5
005
746
0A2
061
7FC
070
715
029
026
0E8
004
004
04E
7AB
7CE
0A2
05F
7CD
78B
7D0
02F
765
08E
6A4
038
027
7A7
00A
7E3
7F0
075
020
7EF
039
061
0BB
76B
7A1
713
78C
017
7C9
7F8
7E5
793
016
074
6CB
7F3
761
7D6
760
067
000
7DD
047
028
022
03F
000
7B3
7A3
01B
7DD
789
042
028
7CC
7D1
6BB
001
04A
7F6
008
07C
023
000
7F1
009
040
788
13B
7AA
6F3
716
0E1
769
053
772
7F6
7A1
796
7E3
78B
77E
7C8
758
00A
792
027
002
75D
08D
074
7F7
085
7F0
7E4
7EF
064
7AA
016
093
7EF
045
0C3
021
085
7F5
0AF
047
01D
095
664
07E
05D
02D
79E
736
00E
016
7E2
019
038
096
06C
789
7A5
75B
6A3
7F1
712
79A
06C
72A
034
007
722
7E2
7BE
7ED
7B7
043
069
766
077
03D
77F
003
057
7C5
6D6
74B
7BF
007
7E3
00D
7AB
79A
76A
060
7CC
022
78A
07C
754
029
010
02A
799
787
04C
7C4
78F
6FE
000
781
06F
7DB
7CB
732
740
014
028
7F4
7B9
7F5
03B
77D
06D
038
001
024
7A5
784
0C7
027
7E4
7FC
02E
03A
7B5
04B
7BF
04A
0A5
78C
0A7
002
07F
04A
019
7DC
79F
037
062
779
05E
79E
7B5
08D
017
7DD
7F9
0AC
08D
76A
7B5
01E
65A
072
690
03C
077
7E0
087
767
78D
026
787
049
7ED
02E
04C
723
04B
7BE
7CA
004
035
77E
790
7B0
04D
063
7F8
056
01D
7F6
75F
021
037
00B
7B5
098
77A
07D
018
016
757
7D6
7BD
7DB
7F2
6D0
7BF
042
091
7D2
066
7A4
728
7AE
08D
028
016
722
017
7BB
079
066
7ED
033
7D4
7FE
07A
7F8
032
01B
7E1
024
032
02D
05F
034
0A6
00B
7CA
06C
0A1
01E
7F0
024
7BE
002
006
7AF
0D0
06F
744
070
087
7E0
77E
071
05E
753
7F8
01D
709
067
6DC
103
05F
006
060
762
048
0BE
7F6
7E6
7AA
043
022
7BF
03C
77E
7D2
051
060
7A3
043
78B
00B
0B3
79D
0BF
03F
76A
7A9
03A
7F5
088
7ED
0AE
7C8
7C8
02A
06E
795
02D
028
01C
01E
791
762
7F4
092
7A3
006
001
718
705
05E
056
055
71B
7BA
75D
04E
03B
79F
7A8
77B
7F1
022
7E3
002
018
008
034
02F
019
026
056
026
07B
78C
035
06A
7FF
7EA
01F
066
7CA
02E
752
095
066
7BE
06B
086
7D2
765
087
07D
74E
7E0
7E1
6F4
02E
6EB
116
022
04B
08F
7B2
042
7FA
75B
01E
7E0
06C
04D
7A5
01E
7A6
041
004
069
75F
03C
749
045
06A
766
04D
026
7E4
006
09D
086
038
7A1
08D
7CA
7C8
015
02C
770
7E0
02F
7F9
05A
7B9
733
04C
043
76A
7EE
051
759
6AA
7CD
0BD
07C
7F4
7D0
786
048
7CD
737
77C
796
015
0AF
7F4
05D
7ED
7C1
7EC
057
03D
7F4
7BF
037
7F3
741
023
0C5
091
025
050
084
790
06C
76F
089
01C
7D4
7BD
032
01E
7AA
01E
050
74E
062
7F4
72C
093
75B
0C2
026
036
0D2
7A2
7FE
7F8
745
7F7
035
0B8
07C
027
010
7BB
025
700
00C
7BF
7B3
724
7CA
013
779
094
058
79A
074
06B
076
02F
7E8
7E5
00D
732
081
7D1
7AE
797
7E0
7AF
03B
022
6BC
053
04E
7CB
002
0AB
7D1
6F0
786
0DE
02F
017
79F
770
7C6
75B
7C4
02C
780
02D
09C
00F
05D
7AE
020
7B5
060
064
03C
7EC
04A
78D
7B5
034
06A
052
038
019
043
002
023
7BB
0CC
79C
7DF
04B
082
005
7D1
7F4
026
70B
016
7B2
7E5
07E
011
059
02A
7E3
055
7F4
08D
74E
772
7CF
015
0E4
054
7CE
089
746
052
68C
043
02F
000
75B
7AA
041
7FA
003
037
058
001
0A5
7B1
007
02E
058
030
70D
0D1
7F7
7C1
7D4
00B
7B4
067
78D
6F7
7CD
072
738
7DE
058
7DC
6C7
76E
073
061
7C1
055
046
784
73A
7BC
029
7BF
7C6
0EA
061
7BD
007
080
00F
012
7BA
7E7
00F
768
71B
7DC
0CA
04D
056
07C
04C
7CE
7A3
026
05E
026
76C
79E
0C6
006
7F0
07F
010
030
75F
010
045
7DF
04A
04E
7F1
02D
028
005
7A1
7A2
7AC
76E
002
7AF
0E4
01C
7F3
039
794
086
692
038
7E9
7A5
784
034
78A
7D6
7F9
057
7F3
01C
043
6B1
7DC
039
079
05E
70E
0A3
7BC
76D
7D3
76F
063
005
7E2
029
084
07B
7AF
7DA
79F
791
699
7BF
072
0B8
783
013
78F
783
728
7ED
03A
784
7FF
0A8
08E
7CE
7F4
06B
038
031
041
06F
09B
782
7B4
7CD
03A
00A
00D
095
01A
013
01D
003
004
01E
79C
7C9
0DE
000
053
01F
035
01D
7D5
007
7EB
035
008
073
775
7FC
7FA
04A
7FA
7D5
74C
7D7
7ED
744
10B
7E7
7B5
7EC
7E0
05C
70A
030
049
7AF
7AC
7D8
75F
7FC
059
042
7E9
7DF
01C
752
7A8
048
00C
052
7AB
0D3
039
771
7AD
7A8
05D
7F8
01E
032
0A2
06F
777
7CE
7D8
762
76A
7BA
007
075
744
79E
7B9
7C1
754
01E
0BD
7D5
7EF
064
0A3
795
7F4
01D
7B9
08C
06C
0BB
09E
7DF
011
7D9
004
037
008
7F6
039
7BF
037
7ED
774
7F0
71F
081
0B2
7AF
7D2
7CB
7EB
023
032
01C
018
02F
7E5
010
786
7A2
7CD
038
7F7
7B6
7B0
03A
7EF
759
0BA
064
062
050
7AA
7EF
737
038
035
7F7
7FB
023
647
001
077
081
03F
018
00B
70C
7D2
01B
044
022
791
034
028
04B
7EF
7CF
00E
071
7B9
021
023
01E
785
786
7CA
758
792
77F
01D
001
785
012
7C1
7A3
79A
006
071
7ED
7F9
008
110
7F4
7D7
7BA
7C7
014
7E2
075
06A
7B3
7E3
075
7F4
766
025
001
76E
7D7
049
7EA
7F4
773
7BF
049
0E4
7E0
7F5
002
79C
02D
0C4
060
7EF
088
7DD
01C
7B8
000
07F
012
7FA
7CC
76F
7F4
7C7
7A5
7F2
7B1
021
040
7B8
04B
7FD
028
73B
7E0
039
7A2
6C4
01D
077
03A
7C0
04D
001
7BE
036
07F
7E0
7A2
008
7F4
002
03F
7F9
00E
057
7F5
019
7D1
7ED
062
752
7D1
74A
7E2
7D7
79A
7D4
7BE
7F7
7B4
7CE
7A5
000
009
7D9
7CC
027
791
0BE
03F
05E
765
00F
7AB
02F
064
04F
7BF
774
001
06C
73C
01C
050
741
07B
076
037
785
785
010
023
0BA
7B9
043
09B
72A
7F6
0CA
003
797
028
7CA
7FF
79A
7E1
7F2
757
03E
016
7F5
789
7FD
782
705
013
781
083
053
03C
7D2
055
713
007
01F
7C7
674
777
07E
081
77C
057
797
7D0
013
7F2
010
051
7BB
00C
0A1
053
7AC
014
7B6
093
002
7A8
0BB
00F
758
73F
7FE
7B4
7BD
780
009
003
032
020
7B1
77C
00E
7ED
023
019
006
7AD
7EF
7B9
030
76A
7F4
05F
05A
011
061
025
02D
7D5
7F4
7D4
7D7
746
7A0
095
7DF
058
7DC
748
010
76A
093
014
7D2
06C
7C3
7FE
0B0
013
7BD
08D
001
014
761
7B6
0A3
749
062
041
7CE
770
79D
7F6
703
081
774
7FE
0B0
782
7FC
05B
765
07E
07D
79F
639
76E
06A
066
7FA
7D5
78B
74B
7E5
7E9
7D6
042
7EC
79A
008
0CE
7A2
04E
7B3
09A
039
7EC
05D
7D2
7C2
777
775
763
7EC
765
073
7D4
0D9
708
78E
798
01B
7D8
7BC
7AE
057
7A1
7E0
04B
02B
011
048
079
7FF
7F0
046
034
089
02A
024
7DF
053
701
7B1
017
019
03B
7C9
795
015
7F3
028
018
79A
026
6DD
00C
0B3
7F0
7C9
093
018
7AB
73F
7CB
088
76E
7F1
7F3
776
719
002
016
7BB
01A
7DF
006
0D1
7C3
7B4
010
711
02F
7EB
7EB
6F4
724
7F1
08D
7F7
018
7E5
7A1
057
7EB
7F4
7D7
06B
7EB
0A9
7F9
001
051
7FC
043
043
794
006
7BD
76D
787
006
006
7BE
017
7AE
7E9
0EE
72D
7BB
035
780
7ED
7D3
7F8
7F0
7D3
726
7C1
016
7D0
7C5
046
02C
7C1
049
02C
745
072
049
790
06E
7CA
71F
028
02F
064
77C
009
098
7D2
7E9
7ED
7C8
0CB
6ED
054
7F5
7DD
045
015
032
79B
789
05E
03E
743
000
09A
026
70B
7B3
00D
71C
044
754
005
074
7D2
73C
097
705
05B
062
029
758
752
77B
7DD
007
796
7EC
037
086
08A
01D
7EE
09C
018
04A
02F
01C
03F
7D3
06E
009
043
010
02C
756
7BB
76F
0A3
749
029
7BD
7BC
049
770
01C
01F
026
087
76D
067
045
7FF
73C
766
7D1
7EC
01D
7E3
078
7D3
7E5
00C
00F
0B1
778
6FC
040
71A
7C1
08C
78D
073
075
014
096
7B4
7F7
03E
058
088
6E8
043
79F
782
064
038
014
7B9
73F
78B
00F
784
027
7CD
7F9
747
00D
016
78D
7D5
741
012
061
04A
7E1
01C
6B2
048
01E
0AC
0B5
7DE
75C
0D1
7B6
02D
095
7C1
08F
0C3
7F2
07B
0A1
729
110
7AC
00B
7C5
04D
085
093
00E
7E4
022
749
720
03A
06F
7BA
05E
7EB
725
064
06D
795
03A
7F2
053
72E
029
76A
7A7
79D
7E8
7EB
782
7F6
75B
097
7FD
7BE
7BA
019
04C
794
75E
00B
73B
7CF
0D9
005
7D7
0FC
766
07D
7BD
0CA
7C3
01F
020
74E
7DB
7C2
7D4
01B
7F4
04E
7C6
7B7
738
741
705
7B3
06A
79B
7B9
6ED
797
754
7EA
725
014
7BC
065
7FC
78B
761
092
052
0B2
74A
7E9
06C
10C
7C0
02F
05C
7CE
0C1
0DC
034
03A
0EE
7F1
0E1
79E
05F
027
060
0DE
087
025
051
7F8
7AB
782
7ED
00C
032
7BD
055
75C
10C
02E
77D
0E2
7D8
0B4
00C
7C0
05B
743
7D3
7CB
078
6DC
00D
014
08F
03E
74A
7FD
043
7D8
7DF
7A2
70B
001
00D
085
7F0
6F0
15D
782
0AA
7E3
7FB
7ED
7A2
020
77D
02D
7BC
049
083
7AA
038
7CC
029
6C8
779
757
7CB
7C7
7F8
7E3
76B
7C9
771
072
7B7
0F2
036
7D7
05C
7B5
73A
060
783
05E
7BB
7FF
086
042
7CB
789
096
7DC
056
0B6
011
040
0DB
7D3
0C0
7B2
064
7D4
7C2
095
7DF
021
028
056
79F
011
7DE
02E
079
7CD
02F
7C3
008
7C5
732
00F
6CC
0A0
7B0
7FD
7D4
7E3
7D4
7C6
03A
032
04E
005
064
7E2
717
7B8
7DA
087
750
7DA
780
017
7FA
0D0
7FB
7E8
080
7BC
06F
7F5
009
0AB
798
090
04D
7C6
010
089
00D
068
029
051
00B
797
740
7A7
046
00C
7CF
7C1
063
047
018
043
7B1
0CC
7B2
02B
02C
01C
797
098
03A
05E
012
7C6
01A
034
014
003
08A
78D
037
08C
014
7CF
03F
0B6
010
7B8
09F
022
01B
05B
04A
7FA
014
033
080
7C0
03D
7C6
018
034
779
79E
029
022
06A
04A
7A3
7CB
7E6
07A
760
7BC
06F
7D6
05E
7B9
038
7A7
02B
07F
767
02C
7BA
086
77B
03C
7B4
06D
029
788
040
04F
0F2
7D7
091
7F5
7D6
020
084
056
7BC
7AE
029
795
052
7B8
043
7F1
7EC
7D9
7B5
7B2
0A5
7AB
75D
7D8
01D
047
056
075
017
013
7BE
040
7D2
02F
04A
00D
7E2
7D0
03E
023
001
00F
004
7DD
7C7
7ED
037
7F6
02E
7F5
043
7FE
042
04C
03B
00E
003
7D4
008
7CA
042
7D8
7FF
014
7B8
018
008
7E7
021
03D
7EA
7CA
00D
7EC
7BE
7C3
027
7C0
7FD
7DB
030
02F
7EA
006
7D3
7FB
03C
005
7DE
015
7C2
020
041
7F7
7DA
004
012
7F9
01A
7F6
007
7FC
7DF
02B
7B0
7C9
000
7F1
00A
7B0
01E
028
7FA
7E7
7EF
040
7D3
00A
7E1
7AD
045
7D3
7F3
037
7B3
03F
7F8
036
025
7CC
7DA
7FD
06B
7FC
7D5
7F9
7CA
0F6
7E3
7DF
793
046
04C
7CE
043
023
7E7
039
096
071
7EA
7A9
0A9
059
775
095
079
706
701
002
7C5
079
051
743
7BD
7D6
04D
09E
082
009
799
7DA
7D9
7D5
7DD
7D9
046
767
012
059
0EF
109
7D3
768
031
738
000
7B4
032
0B3
080
0A7
782
00B
040
0AD
7B8
021
078
7D0
04F
742
08B
756
7B8
022
7C0
030
010
0BD
0AB
072
7FF
72A
7F3
013
7EE
064
7F4
051
087
763
7EA
01E
057
794
04C
077
049
77D
0B3
7BD
7EC
009
7A2
73A
78E
7A6
00B
056
031
033
7F8
053
7AB
01B
7E3
768
011
07B
036
7DA
062
74C
7AE
03E
7DB
033
7FA
7BD
7E6
717
777
020
7AF
04D
7EB
7DE
7CD
085
022
7E3
043
7FB
138
77D
02D
7C9
7A5
0AE
7C5
020
7E8
00C
7A3
087
0C7
020
7F0
0E6
0EE
7C5
06C
09D
02A
037
7F3
0AF
749
7CF
7B5
026
7A9
06B
7D7
0DB
074
76A
062
030
781
076
7F7
7D3
048
018
045
7C7
7AD
0B1
027
0B6
7D1
7EB
035
058
047
096
0BA
00F
060
024
7A9
7E4
76B
799
7D6
786
7EF
078
091
7BC
049
04B
7B5
01C
771
7F6
076
0D4
7A8
78A
7B2
72A
7C9
119
76A
79D
018
052
795
77A
7CC
006
792
00B
7FD
07D
7C7
7C9
7EF
773
77B
74C
0E0
732
02F
792
026
047
7F8
0F1
049
0FC
7D3
0B0
042
745
10F
179
086
7A6
7EB
11E
004
7EF
029
7CE
7E5
7EE
788
058
743
0C6
733
0C2
07D
001
7EC
7D4
027
006
7BA
02A
76A
06E
7C2
79A
7F7
002
052
797
051
767
11F
758
081
7AD
080
75D
00E
091
02F
022
749
6AD
7F3
005
022
029
7B2
7D2
075
7A8
019
7C0
78E
052
011
7FB
7D0
7FA
00A
07A
060
06B
7E7
6EE
7F6
058
7EC
7D0
79F
052
7B8
062
0DC
03C
74F
7B8
7BA
04D
00B
706
0AC
6E7
784
056
025
003
048
089
7F1
048
7EE
7AA
025
7D7
792
0FC
0BE
76E
7E6
057
7D4
79C
7DE
099
74D
7D0
017
7E1
74A
08D
6C4
00B
007
795
05F
11B
7E7
7E7
6B9
065
003
00A
013
057
7AD
064
098
7BA
782
03C
087
777
054
086
02E
76A
01F
7B7
7EE
7E4
794
7AB
7BF
093
030
7FF
77A
75E
095
00A
071
004
03C
071
7C6
7CF
06C
6FD
0CB
0F5
019
055
736
6F8
7B5
0B0
7C9
01C
037
7AB
788
106
059
025
7B3
7B7
7C6
042
6F8
70B
7FD
725
06E
014
7B1
7CF
06D
086
79B
7C8
014
002
75B
70D
7EB
091
050
057
7B2
7AE
05D
790
7C0
0AE
772
782
7FA
71C
009
00B
7D8
0AD
7C0
7BF
058
059
7A2
78D
746
08B
05B
7B6
024
014
75D
7F5
0A6
799
797
7A3
057
77F
7EA
03F
000
7E7
7FD
008
030
02E
7EA
70A
79E
7D2
012
7E5
021
7F7
0D4
009
7D8
7A7
062
7BD
02D
7FC
7D5
71E
037
05B
7AB
05C
773
6DC
7B0
014
001
035
7FF
01E
7B2
7C3
0CE
02B
7ED
0A8
7D3
091
6CC
709
08A
6FE
054
7CB
7E4
7EC
7A0
0AD
79A
021
7DA
7DA
76F
6C1
007
0B0
003
7E0
75B
041
064
784
05A
76A
774
7FF
76E
7FC
7F3
055
006
0CF
014
7F3
020
07E
7C0
7AD
753
02F
067
775
061
7F5
76F
04D
077
794
7E0
7E4
005
7D6
03C
049
04D
7B3
7E1
013
021
7CC
013
7B1
7F6
7EC
7FB
035
7AA
00C
080
753
000
7ED
02D
004
01A
023
024
799
7D0
00A
79E
032
7BA
6EC
7C5
010
00B
7CB
7B7
002
7A4
076
032
05C
7B3
012
781
013
772
700
09D
7EB
781
7B4
7F2
043
7E0
07F
7ED
01F
041
787
77D
6F8
7D1
0AC
03A
037
7C8
060
047
7D5
026
6BE
7CD
7C9
008
786
036
7B7
0B3
033
7E3
7C9
035
05B
75D
7D0
779
7F1
7CE
07B
018
046
7AA
048
05D
705
02E
7AE
766
7D2
727
7A5
054
7E1
7EF
03F
045
7FF
7F7
74A
020
7A7
747
7F0
07F
073
081
6E4
7FA
05F
7AA
74F
063
007
06F
7B6
7F9
095
78E
03B
779
6D7
7F1
019
7A1
039
031
7C2
7A9
010
06B
78A
00B
7B5
7C3
7E5
75A
7D7
797
00E
005
05D
7BA
042
7EA
7A4
7DB
760
7B9
7E0
7FA
780
7F7
042
059
086
7C3
064
79C
7C7
088
6D2
7E3
7DA
065
7D3
786
7D4
093
7D5
7C3
067
08E
0B0
75E
7EE
774
74D
7F2
7EF
00C
010
76C
051
7EC
72B
7F7
796
779
76D
753
7B8
7BB
02D
058
7ED
045
035
00B
7E6
7FC
020
762
009
021
042
020
773
05C
01F
79C
7BE
7F3
03B
059
796
015
007
7C5
05B
7A5
739
6F9
0B4
7C1
7D7
78D
7C1
7D1
7A2
768
7B9
792
7BE
7A9
7A7
77E
087
7DE
764
7FA
7E2
7D8
078
7EA
7FF
067
7DB
7C1
00B
031
7D8
7FC
031
7F5
07A
7D9
075
7AF
039
0A4
679
00F
031
797
00B
7C1
01B
7F7
01F
02E
7CF
0D1
7F4
715
028
015
724
033
72E
068
7D2
7A9
033
7E4
7B2
052
7C3
7EE
789
7E0
004
7AA
037
010
781
085
016
77E
01E
7AF
7C7
7DE
7A3
065
012
006
754
0AF
7F4
7B0
743
071
7C9
023
7A0
019
064
712
7A9
07F
77E
738
0B1
7E8
7D9
7D6
7CE
034
705
02C
00E
792
00F
76C
7FE
797
099
796
024
073
00D
025
048
7E8
023
022
76E
7AD
7F9
7DD
7DE
0F5
055
025
032
003
079
7C2
04B
05D
774
013
07D
7C2
066
045
7BD
033
096
7E6
7FE
08F
0A4
744
7C9
7FC
6A0
00F
5FB
0BE
7E0
7C0
051
7FE
072
07E
7B4
047
7CB
79C
7C0
712
01A
7B5
7A9
0D1
010
738
7B5
7D8
00E
7FA
7AB
072
7E2
06B
032
08D
7D9
7BC
736
02D
7B9
7D3
00F
00F
005
7E2
7ED
017
7EE
6E2
7EB
7B6
7FB
799
7DC
08D
71C
7BC
036
06C
021
79D
7CA
00D
030
023
7EC
7F4
78E
014
06B
03D
7E6
085
7D2
004
054
7D3
7BD
070
031
7FE
026
018
02A
7AE
002
02C
068
78E
7F4
6F1
056
069
029
090
7DC
01B
7FD
053
7E5
741
7EA
02E
711
088
718
118
072
058
011
7E8
0F0
0D7
006
03A
006
00A
7FE
6F3
7EA
75C
058
017
059
6EF
7EC
006
7DC
03F
781
012
026
032
7C7
07D
7F1
03F
74B
067
007
7F2
7EF
791
7A7
7AD
7EA
01A
004
75B
741
7FA
055
007
06F
0B3
767
03A
7DF
012
00D
7BB
741
73C
7F2
06D
018
039
79D
7D5
074
04A
7C0
025
000
7B8
002
039
783
09B
030
770
014
046
0F2
7FD
7ED
03E
0B2
7AA
7FB
71E
042
05D
7ED
015
7F8
039
7FB
015
028
776
7B5
001
7DA
02C
799
0A3
7FA
7A8
007
7BA
05E
086
79E
7ED
045
04C
067
7AE
00B
7BB
025
7CE
0C9
01C
058
7E2
7BE
059
77A
023
025
7C2
02A
08F
060
7EA
713
011
054
7AE
05F
026
751
7D1
7BF
7A5
065
016
701
046
026
7BE
03B
077
736
046
76F
107
05E
041
79C
7A2
7BF
001
7CF
7F1
7A9
00E
0A5
7D9
787
004
00D
04B
01D
7D4
7F5
03B
0BE
711
000
04E
05B
05B
7D3
042
051
758
045
739
0A5
7C9
74F
04B
7B5
00C
070
7AD
08E
718
7ED
003
009
00E
015
0A6
072
7A8
03F
7C2
044
759
75A
0A2
022
0FF
00E
767
074
73E
024
68A
088
084
011
720
7CF
0A8
787
082
05F
017
023
099
7C2
014
03C
7EB
7F9
7AF
7C4
069
7C1
7DA
7C9
015
041
07D
653
019
08B
7C7
7CE
096
7DE
03A
787
0A9
7C9
7C7
7F4
7F1
00A
7C4
7C0
7F6
75F
7CE
09A
7F9
061
7A3
01C
7C0
7E7
03E
7EF
074
054
730
034
07D
089
001
05D
088
06C
75D
04F
799
7F1
7BB
7A7
055
01C
7CA
031
7FB
7ED
757
05A
00C
086
0A0
05F
7E3
7FF
7BD
075
78E
7A6
79D
755
02C
7FC
121
7EA
7ED
06C
728
7E0
5FE
061
015
7CE
764
7FC
01A
777
08D
0CB
029
7C6
02A
766
085
075
7CB
084
768
07D
03A
75A
7AC
7D5
012
0AB
016
6CC
06E
049
7E6
7D6
7F6
79D
798
750
065
007
7E0
034
7CD
7E7
752
7D6
002
7CE
064
084
08C
7D2
07D
046
005
7E8
7DC
05D
02C
78A
765
7BD
088
03A
02A
04C
030
08D
7B0
7F6
7DB
7F8
731
00F
01B
7C1
03B
099
7AD
017
7B8
03C
0B0
054
01A
0DF
7A3
04C
77D
7FD
737
036
7E0
79C
796
754
0F4
01D
732
094
774
7CC
675
045
085
7A0
7D2
048
7AA
6DB
047
0C4
02F
02C
099
6CF
7D4
089
7FA
038
7E5
038
02B
797
004
758
7DF
077
006
01D
09D
01F
02C
003
018
764
7B7
7DD
0BD
7F9
7B7
05B
7D0
004
746
793
084
777
08A
04A
054
79B
016
7FF
7C3
7C8
030
003
088
7E6
7DC
00C
099
059
00D
061
7E2
040
026
060
7AB
02C
73E
081
048
7F9
7A6
029
7CA
007
024
022
033
032
02F
01F
79E
057
7C8
006
7CB
019
029
764
7F0
712
0D7
7CF
78E
073
7C4
012
780
007
079
7E7
04F
072
762
722
079
03A
068
010
01E
73C
7FF
075
094
070
00A
02B
0B7
02F
7CD
020
06B
7FB
7E1
060
074
002
7E2
72B
7B7
7AB
7A0
06F
039
054
7EE
7E6
7A7
03F
7BB
7E5
137
7A7
01A
01B
08D
741
019
054
7B5
03D
01B
04F
0D2
7C1
009
04B
077
7F3
00A
0C5
772
030
068
003
7BE
7CC
7D9
0BC
058
7EA
7CB
022
7F6
7B5
05E
043
7A1
7F7
041
081
756
01B
009
012
092
79B
050
733
7F2
78B
055
7E9
7DC
06C
011
03F
04D
7AB
7F9
025
018
7D1
6B0
740
02D
0A0
02A
050
040
7A0
7A3
79A
04F
07C
7FA
072
0FF
014
767
062
7D4
005
7D7
797
044
7C7
041
786
7A5
774
7D9
07B
04A
0BC
02D
742
7C2
08E
005
7E6
7F5
7AA
01C
7C8
099
751
0BD
771
003
03A
009
049
0E8
7BE
017
06B
0CB
7C8
7FE
069
745
7D4
04C
7F1
7BA
7D8
7AB
094
00F
7BE
7D5
7A2
78C
015
085
04F
7DF
03F
038
7C0
734
7F2
04A
7C9
091
7EB
7F3
759
035
77A
7C5
03A
7E4
099
063
7E7
068
007
017
075
7FC
075
5DC
710
036
051
004
019
7E0
782
78C
012
03D
035
05A
00F
0E9
7E5
785
047
015
049
780
74C
098
7AF
79F
727
749
795
051
7E6
060
079
7BC
79C
003
05E
7D9
7F5
005
7AF
058
78B
046
78A
0AA
7AB
00B
7FA
07B
7A5
0AC
775
05E
0EC
07A
792
051
056
70C
035
099
074
78A
7F2
7EC
7E2
7D1
7FF
7D6
7EB
769
03B
07F
08B
771
7FE
030
007
786
086
0BB
769
088
003
02D
6FC
020
76F
722
00F
7A7
028
7D4
7E1
03E
002
7D4
091
00C
050
58B
7AF
7D2
0A5
7EC
011
7E4
7A2
7B7
02D
7B3
080
074
7D0
0F9
0BB
7A9
7E6
027
0F8
037
7A4
080
7ED
741
75F
7F9
770
7A1
08E
058
046
027
77F
796
002
7F7
7F5
00C
003
00C
7BB
7FF
773
04B
7EB
7D6
075
05F
005
0A7
775
7C1
03D
79F
74E
01A
7EC
722
02D
08F
035
75B
7E8
018
6F6
7A8
04F
01F
7F0
7D7
04B
060
046
70F
7EE
7E4
7B6
6D4
02D
05A
7CF
06A
7B5
000
6FD
789
7A7
72F
039
769
05A
00A
007
00A
7F6
02A
025
00C
7DA
6F3
01B
7F7
07E
7AD
78B
7EC
7C2
034
05E
790
035
0A9
00E
0A3
0AF
04D
7FE
7FC
0C4
7D9
006
03E
031
71E
707
050
00A
7C3
083
07A
799
084
7AD
799
09B
7DD
069
060
7D5
05A
7CD
7F9
7EF
7F9
7B5
7BA
07E
7CD
07D
011
7A7
02E
035
006
784
01F
76C
78C
008
034
05A
739
711
7FF
764
768
00C
094
76A
7AF
058
029
7FB
7A7
02D
03F
79A
6C7
072
08F
6E1
7A7
714
7E2
6E0
790
7DB
747
071
774
7F0
025
01B
789
03E
7BD
092
032
02E
6F2
7ED
7DA
04C
7A7
7E0
03E
011
052
00E
7D7
78D
0CA
7B7
125
057
06C
083
7B2
0A7
046
01E
001
034
70D
766
7F0
04F
00B
039
017
7A1
08F
7CA
7C3
070
7CC
7DF
02D
016
0B9
73D
744
740
7EF
7C9
001
04C
00F
003
083
015
7DE
04A
034
782
05F
7C5
747
084
043
076
79A
70E
04C
796
764
010
03D
059
6ED
03F
7C5
06E
099
049
7CA
7F8
719
06B
062
71E
7F3
7C6
00B
6BF
798
7C9
6D3
7AC
7D8
062
086
047
6D5
069
761
04F
041
05B
7BC
7E6
745
030
7FD
77F
044
7D8
024
056
083
779
04D
78F
069
784
7DC
068
746
029
003
03C
04C
7FB
7AE
7DB
00C
000
779
09B
74D
022
0A3
029
026
027
79B
01B
73B
048
7FD
6C1
6E5
7B8
0C8
008
007
08E
0A4
065
7A7
7C2
06B
09B
7C0
69D
016
6F4
771
09F
7E5
040
7C2
037
092
7BE
760
01B
7F1
03D
6C8
048
054
7B7
7C5
0C7
70C
77A
748
7DD
052
75D
775
03C
038
6F6
769
7C9
6B3
77B
778
02C
070
10A
7C3
019
6A4
02D
05C
08E
01A
7D6
737
079
059
7D3
026
7CE
07A
06C
048
023
065
7CC
102
77D
056
7B6
7F0
012
071
078
7BB
7D0
732
798
00C
03B
024
01E
76E
053
05A
023
063
07B
030
0B5
70F
02A
050
6AE
719
7CC
028
087
7FD
019
093
077
7E4
788
035
7BD
7A2
719
058
6C7
7D0
028
7C9
002
009
7CE
03E
77A
796
078
794
02A
741
7F5
7A6
7B1
7CF
049
795
7BB
71B
6DF
088
6FA
754
018
062
03B
74B
7A5
7AD
7A8
711
054
045
0D5
7DA
013
6A5
7F4
7D6
03F
7DA
025
7AE
023
7D6
7F4
7D8
06D
0F7
792
79B
0C9
046
03A
08E
7C6
7E4
7C7
00F
06E
051
08B
007
04E
789
75D
7C1
047
069
7B9
79D
028
10B
038
7B1
0C5
045
057
79C
7FE
03F
724
6C4
001
7DF
7C2
018
7BB
0B6
064
7F4
7A4
7EE
000
79C
7AA
7C5
73C
7BA
08B
716
730
0D5
7D6
035
7AB
060
01E
04D
0B7
79E
775
04F
7DB
7F4
01E
7F6
001
7BB
736
75D
74C
79D
042
04A
02D
76D
01B
7E2
7F8
72C
0E5
077
007
0D7
7B9
72A
134
7C3
0CB
768
7B7
088
087
7DF
7E8
095
017
003
041
7F3
7E4
084
01F
06A
7C2
7E6
7E2
006
004
029
079
7AA
027
734
7AC
085
02D
785
077
7DA
7CC
029
00C
7B3
7F4
795
05B
01C
056
7DC
740
7CF
7B8
7FA
057
04C
023
0C9
7A0
71A
7C6
7AE
014
780
7DC
749
06B
047
0E5
7EA
7B0
0D6
7E3
086
05F
7F2
09F
7C9
7FA
07E
798
75E
048
0B5
000
03E
04C
7DA
7FD
758
7FC
7F1
042
7E7
7DE
7DC
0DF
7E5
7D1
7A2
0A5
756
008
082
012
786
052
083
001
7D7
004
079
056
7A9
017
055
7D1
00B
000
024
7EB
7EF
02E
7B9
7A7
0A8
015
014
03F
057
01C
7C6
7C9
038
024
029
002
7EE
7F7
7D5
7BB
09C
79E
067
096
788
038
002
061
7B4
04D
7EB
03E
063
775
047
7EA
7BE
033
720
025
02C
096
7F9
006
78E
01B
01A
7C4
7D8
7EC
050
7EF
02A
7CD
7DD
078
092
03C
01D
7E7
067
785
00F
77A
0AF
7BF
00D
7E8
7B5
7A4
073
031
01D
049
777
7FC
024
09A
058
03D
7D5
020
022
002
79B
7ED
097
7E2
028
7F4
748
005
7C5
03C
7BA
0BD
01C
035
7E8
7D2
08A
04D
023
004
7C5
7B7
075
7EE
018
027
7AD
7CE
04C
7DD
7CB
0A9
7BD
017
76E
065
044
7CB
05E
006
7B1
77C
7EB
7E8
002
7AE
010
04E
7E1
01B
050
7D0
7EC
792
74D
7D4
047
7D3
7DB
7D8
025
7CE
7E3
07E
7EE
054
7C6
023
7FA
064
7B1
7EB
044
005
7E2
002
0A6
021
77D
7C5
004
034
7C3
7C0
034
01A
749
7FE
052
795
78B
0C2
046
025
7C3
74A
7F8
777
09A
7DA
091
040
7E0
7D5
064
079
7FC
062
05A
7E8
022
0A0
7EE
77F
792
0B0
7B4
7B1
08E
7A7
013
065
035
7D3
7FB
7FB
76B
7A2
063
079
05C
7AB
7CE
0BD
033
7C8
037
793
776
022
0E5
76F
00C
7B7
7D9
076
072
05A
058
78D
01F
78C
073
79C
080
069
05E
08E
7CA
7B4
7D5
094
08B
759
7FA
792
7EF
05F
017
011
7FF
067
7EC
7D1
7F8
7C4
7F4
019
7DD
7D9
01B
029
073
08F
001
7EE
7D9
784
0C3
7D4
0B3
7EC
005
7E9
0BD
7C2
0E9
7A7
7C6
7AD
020
768
7FB
788
775
05D
0CF
067
0BE
05F
7A9
001
759
79C
7E0
047
04A
049
022
7D0
05D
02C
7B6
065
068
78E
7F9
7AA
7D5
7D5
7F6
0C2
7CC
013
7FC
0A1
055
7C4
062
7C0
11B
7E9
782
04A
7AB
08C
71F
7AF
033
7F8
031
0F0
7F6
020
7E1
0CA
0C5
75A
00C
0B5
004
7BC
032
048
7B3
02F
76E
011
7AF
033
7A3
036
0F7
75C
005
011
7FE
04F
7D9
029
7EB
7B2
7EB
7A7
074
067
7A6
02C
021
031
030
06E
04C
0B1
0E1
7E4
0BB
034
7A3
769
77D
7D9
028
7BF
02B
001
00E
025
07E
00E
024
798
715
756
018
7B2
7BA
7F8
7F7
08A
081
100
740
7AB
0AD
053
7E2
043
7E5
7BB
7C2
073
7F0
097
7CB
054
7A8
7C4
7A6
785
09F
744
793
017
08F
7CF
7EA
0F9
067
031
041
02B
00C
7D9
7C7
08E
065
033
03E
06C
091
797
10C
7B5
72A
7FB
740
7D8
7B5
01D
758
016
7C0
048
78F
07C
7C5
7EB
7E8
7DB
010
7EE
785
7EC
7C8
030
7F4
7DA
7BC
771
0C2
7BD
7A9
7A7
083
028
01E
01A
046
7F9
709
739
0B4
007
7E1
07B
7EA
7A2
002
79D
7EB
7C1
757
7BC
00F
05C
760
7EA
034
0CD
012
051
749
762
7B1
019
7EA
05F
047
022
7FD
036
085
08B
007
009
007
04D
70C
743
044
6DF
7ED
013
06B
03F
0B1
09E
7CF
002
7CB
7A4
7E7
77F
72E
129
15E
076
788
072
72F
00A
06D
104
77E
014
7F8
71F
73D
02E
6E7
076
7E5
77F
033
116
7AE
016
6A9
038
79D
7CB
7FE
02D
6EC
121
08D
7E3
768
03B
7F3
7AC
7A5
05B
090
7D5
013
05D
06E
7D8
782
05D
057
006
7FD
003
7CE
73D
067
7E6
7FF
7DC
037
7ED
7DE
06C
7E8
779
01B
01D
075
04A
70E
75C
74B
017
011
7C0
03E
7CF
7BD
08F
023
06F
012
7DF
008
072
732
756
068
734
037
041
006
014
07D
7FE
7E6
7DE
79F
7BA
7B1
76D
762
043
0B2
7DA
7B2
7E2
7D0
7F2
0C0
094
79F
7AB
00D
7D7
039
049
7BA
0E1
774
747
7F8
018
758
7B2
702
086
02E
769
7DD
7D9
66C
009
7F9
71A
02F
762
7EA
03E
776
027
068
7AA
7A8
065
7CA
02C
78E
0C2
7E7
7F5
79C
0B2
7F5
7E1
04B
7DB
039
00A
06C
7AD
7E7
079
020
00C
036
7F0
00B
036
7CF
6EA
75C
7D6
7FB
7DE
03F
03A
7BD
02A
7B1
7CD
01A
02A
043
09C
7A7
7B9
037
7BA
034
030
7D9
7A3
05B
01F
7C4
7A8
7E3
74E
029
7E4
7AE
003
006
7BA
795
02E
7FB
7AB
02E
787
016
7C4
07A
7AC
02D
78A
01C
09E
7B8
7CC
00F
073
733
77E
73C
030
7F3
791
0A0
781
6F5
7CB
07A
7E8
7DD
7EF
7A5
7D3
713
002
071
03C
792
00E
7BD
00A
7E1
048
7BF
7D1
7D7
07A
7A3
7C0
0D6
797
008
073
7AF
794
011
041
04D
004
057
034
76D
090
7A4
6E1
7B4
79C
031
7FA
7A0
041
013
7D1
7CE
098
7FF
7D7
032
052
7B3
7D5
09C
048
7B7
02D
7B8
036
08E
7B1
056
00F
7BB
7A2
08B
6F7
01B
069
063
00A
7A2
07D
78C
787
073
631
7F7
7BF
0A8
7CB
04E
7BF
005
079
78C
77B
024
025
711
007
778
7F7
7C5
05D
052
794
7A8
7B6
7CE
72A
01F
7BB
7EA
767
719
03D
052
05F
029
7DD
017
7FD
7EC
790
7D3
7D0
763
08B
004
7C4
0F7
75D
014
778
7B6
770
044
015
05E
029
780
002
7A3
02F
7CA
751
7BA
049
7D6
008
7DF
7AA
7EF
7B5
763
01B
7AC
7AA
011
027
745
7E3
7E5
7F4
019
076
7D4
03D
03D
74A
014
7FA
027
003
040
777
01F
007
03F
01A
7D0
0A9
7E5
72B
059
63B
052
7EE
003
04E
7A2
072
057
04A
04D
7AB
0AC
786
739
784
7C5
011
039
022
7F9
7F5
7D2
7FA
7E5
7C1
796
764
011
756
7D7
7F1
7BB
043
7E7
7F5
0AB
02E
7D2
7E5
01B
7F2
782
05C
7BA
7D8
03B
7B6
083
00F
7B3
79A
079
06C
061
7CD
7CA
090
790
032
7D6
794
739
06D
02C
035
02D
7E3
7D4
006
790
7FA
060
050
7EB
7B5
7B4
0A3
7D2
7E1
01D
053
7FD
7EA
006
77E
068
7AE
7F8
027
7E7
7C9
049
067
05C
03A
7EE
095
7A6
004
7E3
6AE
7EB
03A
7B3
007
00D
06F
025
096
05F
013
0A7
022
7AC
7EB
03D
74C
050
724
020
795
798
7EF
7DA
7E3
066
7D5
07E
7F0
789
7E1
7EA
02B
092
7A1
01E
00A
060
7C9
7B2
7BA
742
7DB
040
015
03E
7BA
068
7D7
7F1
794
048
05E
04C
008
03A
7EA
792
033
054
7F7
6B2
090
05D
075
036
056
05C
773
7DF
00A
00F
020
73A
791
02B
074
7A6
08E
0B3
7E7
7CB
083
7B4
7AB
019
7D8
7C3
047
7F0
792
068
7FF
032
0A3
08F
078
79D
075
050
7CF
789
7C0
7AF
7DE
007
01A
038
02D
7F3
068
030
001
7A3
7B5
7F3
6D0
022
72D
012
7EA
7FA
7AE
7B5
045
0DF
046
030
004
021
77D
783
76E
7EC
023
0D8
044
7F1
001
7D3
7CC
7EC
789
00A
095
006
7C3
037
02F
050
73F
7E4
0AB
7E5
7E9
7B2
74C
787
7D1
7E9
01E
759
021
79E
04D
01D
039
05F
750
078
071
7E7
7C8
74E
7C0
03F
06C
01C
069
079
7FB
763
0E1
779
7AB
05A
028
7AC
065
7E7
7B5
059
016
7EF
099
05A
045
7AC
7D0
09E
01F
797
04A
754
0AF
097
7C1
00B
7CF
7ED
08B
069
007
70A
7F4
00F
6EE
00A
71F
07D
7DC
79B
766
792
0AF
0AC
7E4
082
081
7E2
014
72C
002
009
7E1
0CF
02D
7AD
0BF
79A
7EE
7DE
7B1
7FB
04E
070
074
066
041
005
756
031
045
796
795
7DF
77B
7AB
010
7C2
00D
7A5
7BA
7B0
008
02D
7A8
09C
748
0D2
006
022
065
001
6B4
7BE
7DB
032
022
784
79A
7C0
075
7D7
784
080
011
018
000
7F9
787
03B
055
791
03B
0C7
7F1
76F
7D0
09D
054
7E4
018
732
06C
03B
799
043
79D
000
007
7BB
060
708
02C
034
7F6
056
684
018
025
000
7CE
7C5
024
06F
7C4
04F
037
796
067
7E2
7C4
7DB
7A5
7D5
070
04E
08A
7D2
02C
074
7CC
06A
065
7F3
008
052
7C9
077
7AA
063
7A7
7C2
7D3
00E
772
7E4
015
7B0
7EE
02E
756
7E5
004
016
78D
07E
797
0ED
7E9
032
7BE
07E
72C
058
758
7FE
7D0
7DE
7C5
037
0B3
78C
780
007
05F
048
7F4
02F
7E7
000
086
7EB
078
077
0A5
787
718
054
078
777
7DE
772
7D6
080
79D
76C
7D8
7B7
04A
7F0
0A8
7D2
02A
05F
0C1
08A
79D
7F3
7FC
792
006
71B
74E
79A
787
0D6
07A
01B
086
778
000
76C
791
734
7F7
092
033
74E
058
08E
74D
08B
065
04A
005
04D
7EA
016
00B
7F2
7E3
00A
060
074
7A9
029
00F
039
0A7
0A2
6E4
00A
7AB
083
7D8
77F
733
08C
7C8
06A
7F9
013
009
01C
7C3
768
7C4
7B4
746
072
0D1
06E
7AF
044
070
021
01D
7C1
7DB
022
073
7B9
7C5
08C
0A9
039
7F6
0CE
048
797
065
7AB
7EF
7CB
7ED
71C
05C
7FD
7A1
7BC
7EB
01E
04D
03A
0B6
036
0AC
056
01D
7F2
038
701
7BF
7A1
77F
048
7ED
001
06C
77F
027
773
7A2
665
7F4
0C1
7BC
7CB
047
03E
72F
086
056
09A
00D
7C6
7B7
021
0AA
7CC
03F
035
007
059
789
7EF
00E
069
07B
046
74F
079
026
04E
7A2
776
7CE
042
03C
09F
034
053
0A6
022
03E
754
7D1
00E
739
01F
7E2
7F5
7C1
7F7
00F
020
7D7
064
018
0C5
03F
7FE
7D2
7D9
088
056
09F
7E6
011
021
7FC
7BF
7E8
73D
06D
6BD
039
72E
7E9
007
024
7F5
01F
067
04F
060
0AC
7F6
074
77C
01F
75C
7C8
03D
7D7
7E1
7F8
043
0B6
7D8
7E4
777
7A8
73A
765
030
79E
025
7BC
734
73E
075
021
7FD
7FF
08E
737
7B6
052
03D
01A
050
7FF
075
7FB
78B
7EE
069
08E
080
05B
055
00A
0B5
720
7C6
013
097
08A
091
033
096
05E
7F1
031
72F
7C7
010
7D2
065
7C7
00A
79A
014
78F
037
7D2
079
7D9
066
7E0
7A2
064
008
05C
0FC
086
7B6
7E6
0B7
067
75D
7C7
72A
054
6DA
011
794
7F3
798
009
0F0
042
7EF
036
062
04A
741
7EF
7A1
068
7B4
796
05F
760
024
77B
068
0A5
7A6
099
037
7E8
028
76E
034
016
05A
7C0
6F5
746
062
028
006
7D4
0A9
7D4
01F
025
072
046
06E
040
0B0
7ED
7CB
037
06F
065
012
029
031
7CC
060
788
762
003
059
0DB
0C8
0A2
00E
7BD
7B7
0AD
7ED
024
049
769
043
78B
068
752
00C
74C
7EE
7C8
034
7CA
076
7B6
04A
04E
07F
01B
061
0C5
7DC
7FD
0C2
0B7
7F8
7E3
7DA
0D2
663
7EC
7B7
7DB
7D8
007
0DC
01F
7D6
030
065
050
7A6
020
7E5
03C
071
7F5
08F
766
044
7B7
07C
063
7C1
00A
7DD
7BA
044
7B5
7E8
7FD
79F
7D4
658
774
013
7A9
014
7C1
068
00A
7D6
7B0
05B
7DD
01F
035
08E
04F
7DB
7FB
7FE
7CB
74D
79E
016
012
054
705
75F
016
7DC
0C4
06E
0B2
05C
7BD
7C6
080
019
066
08B
782
7FA
7DF
058
755
0B5
769
023
057
0E1
7E3
0BA
77A
044
09F
7E8
78F
0B4
04B
789
035
040
079
781
01D
03A
074
6B1
7D1
7CC
05F
793
7E4
0CE
7F3
7D2
7EB
7FF
7B0
7EA
07C
01F
00C
074
029
03B
727
079
79C
09A
00F
7B9
074
015
00B
7D8
7C9
023
7E8
7C5
7CA
60B
003
756
7DF
7C3
7EC
059
01F
7B5
7C0
083
78E
024
7C1
046
00A
778
023
009
7F7
741
76B
03C
7BA
7BC
78B
76D
02B
05F
0D7
048
0A5
7A9
76F
7CC
0B9
010
005
05C
77D
7E4
008
074
7E0
07D
798
7F4
011
049
7A4
7FE
786
7AE
0CA
798
7F6
7F4
01A
004
079
09A
093
01F
7F5
7E3
779
5C0
042
011
7F9
788
036
06A
01F
7D3
013
7E5
73C
751
072
027
7C0
09D
7F7
7D6
75B
06E
001
798
03B
7CD
07A
7E7
01A
7D6
77F
7DC
04E
7A3
004
6BC
7E7
79D
7D7
01F
067
062
00B
78E
7E6
7F6
7D9
043
7B0
059
0B2
7D5
07F
01A
029
7ED
79E
079
018
7F9
78F
784
034
07D
0DE
00B
7FA
02C
7C0
7DC
049
03D
039
042
7C6
012
77F
06C
005
071
745
7FF
052
056
7E1
07C
7A0
05F
7F8
7F2
759
7F6
789
73F
08B
065
016
01C
7C6
7F6
6D5
673
00C
034
7CF
7C2
7FB
040
076
734
7D4
7EF
784
750
065
06B
744
01A
75D
00E
7D6
019
7E1
742
071
00D
059
041
02F
7A7
7F8
017
7DA
7DC
031
708
77D
787
017
765
037
038
01A
03D
03F
00F
00B
051
78C
0AA
7E5
018
033
769
013
002
02E
00D
01C
79E
753
082
046
013
05C
03F
79B
06A
78F
7E4
068
7FC
068
015
7FF
7F7
77C
047
01D
7D8
7B0
040
06D
02D
05C
00F
7AB
05E
00A
7C4
004
7B8
781
6A9
0A1
041
0A3
777
74D
041
735
6AE
7DE
062
7CC
7F1
039
01D
040
7E1
03F
7BC
79C
799
7D7
03C
6C7
788
743
01B
6F5
009
008
70C
0A0
02A
022
061
7A7
7B5
7D9
7D2
03A
794
058
79B
7C9
00E
7FB
7D0
7CF
088
7D3
03E
03E
013
7EB
072
7B4
0D3
04A
76C
06E
7A6
027
7B2
094
063
01B
782
753
795
03F
029
092
031
7B2
7EE
7A4
74C
01F
7D9
09D
7CA
7B0
7DF
771
049
7E6
00C
77C
019
006
06C
7E4
7E8
023
02D
095
7DC
7F7
034
769
6F2
08A
033
7FC
7A7
79E
7EB
753
695
059
011
0AA
752
0EB
03D
0A6
053
01B
7B0
798
751
025
0B8
6C5
7D5
7DB
004
659
7F6
00A
688
025
7EB
008
04B
7ED
7E6
06A
74B
04F
71C
7CE
780
7EE
7AE
01C
7F9
782
030
01F
7D4
02B
7BF
7CD
087
00D
119
776
7E3
02C
7FB
07F
783
01F
7DD
052
7F8
7B3
7D4
038
7F8
0A9
03D
025
0A9
7A1
7B1
03E
78C
072
7C8
782
7F9
75D
731
7E2
79E
7EB
015
047
7E0
00D
7E0
7F0
08C
057
0A2
717
7A4
73C
6F3
057
79B
0AC
017
798
0B6
756
711
058
7D7
0AC
6E5
092
7FC
075
7F3
034
7A2
798
739
00C
06D
729
789
089
04C
73A
77A
7CB
654
7AF
09C
7F4
073
0CB
727
01B
6DD
09B
75B
02C
749
037
78F
7D3
0B9
7D9
067
096
05E
076
7B5
001
0C2
7FC
0CB
012
013
03F
75C
05B
7BA
067
7B3
028
788
04C
7DA
0EA
030
074
733
088
09A
060
779
12C
7A7
07E
705
03C
7E1
6A0
708
7F3
7BE
053
7C8
7D6
13E
0F8
7E7
77C
02F
74D
040
6FB
773
654
7AF
0F5
6E9
761
076
004
064
747
71E
097
775
115
708
00A
79E
007
060
0C8
778
7A9
778
6E2
011
707
654
0D0
066
7C2
6EB
7DC
756
7A9
77E
132
09C
072
003
067
722
08B
7A3
03E
02A
7F5
75A
755
051
018
7F1
05B
0E6
010
031
046
116
015
7FF
061
7E0
7F7
7E0
002
7CA
0C5
014
069
6FE
74A
070
0A5
01D
065
743
04A
084
064
7EF
0D0
7C5
0D9
7BF
7D0
0CB
7A7
6FF
01F
7F5
02B
04E
049
17B
07A
759
7C4
001
748
048
7A6
754
79D
006
0AE
784
75D
0F7
779
012
7BF
7AE
094
02A
0F1
721
016
002
037
07A
7F3
7CA
7B1
79D
73F
77F
7FA
76C
072
09A
78F
7F4
02E
771
7D6
7B4
12B
