155
0F5
092
119
00B
772
05C
7AD
0BD
734
178
7EA
09F
011
7DC
135
002
76E
064
7AC
19D
6EE
14F
103
0F6
6D9
0B7
037
060
6A3
181
04D
0D1
7A2
754
179
705
00D
6C1
69A
760
66E
7B8
7AB
7EF
7A1
7F8
13D
148
75E
04F
121
17B
799
06E
04B
6D1
72C
6EF
063
738
7F1
006
761
73F
77D
767
78F
6CB
0EA
0CF
0C3
0D1
7BC
791
79E
0F8
05E
732
09F
7F0
719
651
6FD
773
010
76F
760
1F8
7E2
77E
054
280
7CF
058
7C5
20F
732
075
6FA
6D4
105
11A
7CC
065
032
7D8
719
7E1
127
0B4
778
10F
071
139
043
088
07D
6F1
7F2
194
063
134
7E2
7A5
0C9
1FF
778
6B8
0B8
701
75A
7A9
092
75B
134
6EF
7F8
6AC
6F6
7A7
0D8
7A2
7D0
690
6E6
7EA
76A
6C7
7A9
060
031
09C
772
0B9
6F0
73C
109
6F5
1B9
6B0
009
7F2
7CF
7D0
6BA
050
6E8
748
6B3
159
7A9
013
074
0D2
031
0F8
117
6BF
015
748
059
74E
718
744
0E5
6B4
147
088
7FE
0B8
7DC
6DD
0FA
7D4
707
008
144
079
04C
7D0
736
765
6F9
6E2
035
16A
613
070
6C8
039
6FC
095
12B
050
037
6BB
083
098
7D2
756
107
0E3
1B5
74D
0CD
0C3
796
0C6
0AE
72C
719
0DC
066
73C
7D4
770
774
7A2
769
003
024
0B2
786
7F6
7B0
08B
624
6C2
0BB
0BD
089
6DA
7AF
6E9
06D
12D
105
6E4
6DE
157
64F
746
715
739
05B
74C
6C8
7BE
716
00C
7EC
7D5
17C
081
15D
7AA
734
740
046
0BA
7EE
109
7D4
10D
0E0
0D3
780
0A3
074
749
08C
74A
09F
7B7
071
0DB
012
0EA
0D8
0CB
02A
02F
054
724
223
5E2
7ED
71E
036
704
7E1
7FC
1D5
7E5
156
01B
142
0C8
104
6A3
070
03E
7B2
0B7
7D2
7EC
038
053
7CA
7DA
0DA
7C9
7E2
13E
0BC
7CA
70B
0D4
0A0
75C
026
735
179
687
0B0
75D
6F4
06A
192
7C5
01D
6EF
70C
0EB
0C1
0A1
780
082
0B1
12F
70C
6E0
104
10C
6D3
0A0
10A
6F3
057
13B
01D
139
729
70C
0D0
733
7F6
036
7A4
71C
176
76A
6FC
0D9
7EC
1DC
7CB
77D
079
0AD
130
7C1
7A4
0E1
7C9
00B
1A1
010
7F8
7C6
071
00F
7CF
79E
7FB
0D8
6E4
7C8
748
124
1B0
743
78E
16C
14D
038
6A8
747
691
03B
702
72E
04C
7A4
664
6E5
0F8
061
7E6
6F8
068
754
0B6
141
7F3
7B3
0D1
014
7ED
750
71B
119
770
05B
794
014
733
784
689
77F
6E8
78A
7B8
0B4
715
027
06F
768
7B0
0DD
0B0
0BA
04E
06B
0CD
00B
00F
097
0F5
7C6
08E
13C
765
0A1
70B
120
69B
095
03A
772
6C9
7AD
074
704
7D2
0F5
132
1A6
11A
6D8
0EB
7EB
0ED
79A
7B7
7CB
727
027
7E2
0DB
100
6C1
76B
036
17B
105
02C
75B
039
0C1
077
084
144
6FF
7F9
113
71F
7B3
72D
045
025
67A
6A9
00F
026
0E2
734
716
042
0F1
00D
027
0CC
6EF
05E
639
735
73A
7D4
66D
7D3
0B6
0B2
081
72F
08F
6C1
09C
019
11D
152
65C
764
743
089
0F0
13E
700
7E7
0EC
162
704
7B4
673
7F2
0F2
7AA
035
651
093
768
764
038
6D8
04B
00A
6E3
7DC
07D
073
088
0D1
021
0F9
6F7
734
160
0D8
748
707
1A9
123
7E0
03C
7D5
0BD
11F
7EA
73B
7EC
668
735
087
6D4
20E
07C
71F
72F
0D0
675
74D
7B8
0C0
75F
7F4
029
060
657
138
08A
7FD
7D8
283
109
001
00D
7EA
72D
6C9
055
749
031
019
036
04E
0A3
151
0CC
110
756
147
006
7E2
10B
044
100
0AD
6E9
723
0B0
143
10D
083
01D
03C
02B
1DE
76F
157
14D
7F2
0E9
6F9
0F7
78F
737
0DA
15F
0F4
7FC
7BF
757
66B
084
05F
718
0D4
78C
00D
10E
7EE
12C
713
6E8
7F9
148
75D
0F7
7B1
7D4
04A
02E
0B4
0DB
710
0CC
0E5
7AB
132
105
7F1
710
694
04A
0AA
6D3
0E3
09C
0FB
78C
024
721
757
0B5
749
01B
6CF
09A
7B8
0F8
6A3
149
0C0
067
0CB
7E1
7BE
001
75B
0B9
07A
0A6
756
7AE
749
084
631
1C4
6C2
78B
6BE
084
740
7E4
078
0F3
011
0EE
1A4
0C2
7AE
160
05B
07D
05C
78D
29E
003
154
0E4
6E1
154
7D3
010
00D
00C
788
0C7
11A
620
05C
72C
6AE
7B7
7F3
110
0E2
0AD
156
738
111
722
0BF
775
779
732
0AF
782
0C0
085
078
7CB
0F9
7F7
038
0E8
73A
0F2
153
0D0
79D
071
696
646
6C4
6CB
7CD
732
13E
057
734
0F6
12B
7EB
7D4
040
098
07B
745
7B9
766
0D6
073
0B3
145
0EB
195
0A5
681
018
015
118
73F
716
16F
6BF
779
7F2
6B0
774
652
1E1
143
7C9
747
1C7
06E
62E
7AE
0C0
083
0C8
013
06F
773
763
1A5
7F9
022
170
708
0AD
634
6CE
158
666
002
798
7A9
79C
0EA
0F5
70B
7B4
643
0BD
027
6D9
097
02F
0D1
039
786
022
7B0
7E5
75F
7B8
775
751
173
7F1
782
079
0D4
06A
072
01A
77F
045
7DD
6CB
079
748
747
73C
063
00E
724
142
121
7E8
7F6
0A0
72B
761
06E
6CD
75D
73B
045
028
7AF
06B
130
019
14F
0E6
12E
055
6D0
75F
6D5
0CB
75C
66B
713
07B
038
0FB
70D
764
0C0
0E2
032
1DD
6E9
091
0D8
725
069
7B5
6D2
064
204
733
1F5
75B
015
7E4
01A
06B
0A1
78B
76F
7AC
1E1
7BC
07B
619
7BE
72C
0AB
03B
087
79D
7E2
65B
7A5
709
1BC
0DC
0F6
0CC
6E0
70B
08B
7E3
73A
76A
703
087
057
08B
051
168
151
049
756
025
75B
0E2
735
702
77B
0D4
0C3
6BB
038
6E8
111
0D3
0A0
123
056
113
124
0B8
723
729
187
7B1
06D
7C7
759
75E
05C
798
720
06D
79E
18D
073
0F8
788
046
130
6CA
069
7EE
7EA
789
00B
10D
724
78C
7EC
049
09D
1CB
12F
0D6
027
7CC
09D
0A5
6F9
7F9
049
046
712
636
7B0
716
6F7
7A9
019
034
067
6F3
0B4
794
004
1D3
7C7
715
6D1
700
729
12B
0FB
712
0B4
0B6
7AD
7BC
0A0
12F
0C4
79F
7BA
153
78A
76E
7DB
055
7D8
7A6
6BC
7BD
6FC
017
0A8
64D
6FA
152
791
746
065
125
06A
03E
036
6D9
7A6
601
057
707
09E
7C7
1B8
7B1
066
10C
64E
174
0FA
7B3
7F5
748
013
027
773
686
115
68E
084
013
0C6
0FC
0FC
0C7
039
6CA
79A
0BE
0EF
7CC
713
79C
021
7B0
041
6F9
0EA
79B
11F
7CF
035
752
124
7C3
07B
128
030
0CD
0F0
040
7F9
05D
0DF
096
079
140
0B2
145
6EE
047
18E
74F
6DB
112
063
73B
159
183
0BA
07B
0FA
796
005
717
0B3
701
108
75B
71C
799
0B9
0F0
758
087
739
764
142
026
0E8
7BF
10D
019
1C4
7AA
794
0B6
05F
7C2
710
703
176
7E8
722
06F
780
19A
746
0CB
6F5
03C
704
0BD
09A
138
752
02A
097
0F1
0BB
10D
705
686
0E3
78C
05A
098
09C
755
7C9
0A8
7F1

