623
660
037
00B
0C5
61A
04C
1DF
675
028
145
6E1
08C
67F
637
095
115
09F
61F
6FD
1F6
154
7A3
63B
14B
6E7
14C
79F
723
7FF
74C
014
7BB
68D
0DA
0EE
159
6BF
72E
04A
265
654
0E3
712
0CF
72A
7C1
0AD
0FE
107
65A
712
11C
184
0B8
119
5DA
65B
649
03D
6A5
0DB
720
6B3
00B
0CE
77C
6F2
1E2
6D2
649
12B
0A1
7C6
72F
6B1
5D5
056
6C3
6CA
757
77C
0D8
6F8
684
7E0
709
7E4
12A
02D
6C8
17B
1A2
6F2
6F8
5C9
673
6A9
195
0DC
663
79A
035
799
714
0B8
1E0
0FD
6A7
628
790
78B
14E
23D
777
6A4
68C
1EB
0A8
63D
7B4
058
672
0A6
751
69A
052
6D1
741
5EC
795
732
67A
162
787
111
646
790
0AD
194
129
719
6B9
1A8
565
6B6
128
01D
131
166
7B3
613
624
72F
0B4
7D1
127
6D6
5C4
7A8
12B
6F2
7F1
180
654
0A1
665
5FE
0A8
5DE
663
191
6AA
0A4
12E
0A1
097
728
72D
11E
066
08D
726
07B
70E
79E
61E
1DF
7B0
0DF
008
6C2
10E
019
23A
637
648
6CA
704
799
1A1
7F2
105
7AF
62C
761
18B
738
0B1
043
17B
19D
641
086
1A5
1D6
006
10C
0D0
156
7A6
71B
7E7
024
107
06B
19F
73F
17A
645
66A
66B
01C
73F
040
0CB
7DC
034
0F7
0C4
11F
6CF
0B0
777
0B9
692
68B
1EE
773
165

