3EAA9910
3E7575EC
3E12F41B
3E8C8B5F
3C30A59C
BE0DBBE6
3DB937BC
BDA4C9FD
3E3DB243
BE4BCD40
3EBC522A
BCAC0857
3E1FB16D
3C8AF8E4
BD0EF930
3E9AF2C5
3B3D7F57
BE11AC85
3DC97253
BDA7F299
3ECEE1D4
BE888A13
3EA7F11C
3E81CA2A
3E761447
BE936480
3E37C617
3D5D3DDD
3DC1493F
BEAE63A5
3EC08C2D
3D9BFCE7
3E51CD00
BDBB0D2D
BE2B2819
3EBC970B
BE7A1D91
3C5C5162
BE9F6A37
BEB2FF11
BE1FC4E5
BEC89E87
BD8FED92
BDA8D139
BC8463E3
BDBD169C
BBF6AA90
3E9EEBC9
3EA46D9B
BE21FF89
3D9F788E
3E90C5F0
3EBDE7FC
BDCDF2B3
3DDDCCC9
3D966E4E
BE97402B
BE53F263
BE8823A9
3DC7DA4E
BE47FE66
BC6F8A1E
3BCFA05A
BE1E9B6B
BE40EF3E
BE0265A8
BE18E75B
BDE17008
BE9A4AC0
3E6AEFBF
3E4FE56C
3E4382D6
3E519B3E
BD873CED
BDDC8B80
BDC31EE3
3E78C322
3DBD7980
BE4DBF43
3E1F7254
BC7AB125
BE66808C
BED70768
BE811837
BE0C7612
3C83D2FE
BE101E42
BE1F5893
3EFC7FA4
BCEB8FE5
BE01F145
3DA9B308
3F202075
BD408638
3DB0E59F
BD6A2EF5
3F03DA15
BE4DA5D7
3DEB42A9
BE82DB4B
BE95DAB0
3E82FCE4
3E8D1430
BD4C5850
3DCA2343
3D494EF4
BD1CFEED
BE66B091
BCF2D067
3E93E301
3E344E20
BE075D1B
3E87B4BE
3DE21E3D
3E9C9A39
3D8787ED
3E0824E0
3DFB0CAF
BE87765A
BC5C6E45
3ECA13AC
3DC77FC5
3E9A219B
BCEF36D6
BDB523C1
3E4997B1
3EFFF38A
BE0741AC
BEA38F76
3E38181E
BE7EDE96
BE254231
BDADC40F
3E128D66
BE24A775
3E9A44FD
BE882EA4
BBED019A
BEA9CB90
BE84FFC3
BDB1B5A5
3E58F3C7
BDBB356A
BD3FCAB6
BEB7B8E1
BE8C8F63
BCACCA87
BE15C0D8
BE9C05F6
BDACC519
3DC00F64
3D46F53B
3E1CEC9E
BE0DF0F9
3E39B6A1
BE87E2E2
BE436FE1
3E84B8DC
BE85171A
3EDCA8DA
BEA7E081
3C1DBEFE
BC5D5432
BD41031A
BD3CF943
BEA2DC33
3DA02932
BE8BEAE5
BE3762EB
BEA64679
3EACDAE3
BDACC341
3C980EE8
3DE99AFE
3E52F0A9
3D461BF4
3E7848D7
3E8BBF4A
BEA008B8
3CAE589F
BE374D3C
3DB202FB
BE317BF8
BE671EB4
BE3B7A7E
3E65291D
BEA5C1F2
3EA3BABB
3E08FEF4
BA850656
3E38BED3
BD0C6C16
BE9154E6
3E7A96CB
BD2C1205
BE784818
3C01F8EB
3EA20582
3DF32C26
3D98D9BF
BD3D5CBA
BE493FB3
BE1A8A6A
BE835631
BE8EDFA0
3D5600C4
3EB55FC6
BEF620CF
3DE188BF
BE9B8172
3D648CB1
BE81A292
3E15DACB
3E95E368
3DA0D24A
3D5DFE83
BEA2267B
3E03AC0E
3E18247A
BD36F51D
BE292DFB
3E839302
3E634F38
3EDAA1C7
BE32A1FC
3E4DF994
3E438023
BDD3C31F
3E468EA6
3E2EA2CF
BE53D58B
BE664AF6
3E5C3329
3DCD9A44
BE43F741
BD2F5254
BE0FB648
BE0B3D11
BDBB1A12
BE16F35C
3B697FFF
3D133A96
3E32AB98
BDF378A9
BC1EEEDC
BD9E9F76
3E0BE522
BEEDD14C
BE9ED36B
3E3B1141
3E3DA8AC
3E09546C
BE92B810
BDA001BC
BE8B2D4D
3DDBE2AF
3E96C4E7
3E82AAE8
BE8DB63D
BE908B6C
3EABB9A8
BED8418E
BE398140
BE6A28D0
BE46FD22
3DB71D1E
BE331CC3
BE9BD13D
BD828741
BE69DED7
3C409799
BC9C4962
BD28734D
3EBE6D74
3E014D2B
3EAEC49B
BDAAEAF6
BE4B1E98
BE3F1C18
3D8C8000
3E3AE90C
BC8837D9
3E84E8F5
BD2F5D6F
3E86BB25
3E600A19
3E53740E
BDFFC7CE
3E23B17F
3DE9636C
BE36576D
3E0CA2B3
BE3505DE
3E1FB3AA
BD909110
3DE2F851
3E5B8DAF
3C94BADE
3E6A72DC
3E586B1D
3E4BFFE8
3D298022
3D3F7A68
3DA88C98
BE5B385E
3F08E48B
BF077076
BC914518
BE614CC9
3D5B23E7
BE7BE0F7
BCF32E5E
BB6EDD08
3EEAD67D
BCD6F6FF
3EAB1325
3CDFB99F
3EA14709
3E4862D6
3E820947
BEAE7567
3DE17390
3D79AB2A
BD9B76E4
3E37530F
BD364BE0
BC9A0688
3D60F8EC
3DA77680
BD54C488
BD17971E
3E5A9CB7
BD58A3B2
BCE89D0D
3E9F7EF3
3E3C5CC4
BD5658FA
BE74C5FA
3E5448D1
3E202FA4
BE238286
3D1A9CE4
BE4A137B
3EBCCEEF
BEBC1B77
3E30A598
BE22D84F
BE85F265
3DD4230F
3EC93810
BD6A28D2
3CEDD45E
BE88252D
BE735B9E
3E6BCBFA
3E41A076
3E217C67
BDFEE23B
3E028EC6
3E313BF2
3E97C34B
BE73EF8F
BE8F9771
3E823352
3E86465B
BE96104F
3E2088AF
3E8531C4
BE865CB7
3DAE8E9F
3E9DE09E
3CEA62C6
3E9CFD81
BE56ECA7
BE739870
3E506B90
BE4C0CC3
BC18D315
3D5A506C
BDB768CF
BE637411
3EBB516E
BE15FEBD
BE81DDA1
3E5903A0
BC983FF2
3EEE6377
BD527EDF
BE02768D
3DF3D0AF
3E2D8ADD
3E987F3F
BD79FAA6
BDB757C7
3E61095B
BD598056
3C3060E5
3ED0E153
3C8204CA
BBE584E6
BD64FE28
3DE22C31
3C78DCC8
BD43BF43
BDC28351
BB9F7BCE
3E58F247
BE8DBD49
BD5D971E
BE370CBA
3E923D7B
3ED86493
BE3CEA8B
BDE3AEAA
3EB67E34
3EA6AFF5
3D60D8C0
BEABF8D5
BE38A729
BEB76845
3D6D1401
BE7D01FF
BE512B64
3D98F89F
BDB70023
BECDA978
BE8D28AB
3E78A9DC
3DC363A1
BCC8A1BC
BE83E317
3DD0763B
BE2B60D8
3E367E91
3EA0DFA0
BC413F89
BD99EF87
3E519751
3CA20B62
BC97A1F4
BE2F12C6
BE64A063
3E8CA4FE
BE0F8F6F
3DB7F4CA
BDD65FC6
3CA16A46
BE4C9390
BDF7401E
BEBB072C
BE00F538
BE8B91FB
BDEB0919
BD8EB899
3E3459E0
BE6AD816
3D1FC25D
3DDE77EE
BE172C36
BD9F4B95
3E5D2F23
3E300F38
3E3AC668
3D9C38DB
3DD7B736
3E4DDB90
3C38C903
3C71DF1B
3E174D50
3E75A6EF
BD64610D
3E0E10D0
3E9E625F
BE1A3392
3E21D963
BE743822
3E903249
BEB24CBF
3E15328C
3D69126B
BE0D7F02
BE9B0782
BDA4B151
3DE85DB0
BE7BAFA8
BD357584
3E751876
3E99566D
3ED37BC0
3E8D1D70
BE93ED77
3E6B3428
BCA4512F
3E6DE4EA
BDCB1CE7
BD912CBB
BD536BD3
BE587C5E
3D1D00B7
BCE896E0
3E5BE09F
3E8067E4
BE9F483F
BE14133B
3D58D741
3EBDEF64
3E82DF92
3D314D8D
BE247C70
3D65CE98
3E41D244
3DEEC84D
3E04DBEB
3EA27697
BE807FB2
BBD8D109
3E898C90
BE60386B
BD991913
BE52B767
3D8A76A9
3D164A0F
BEC29562
BEAB103B
3C772B62
3D19BB1F
3E62D447
BE4BDD08
BE694DB2
3D842F97
3E71C812
3C5FBE14
3D1FA84C
3E4C6E5F
BE8878C7
3DBC4822
BEE31AC1
BE4AFD49
BE452634
BD2D6E35
BEC96ABB
BD32ACBA
3E3627CE
3E3222A4
3E01D66A
BE50362B
3E0FB86E
BE9F29E3
3E1C0F46
3CCD317D
3E8EABDE
3EA9110F
BED1E24C
BE1B2B42
BE3C9E30
3E09918B
3E70045F
3E9F6AB9
BE7FDEB5
BCC64F1F
3E6C798E
3EB13025
BE7B3FB3
BD96C721
BEC67CC2
BC5DCB4F
3E72833F
BDAB077A
3D55E1E8
BED70FD4
3E13B5E6
BE17CF4C
BE1B53CA
3D6258A6
BE93C5B8
3D971374
3C2F32A0
BE8E5CE1
BD0C90E1
3DFA1DC8
3DE731DF
3E08F7EC
3E511AAC
3D06844D
3E793D7B
BE842993
BE4BC7C2
3EB07921
3E582E63
BE3735B6
BE789BC1
3ED4F43D
3E91AC2A
BCFDE14C
3D713989
BD2962AF
3E3D8CE8
3E8FDCBD
BCA8B614
BE440528
BC9C1E97
BECB9B09
BE4AD75D
3E0774C8
BE95ED05
3F03A053
3DF8E68A
BE6069F4
BE509683
3E50B5BB
BEC57953
BE32E0F2
BD8E920C
3E40E1C4
BE203505
BC3E839A
3D27A11B
3DC0C775
BED405E6
3E9C6092
3E0ACF3B
BB3FD318
BD1CAAFB
3F20CF92
3E84AD95
3AF9D006
3C560919
BCAA8B5D
BE52946E
BE9B790B
3DAAC838
BE36D738
3D450C4C
3CCA7A3B
3D5AFDE9
3D9DEC6C
3E236765
3EA8B355
3E4CBE4E
3E886F66
BE29DE38
3EA3DC1D
3BCDEE83
BCE9AC0E
3E85C0AD
3D889E33
3E806CDC
3E2D0B58
BE8B1CCB
BE5C7078
3E308AFA
3EA1DD07
3E86E421
3E0359E3
3CEA5DFB
3D73616F
3D2D7E09
3EEF1A32
BE1023B7
3EAB86C3
3EA695CC
BC5CF542
3E691CC3
BE834269
3E779799
BDE1DB4E
BE488C26
3E5A6851
3EAFB12A
3E74A0C5
BB755DA6
BD812896
BE28DC91
BECA26BC
3E0417B8
3DBEBD61
BE670F2B
3E54CF01
BDE7A36B
3C549031
3E873818
BC8A8B1F
3E960A26
BE6CAE56
BE8BEDD9
BBCF2171
3EA43215
BE22287B
3E7755C5
BD9C50B8
BD2CF4E3
3D954688
3D3ACC3A
3E34C6A6
3E5B6891
BE6F56E4
3E4C5186
3E659B6F
BDA99E19
3E990AD2
3E829457
BC6F1078
BE6F1190
BEB5CCDE
3D949094
3E2A9C8A
BE96486E
3E63BD3D
3E1CA680
3E7B9D8D
BDE6E153
3D1142C8
BE5EE8A8
BE28F64C
3E352229
BE36B5E4
3CD82185
BE98087E
3E1A97AB
BD8EE477
3E783FD7
BEAE6882
3EA4D2A3
3E40EF30
3DCE00D0
3E4B9B8E
BCF5750C
BD833BEC
3A8ED483
BE24B54B
3E397063
3DF5596F
3E26DE2D
BE296BA6
BDA2B85F
BE362B95
3E04666D
BEE7139A
3EE22C52
BE9EBABD
BDE868CC
BEA0FAF9
3E045962
BE3FE24A
BCDA3E0F
3DF016CF
3E730F14
3C8E4348
3E6E4DA6
3ED25F18
3E423E65
BDA2A46C
3EB05CFD
3DB64BC5
3DFA6CE7
3DB9C222
BDE52465
3F27985F
3B423C93
3EAA260E
3E641DDA
BE8F2B4E
3EAA43D1
BD32D124
3C817A5D
3C5D4244
3C4E7146
BDEF08FD
3E4737AF
3E8D4CBF
BEEF9E0F
3DB9E4E2
BE53BA4C
BEA89F91
BD907D5E
BC4ACBF0
3E8854E8
3E624258
3E2D3EF6
3EAB39AC
BE47FAFD
3E88F705
BE5DD98C
3E3F0B65
BE0A4538
BE06B562
BE4D49A2
3E2F1403
BDFA2BEA
3E4028A8
3E05F038
3DF0944F
BD5117D3
3E790E6C
BC00D87F
3D638121
3E6886BA
BE45A326
3E72BEFD
3EA99CAF
3E50D798
BDC438B9
3DE3F55E
BEB4A972
BEDCAAB5
BE9DC658
BE9A5227
BD4A1764
BE4DC3FF
3E9F2005
3DAEA16B
BE4B1056
3E7612E1
3E95DA4B
BCA46106
BD2F5F68
3D80DD71
3E18F34A
3DF6FE14
BE3AD735
BD8D9251
BE1914A1
3E569F20
3DE7F8F0
3E33280B
3EA2F317
3E6B9AFF
3ECAD909
3E258F3F
BEBF0B95
3CC08BFC
3CA9E4EC
3E8C6F9A
BE406394
BE6915F5
3EB79F52
BEA02496
BE0699E8
BC50A52B
BEA7B1F6
BE0B9AA8
BED6EA36
3EF086D3
3EA1ECAD
BD5BD8FE
BE384FAA
3EE3BEDF
3DDCDE4A
BEE8DCF4
BDA3F015
3E40A29A
3E033678
3E486845
3C9D05C8
3DDFDB0B
BE0C5887
BE1C28F1
3ED2D963
BBD93625
3D0854AA
3EB8219F
BE77AC85
3E2DB1CD
BEE5BF11
BE98F400
3EAC38A0
BECC8624
3B1066F3
BDCF904F
BDACEB10
BDC62372
3E6A9AEA
3E75F96E
BE74EAAF
BD969C10
BEDE072A
3E3DEA05
3D1C57BD
BE93327F
3E178EAB
3D3D8FA0
3E518E7F
3D65D919
BDF22793
3D080F45
BD9F70A3
BCD62B31
BE20C30D
BD8FF56E
BE0A5860
BE2E94CC
3EB99D35
BC6E9272
BDFAE944
3DF3A2F8
3E543ACC
3DD41AAA
3DE57DFF
3CD6019E
BE0014EB
3D8A1B06
BD099270
BE9A3212
3DF23594
BE3796BA
BE38F898
BE43C406
3DC63E35
3C649C99
BE5B7618
3EA1180E
3E9085E4
BCBA087B
BC1E3585
3E203C5D
BE5412F7
BE1EDA8D
3DDD512D
BE9949BA
BE22C0E6
BE44B93F
3D8A790E
3D224957
BDA0943E
3DD6324E
3E982D3E
3CCA9F82
3EA7B797
3E66DC09
3E9721A8
3DABE443
BE97C899
BE205E04
BE9577A9
3E4B6E26
BE23521B
BECA2D34
BE6C5489
3DF74CA8
3D617BE0
3E7BF098
BE721634
BE1BF159
3E40E2CD
3E620979
3D49EABD
3EEEAFB5
BE8B2286
3E1110AE
3E58DA79
BE5A5C91
3DD38F51
BD942CCB
BE96842A
3DC933B3
3F010F00
BE4CBE1C
3EFA8DAC
BE2415D2
3CADE377
BCDE06A2
3CD7F719
3DD6E289
3E21EB37
BDE8C0BA
BE100A8A
BDA6EDA6
3EF090C3
BD86C36C
3DF73858
BEF32833
BD835387
BE53CEA0
3E2B3D3D
3D6EF6C1
3E074A0F
BDC487B1
BCEAD1E5
BED25782
BDB56C95
BE768979
3EDE4526
3E5C8085
3E761507
3E4CBC13
BE8F8F43
BE74C104
3E0B5203
BCE03622
BE45CB68
BE152802
BE7C3980
3E071238
3DAE6F80
3E0B88D5
3DA345CE
3EB46F00
3EA893C6
3D9349F2
BE2939FD
3D170D45
BE24BC7B
3E620A75
BE4A5DA7
BE7D0D7E
BE0474D4
3E54994F
3E43B4A3
BEA20F69
3D62CB10
BE8BEE3D
3E88EEF3
3E53A4B2
3E20A8BB
3E91C422
3DAC5B9A
3E89F364
3E924D7E
3E3882D0
BE5CB9FA
BE56DA6F
3EC3CD94
BD9DF687
3DDB4419
BD62A7D0
BE26CBF7
BE216861
3DB95049
BDCFFB9F
BE5FC922
3DDBC514
BDC2F6B2
3EC6B98F
3DE658D5
3E78C0F1
BDEFB593
3D8D0218
3E986070
BE9AA5CC
3DD25A40
BC88E304
BCA9838D
BDED5E45
3C31F7BE
3E8683A9
BE5BE699
BDE7377F
BC9C9CDB
3D933C2B
3E1D7BF1
3EE5C1B0
3E97B63A
3E56AE7D
3D1F8571
BD4C9697
3E1D6645
3E25FA6D
BE837FF6
BBDEB87D
3D93E7CB
3D8C92A4
BE6DE5F2
BEE4EDED
BD9E31B6
BE69C2EB
BE8419D9
BDAD6DE5
3CCF6F68
3D50CADD
3DCF1653
BE86528A
3E3453C3
BDD7C651
3B9B6BFA
3EE9B535
BD61EEF9
BE6A00D3
BE973497
BE7FBC3C
BE568548
3E95BDF9
3E7BA2C8
BE6DF77D
3E340A66
3E360022
BDA4B6D9
BD86FA40
3E20B91F
3E97AFF6
3E447848
BDC0E7BA
BD8A5295
3EA9BE42
BDEB71B5
BE116281
BD122EE9
3DAA83FB
BD1F8CD4
BDB23A1B
BEA1A897
BD85BEAD
BE81CB18
3CBEBAD8
3E28AB92
BED93BF3
BE828CC1
3EA9752D
BDDD6A6D
BE396B80
3DCA9BE9
3E92E9AD
3DD46176
3D783BB9
3D5B8061
BE932FD7
BDB20864
BEFF0024
3DAEA3A4
BE781A1A
3E1ECA34
BD6112C2
3EDC6C2F
BD9C5913
3DCD7BF1
3E861162
BED8C2EF
3EBA29C1
3E7A8CDE
BD996646
BC24BF4A
BE373330
3C9F8A76
3D1E6353
BE0C99B5
BEBCE420
3E8AB882
BEB89732
3E04D8E1
3C9CAD51
3E4675FF
3E7C5CC2
3E7C57FE
3E471606
3D6681A0
BE9ABDDF
BDCA736B
3E3E4B8A
3E6F7669
BD4EDB9D
BE6C2D13
BDC638E8
3D07EF7A
BD9E887B
3D8248FD
BE8322CD
3E6A9AAD
BDC99F71
3E8F805F
BD4311A9
3D57838E
BE2DE54A
3E920DDB
BD7371E0
3DF6D22B
3E946232
3D4366A4
3E4DFD41
3E704206
3D805589
BBD28AF6
3DBA9F53
3E5F5975
3E160763
3DF3E9E6
3EA04654
3E32EE20
3EA2B751
BE888CC2
3D8FBB44
3EC737EB
BE30201C
BE925995
3E8902C7
3DC79ACF
BE440939
3EAC8A1F
3EC1EA0E
3E3A4D19
3DF62267
3E7AF6CC
BDD333F3
3BAEE354
BE682AB9
3E33B840
BE7E1951
3E8440C2
BE24A12B
BE63CEC8
BDCDC89D
3E399856
3E702115
BE27792E
3E07BCE2
BE462892
BE1B0DC7
3EA161FC
3D1AB9FE
3E68A10C
BD80FF40
3E868ECB
3CCF7828
3EE25468
BDAAC6AE
BDD7AA98
3E368A33
3DBF9841
BD744EFB
BE6F04BB
BE7C1DF8
3EBB5B6E
BCBB436D
BE5D8B30
3DDF0F1B
BDFE2AFD
3ECD1BBE
BE397B64
3E4BC3E5
BE8539FC
3D72513E
BE7B4FE2
3E3DA75B
3E1A7A9B
3E9C4793
BE2D1AFC
3D2ABD12
3E177777
3E714A85
3E3B383C
3E86C885
BE7A84AF
BEBCFE04
3E63A400
BDE75575
3DB58108
3E180FAE
3E1C7023
BE2A105D
BD5A358E
3E28FC59
BC6DB19E

