3CDE142C
3D8752C5
3BFBEAC8
3D4A9665
3DCD056C
3BAFC75D
3D7CE6E3
BCCECFF7
3E2BA294
BE09CCE6
3D23404C
3E03D754
3DCE0595
3D92E0D8
3E11886B
3E2C1328
3B9E0319
BD2FF67D
BB44BCF2
BD6133D6
3D887A30
BC7659C9
3D8C1FCF
3B6A3EC2
3E2729AC
3C890E01
BD2E898B
3CD77792
3D15407A
BD83E641
3D25F960
BCB7E835
3DBDC6F4
3C581407
BCD54019
3DAC9F96
BD4A98B9
3CC31E89
BCB45224
3DAA73E7
3D9A22E2
3D7E9619
3D4F0EFE
3D9B20D8
3D131C51
BD3B4C92
3DBE14B2
BD30A80B
3DD65813
3DF468DC

