3DE000DB
BC4A13A7
3DA55F20
3DAFDB05
BD7598F9
3D544F0D
BD5C5D62
BDDD407A
BC88A59A
3DF9C502
3D31A5E9
3D0FFE55
BA994F66
3CE2C914
BCB02BF2
3D555306
3CB0C044
BD57E522
3D4D645B
3CD295B8
3D5B669D
3D15A031
BCA11641
3D1C4E57
3DBCFB9B
3CF974A8
3D24EC99
3DC6208C
BDF23DBE
3D7C35B4
3D1F5D91
BB842711
BDC616A0
3D8310EB
3DCD7AB5
3DD7EDD3
3D97CD35
3D0BB44B
3DB58A90
BD0CC807
3DC67432
3D0B5E97
3C0BA664
3CB2337B
3D664A26
3D1103B3
BD72553C
3DB1CD99
3D23DDCB
3C59A38F
BD3F2885
BBDC4276
3CD770EC
3CB5D8FD
BCB65932
3C9ADD1F
3D8D020C
3DBC549E
BCC708F9
3B550D85
3CCCA393
3C383016
3B1C825B
3C3534A0
BE0FEA37
3CF2296E
BD73131F
3CD9DF82
BD5BD955
3D78F8D4
3D599457
3D3B5BF0
3C6CC04E
3B407ADE
3CECE152
3DD18C9C
BC651317
BD1D2E9B
396CFAB2
BC47C350
BD1785B6
3D16C364
3D3D2B06
3E1A63DA
3D0BED53
BC9B4832
BD97D557
3D8AE3BF
BDE37562
3CCDF56E
BC8607A6
3E145C6C
3D6277B7
3D77A482
BD5BF491
3DD15669
BD4CA6E3
3C819662
3CE07AFD
3DDF82FF

