BD707BF8
3C8A84EC
BD978424
BD7E9BA2
BD65DB2D
BCB696B8
BB331420
BC9AB408
BD75C9FC
3D816426
3CA50320
3D103CE8
BD81BCC3
3BC8BF20
3D86088A
3D7AC084
3CBF87AC
BD804256
3D5C6CF0
3C70B158
3C506D10
BD404303
3D62EA40
BD7727F0
3D88AD66
3BA0E2B0
BD3A965B
BBE68A30
3D813956
BCADAA22
3C0117F0
BC8C29D4
BC9684E8
3D95158E
BD4A83E9
BD610E02
BD968F90
3B2EA080
BCB5C6E6
3CEB82B8
BA4F5000
BD78DE1B
BDA84469
BB0B3580
3D259AC6
BC31ACA8
3D5D5E8C
BD70F037
BD4368D8
BD6BA36A
3CFCA988
3D6F072C
3D901584
3D8C999E
BD29F450
3D575238
BD97E9B9
BD744760
3D8E2EAE
BC8B5DE4
3D7BF308
BC7C4F30
BB46A960
3D5BA9B4
3D534FA4
3CE343D8
BD60C466
BDA4BD87
3D230F70
BCF67958
BC3CC5F8
BBA97BE0
BC4311D0
BCE9CEDE
BD0B024B
BD4A2360
3CA40B64
BD8206A4
BD931788
BC5DC920
3D4695C4
BD4653CF
BD6ECF4C
3D54C3DC
3D8D9514
3D85C576
BD6B47BD
3D058CA0
BD492E22
BC4BF268
3D698FE8
3C6C6208
3D8D0E04
3D0F9094
BC69AB88
3C70CCB0
3CA1C464
BD826AF4
3CD2DD14
BD02C229
3BA3FD60
3B768D00
3D4B5EA0
3CE50D40
3D97639A
3C0F2268
3CD0F6E4
BD07C7F8
3CA45758
3CF92CC4
3D3617A4
BD377DBA
BC8EFE94
3D53E0E0
3CDAEAA8
BCBC7164
3C7F2AA0
3D85746A
BCF67B28
BC8170AC
BB84BC70
BD528115
3C9AD530
3DA61B92
3D541CD4
3D645BC0
BB8F56C0
3CA25844
BD76760C
BD836F4E
BD12957A
BD01CA58
BD9B7C04
3CC78B98
3D8F5480
3D7D1814
BD226E25
BD93EA88
BC7C3A30
BD0EC1C5
BD9E607E
3D8239D2
3D8F42C2
3CA912FC
3B5939C0
3D2D8BEC
3DA6A6E0
BD0F2CF9
3D3A8F20
3D2BB39A
3D8FBDF4
BD9145A2
BC894C78
3D149044
3DA4125C
3BB65E40
BC8267F4
BCCD0878
BD5D0F32
BD472E66
BD46964B
3D8CEFE2
BDA8AA69
3D6FEFCC
3D5585C0
3DA8A7E6
3CB60490
BD8ED4D0
BD81E023
3B92CF00
BC8734D0
BC897C58
3CEEBE68
BD025AE9
BD6A4CF0
BD973A0A
BD2073E3
BD66C293
3D806D2C
BC285E10
3D77890C
3C3BCA58
BDA73AA0
3DA4EE4C
BD975756
BD6E4CCC
3D1A5468
3D834F8C
BD0A023D
3DA043D8
3D84C7B2
3C312ED8
BD396460
394ECA00
BCF19F04
BD5CC634
BC892578
BB02BAE0
3D8A6CA6
BD7C0900
3CCFC6EC
BD762B6E
3D979D4A
3D94B46A
BD156653
3D73A844
3D7CF37C
3D45B270
3C038B20
BD92E0AC
BD342B63
BDA3A17F
BD053DED
3CF7921C
BD22411F
BC0E54B0
BD82677F
3C8C1114
3D9E3ABE
3D8AC388
BD8BDFF0
BD51E0A8
BD927C66
3D229AF2
BD7DDDF0
BD0D785A
BC8ABB94
3C996F44
BD7ADF38
3C68B698
BD233390
3D11B7A2
3D865730
3CA97494
BC345380
3BA2C300
3DA57DBE
3D36765C
3C9771EC
3D4466A0
3D27CF80
3CFFEEDC
BD9B6F66
3B822BE0
BCB4E520
3D734B6C
BD2D9BDC
BD07E274
BD50268F
BD898E13
BD09BB43
BD81095E
BDA4EFE0
3D7B3FC0
BD9AE465
3C3ABF30
3C69C480
BD82D534
BBEAADD0
BC7BCBA0
3D3CA3D4
3D621118
3BB4CAE0
3CE7C098
BD269BAC
3DA0520A
BDA0A07B
3D370BB4
BC219258
3DA4EC2C
BC1C23B0
BB64F720
3C9E6FC0
BD716D8B
3D4BADD0
BD8C0C0E
BD37E369
3D3F5634
BCA62FFE
3D4A6850
3C91F830
3CED7D7C
3D085056
3D066F0A
3D613EB4
3D6C2500
3D558674
3D1A3792
BCD1B2B0
BDA2C5B9
3D0BE208
BB0AE280
BD795FE2
BC487780
3D1D1FD2
3D258BD8
BC303390
3C87F7BC
BD87527A
BC89D2B0
3CEE2350
BBBC9470
3D9871A6
3DA81B5E
BDA34EA8
3B1F7E20
BDA36BBD
BCEBB22E
BCD55B88
BD9026CC
3D5345C0
BD40FEDA
BD69B94E
3C72E6E8
3D42AB6C
BD15112E
BD9810CC
BD066A7D
3C734458
BC8F8780
BC75DCF0
3D975A6C
3D83ACCA
3D9DBF88
BC2F8F38
BDA70285
BD2681C3
BDA6FFD5
3C8B24CC
BC730748
BD955069
BCD19060
3D44F35C
3D8DA0FE
BDA4ED58
3D243C88
3D0BE9D6
BD9E41BE
3D480630
3D22E1F0
3C3E53F8
3D5DCAC0
3D1E8C36
BD990A1D
3D7F0DAC
BD8DC893
3D50AFE0
3D7BE744
3D9548C0
3D2349EE
3DA33692
BD51D662
BCB9B74C
BD2CE2C8
BCC7EAEA
3D02FE3E
3CB282E4
BD76E45D
3D8E2394
BB66A440
3BF5C890
3D023348
3BF74310
3D45A128
3D57FE30
BD73C1CE
3CE5247C
BC3FB8B0
BD8345EA
3CC6D440
3D619EF8
BD9A482C
3C912C9C
3D1C6E86
BD903D22
BD4BE508
3D88CA52
3D8A6DC8
BD2A41B2
BD96FECB
BD7143D6
3CADC9E4
3CD0FDF8
BD5F6F0E
3887DC00
BD9B4D01
BD9B0BC6
3D89C478
BD7BB7CA
3C5E3040
BD8CF92C
3CF0740C
BCB674B2
3AC2D8C0
3DA117A2
3C6AC648
3D17F31A
BD1A1109
BD8FF6E9
3D2001CE
3D5E104C
BD6B9B61
BC876820
BC8A6F74
BCD8667C
BC9A7974
3BAB54F0
3D5AE338
3D8A408A
3A20F080
BD27B267
BD412C88
BD5D806F
3D8D578E
3D531CE0
3B9B5290
BC37BDE0
BD866771
3ACE2180
BB86C130
3C523E88
3CDE46C0
3C133A80
BC8172DC
BD5C9788
BCF73AC8
BCEAE816
3D286E38
3CD67DA8
3CB99130
3CFA05D8
3D2B7F40
BD1C879D
3D4FE4F4
BCE188FE
BD910B58
3CE156D0
3D6FD0FC
BD692D84
3ABF9F80
3D20CB48
3C1031F0
3CBA8A7C
BD42AEC7
3B2574E0
BD979068
BD4D2958
BC47D7C0
3CBBCD5C
3D8D5272
BD25C354
3D4B7900
3CA80EBC
3CFA5734
3CF51BD4
3CC0B40C
BD47296A
3D2F7B04
3D89A4FA
BD19182C
BBD48490
BD2EB1AF
3D444E8C
39AB4700
3CE7A270
BC83884C
3CB3A24C
3D664DC0
BA061D00
3C1B39F0
3DA25F6E
BD224A3F
3D1AD5C6
BCB57D74
BDA0DA56
BD9C3066
BDA2DDAD
3D7D8AC4
BC35A9C0
3C51CE00
3CC3D780
3CA108C4
3D30327C
BD6716FA
3DA70C50
BC2968C0
BC1872B8
3D0D3530
BBD41FC0
3CDDD258
BD927989
BC20BBA8
BD5323C6
3D7EBED8
3D5E1C84
BD3FA257
3D121806
BD19AFC8
BCE560D6
3C6A8B08
3D534E08
BD82F07E
3C8B7250
3D70E07C
BCDF5642
BB630140
BD8E7850
3D7818FC
3D96F8B4
BD5624FC
BCDA2B46
3D303090
BDA05224
BC9F0420
BD88EAA2
3D448104
3D554534
BC141AD8
BD8916FA
3D19C810
BC4CB518
BD72A812
3D6E4B28
BDA80FEE
3CD5A5D8
3D8E5D84
BBD07270
BD02E8F1
BD4B72B9
3BF663D0
3D29912A
BC6F0C40
BCB393EC
3D4C1774
BD72A642
3D763BDC
BD07091F
BDA0782A
3D0BDA88
3D7D2994
3DA4D6DA
BD7DDA21
3C85E390
3D0A7F6C
3C2197B0
3D5BDFDC
BD2556DE
BD484687
BCFE56B8
3D610F14
3CC37578
3C2FA390
3D818B6E
3DA5A4B6
BD5CE280
3D97180A
3B9BA5D0
BD394E17
3CFE5678
BD9EC62D
3BFE1E30
BD89205C
BD975FDA
BCA8C9CA
3D3EBBE4
3DA84D8E
BD1ACCE5
3D1980B2
3D7E0B70
BCF4D660
BD5D6C9E
BD273406
3C8EFC04
BD30B4A2
3D98B4F6
3C2585F0
3B0E5D40
3CD38AA0
BD2E0F09
3C706A10
BD166B82
3CD44E6C
BA8DDE00
BCF0D92A
BC0E8670
BD387404
3D88652E
3C1FDFB0
BDA197E2
3D014B8E
BD40C9EB
3AF780C0
3D3678B0
3D7FE4E4
BD34EFF5
BC599C98
BD921057
3D65983C
BC100918
BC14DBC8
BCDDE6C6
BD57235E
BBB0EFC0
BC83BEEC
BCB44D00
BDA4844A
3CF6EEC8
3D52E6A0
BD06C4AE
BDA14064
3D8A8A3C
BCAFF802
3D96372E
3D2E154C
3D105064
BCEC4932
BD11DDE6
3D9B29BC
BC540FC0
BBA83030
BD66EF7F
BC676A98
BD11BE78
3CD22358
BD6E8B4A
3CBFC86C
BC74EFD8
3D87D482
BD7ABA50
BD9B6906
3C736168
3D9DD354
BB61C680
3D80102A
BDA287AF
3CEC1838
3D98525A
3D1AE6E4
3C9FBC8C
3D616BA4
BB12A740
3D4A9B24
3C848C6C
3D68E24C
3CB32040
3D47A868
3C0DE870
BCF612BC
3D9494A0
3C1F7500
BB4DC8C0
BCF3CA16
3D2C85CA
3D338520
BD21589C
BD2A65D7
BC5DFB88
3C9B5280
3D37D4F0
BCE0ACF0
3D14ED4E
3C9916CC
3CCD3FF4
3D2AFE0C
3D9D4CE4
3D9A660A
BD09C331
BD0617FB
3D83DBAE
BD546DC4
3D1B2C86
BD73058E
BCFCBA96
BC511228
3D4B13C0
3D9FC8E6
BCD8CA40
BD30F0B6
BC308F30
3D61FB4C
BD17D77C
B94C7000
BC0DE9D8
3DA0D614
3C33B1C8
BD9BFE4C
BD9F1A38
BCC4E4A8
3D8BC178
BCAC448A
3CCB5028
BDA1702A
3CBA6248
3C2927A8
BD24B5A9
BCC01632
BD4E6540
3D458498
BDA4826B
BB85E8B0
BCAE4CC2
BD4CDBA7
3D31DB44
BD002279
3CE577BC
BBD7D520
3D76130C
BC343728
BCC6C8E0
BBD1D400
3D1E190E
3D1CF54E
BD2C9D5F
BDA7CC6F
3BAB0750
BC448B78
3D50E688
BCD6A460
BD29B627
BD648E08
BD67E6E6
BD213681
3CFC125C
3D3BFD00
3D4A11C8
BD2D65AC
BD1AEA6E
3D1D63C4
BD1A437F
3CDB66F8
BCCE6838
BD82E607
3CEAAE18
BCCE7468
BD978C22
3C96E1AC
BC25EDE8
3D010BEE
3D3C2470
B9040000
3DA43DB0
3C03AEE8
3D91B312
BD58AE5D
BD4EC0B2
BD8E4717
3C44F9B8
3D1C53D0
3D85A02E
BCF43618
BD324AF0
BC2F3238
3B6A9C20
3D76DD58
3D1614CC
BD8FCAB9
3D3CC388
BD72EC1A
BCF09C0A
3D99CE34
BCDC4F38
3CBC1DE4
BC5800D0
3D14D51A
B9DE8300
BD4C0213
BD1D67FD
39D58B00
3BAFC400
3D3C9398
3D5B54B8
BCA19AB4
BD875ADC
3D3CE1B4
BCBBB4BA
3D17975A
BD7DC1CE
BCAB8874
BC470220
BCEA3E76
3D7D6208
BBC65700
3D7628FC
3CAD5134
BD76D23D
BD5C91F3
BC048278
3CFBF048
3C46B758
BBD36270
3A5E9080
BDA54F22
BD0D590C
3D6F56A8
3D0B099A
BC51D418
BAB38DC0
BC806CDC
3DA659C8
3D9FB48A
3D138050
BCA694A0
3D7313E0
3D586D18
BD9227DD
3D333FD4
BD0E4140
BB639580
BD4B1DB9
3D0BD464
3D817AB2
BC587AC0
BB2005E0
BD27174A
BD655AFC
3C235918
BAE5F140
3D19B2EE
BC3ED638
3D8FA0AC
BCAF3652
3D10E778
BC94EA2C
3D81644C
3D1911D4
3D8CC4B8
BD780B72
BB7B62C0
3B5FD5A0
3DA1FB18
BD65C670
BD40DDF0
BD956130
BC0BDB38
3D38CD98
BC6A1930
BC10C3D8
BD475B08
3D958302
BD57E967
BD8A2928
3D91EA0A
BD5E3CDA
3D39249C
BD6E907A
BD88A437
3D9759D2
3D8114BC
BC42E500
3D57C13C
3C8EB438
BB13DF00
BD9EFCD2
3D2FDD5C
BD8539FE
BD906D37
BCED3850
3D9FF808
3D939458
3D7BD4AC
3D1703DC
BBE11CD0
3D7CB9A4
3CBCF948
BD0B268A
3D3A4EB8
BC017F40
BD968390
3C473368
3DA5773E
BD564780
3D74B18C
3B70CB00
3DA65EB8
3D572FF0
BD605747
BD95F9B4
3C26FD78
BB8BFE10
3D7F1FF8
3D5C4E88
BD07A4CF
3CA077F8
3D059DC2
3CB623A0
BDA68884
3D217CD6
3D4F1E9C
BD8D6F45
3D9AD8DC
BCD30A7A
BD4D94C6
3DA391B2
3CCB77C0
BC997D88
BCF2F72E
3BA73B00
3C942B54
3D04B648
BD19A0E3
BD63E743
BD0A101F
3C7FA2F8
BD554D7C
3CE18040
3B8C56C0
BD133991
3CA4F27C
BD49093F
3D6345B0
3D0121BA
BCCC0C20
3C526F50
BD730170
BD5ECEA6
BD46A04E
3CEE91D8
BCE5E9D8
3D2483F6
BD60D992
3CE94B78
BD5341D8
BD6B227A
BCB49916
3CF0480C
BD74B901
BD2DDDA0
3BFB25F0
BD9B736A
3D259BF8
3D0D5BDE
BDA4165C
BD95F39E
3BBDE8B0
3D4FEA90
BBB6D3E0
BD907188
BD8B188E
BCC04434
3D06CF6A
BD9E4AD9
3D8327EE
3C456118
3D91B34E
BD6186AA
3CF549B8
BA99F5C0
3D5B7704
3C7FD038
3C639658
BCD3E766
BD27CF3C
BD36D6C0
3C5DC2C8
3B9C9EF0
BCD7A836
3D9175CE
BD8FE7F3
3D89DC7E
3D92B670
3D85DEB4
BD8573F9
BD8CF4C1
BD1DC04E
BD793E7A
3D67A8A8
BD39E9E7
3D531FDC
BD9904F7
BD142613
BDA7FBAA
BD9F205E
BD6E7546
3C40BE98
BD610020
3D159C06
BB216EC0
3D101B76
BC72E938
3D6CDD98
3CDEDD30
3CAC1778
3D081DE0
BD3E9C56
BDA81C37
BCC549CA
BD5D66EA
3D627244
BD20EEEE
BD38A61B
3D53FDC4
BD801D43
BD30C9F3
3D53E470
BD62E380
BBCE2CF0
3CD904B4
BD5FAC20
3D0AFF44
3D70E0B0
3D5DAC7C
BD80418B
BD4AEBF6
3D8EFDBC
BD807306
3CBB6794
BD5DFD6E
3D617808
BD4F8F12
BCD5B8A0
3D869E5A
BAB353C0
BD0E18B7
3D862CDE
BD30E552
BCF2781A
3D7FA48C
BD2E9552
BD34B654
BD4A6174
BD3AD45F
BC4C6960
3DA3FA26
BDA0AB80
BC111C58
BD462B12
3D40AE98
3C3E97D8
3D9ADE50
3D8139A0
BD9EA626
BD0F4EA6
3CE39310
3D90CA08
BDA15E83
BAD554C0
BD0B3228
BA9C92C0
3AC89280
3B6E2900
BD2DC011
3CF26460
3D9818FC
BCDE67A0
3D896A5A
3CC2F800
3D920404
3D9000E2
3C782328
BD4468CB
3D929D82
3D0B5D44
BD77B16C
BD0CE6C7
3B42F300
BD2AE584
BD033692
BC5A68D0
BD93428E
BD6B7274
BD877EB5
3C53A2B0
BC661EB8
3B94B0D0
BC275C08
BD408E60
3CD924F4
BD370EBB
38C6AC00
3D9DAB90
3D55ECD0
BD564BCA
3D108534
3AC7C780
BD23D179
3C87F768
3D50294C
BD938ADF
BD10782A
3D9BABF2
3CBA9120
BC481380
BD977835
3D348098
BD833B22
BC205930
BD680C97
3C775698
BD66B00F
3DA0774A
3B2C9D80
3D63A934
BBA08810
BCC8A19C
3D18E0EA
BD8A8C86
BD3212A0
BCAAAD50
BD1395E6
3D363A74
BC1B86C0
BCD6BA14
BD9EC8D6
BCCB48A0
BC824258
BC74DD38
3D79EFE0
BC3D1940
BD052891
3D1F074A
BBE1ED70
BD268FD9
BCAFA648
3D6CB460
3CB3E53C
3D29672A
3BB1BA90
B9767A00
BAE19800
3D0737DA
3C03B010
3C807C5C
BB580160
BC415890
3ACC3F00
BD8C3DD6
BD708163
3D87F654
BD430EE6
BD698576
3D8497BA
BD02B9E7
BD84B61B
BCD66B7C
BD8F83DC
BD832A95
BC30A3F0
3CAC07FC
3D4E07B0
3D955DD2
3CAAAD04
3D5E74B0
3C064EC0
BD687D9A
3B8EE600
3CF22728
BD83D9E1
BD566476
3D8430DC
3DA0CA06
BD3C88B9
3CD63700
BD62E662
BCDE5DB4
3D376620
BCFCDB0C
BC3BE070
3D929762
BD59DA3A
BDA8A83B
BC509598
BD7D34F8
39A81B00
BBA87590
3D0C4B08
BD993B7E
3D290360
3CBA4174
BD93DBC6
BD4506F9
3D4C5190
BD9D1A96
BD8BEEC7
3D05D57E
BC92FFD0
3D4FF84C
BD97C08B
BCBC3836
3D3437F4
BD682E7E
BB894E80
BC9EAA70
3CCB84C4
3D86915A
3D835946
3D0C0FAC
3D7DC27C
3C7138B0
BD7E7AD2
BD01D5B2
3D1DCA16
BD4C5451
3D6E09F0
BD56983E
3D883416
3D230198
3C19F598
BD8BCED8
3D384884
BD8B3C84
BA6B2FBC
3CFFD25E
3DBECCF2
3D06EBCB
BD28489F
3D8CE468
3D9CA07A
BD7E0F5F
3DC4748B
3D44EB6F
3C80A2E6
3D07B38E
3D3FE526
3C3A3181
3D024C94
BD2C9823
3CFAE7AC
BD1CA3FA
BD9B2C8F
3D6114A3
3D186676
BB404417
3CC28852
3D858753
BD37BF0C
3BAD2F08
3D452F34
3D40F8F7
BD16F8B7
3D43B166
3D18F108
BD55BE0B
3C1906AE
3BD6F31E
3D155636
3D25F54F
BE0D26E6
BD5602EF
3D8479B9
B99AF062
BD91E51C
3DFAF8C8
3DD7A152
3C4EB3CA
3C16261B
3CCE0E47
3D9A5060
3DE49BC9
BC5481FF
3E0073DE
3D268BFA
BC5EE0FE
BD21A87E
BE0D457D
BD7C20F5
3C0D88E0
BD0B25D9
BCD89A88
3D90C3D0
BD9034C7
3DDDEE1F
BC90E973
BD3FBDF6
BD908E38
3D970C1F
BD4A7140
3E0E7802
3DA0FC12
3C97CADB
BD5387F4
3CB86E49
3DDF55B4
BD870443
3D59755C
3D26951C
BCFEA622
3DAF11B3
BD909DEF
3DEBE4C8
3DB08C97
3C9E6929
BDAE3062
BDA3AEF3
3D063DBD
3C8D68C8
BD8BEE0F
3DF19948
BDEF12F3
BBB2D02A
BBE7DB6F
BAC04827
3C8EEFE8
3D47D438
3D8074DA
BE02DACF
BD80657D
BDF97D26
BD8E4016
BC186508
3D46295E
38E6CA7E
3C93B7DE
3D95019D
BD97D327
BC543EF7
3D9C6FE2
BCA68C49
3B9453C2
3E1A7849
3D91C348
3D81A938
3C05BC95
3CCFB67F
3CBB32DE
3C99A434
BBBE2869
3C567928
BD9B58BC
3C01BCD9
3C25D6E0
3E0B7596
3D076481
BD8817CA
3D534A8C
3D8782C3
3D7AED02
3DB959D3
3D2C86B7
3D725F5A
BD900EF8
3C4C5C3F
BD1028EF
BCA6A9EF
3BCED889
3D10149A
BD5E9810
3C50241B
BCC1A7B7
BD677CA2
3D32C00A
3D53EC60
3E30BB1F
3DAF343C
3D8F8A2F
BD014E1A
BCF4CA6C
3C9D8CD8
3DDC7DDB
BDEE2CCE
3D6A3D03
3D92F0D2
3DBC4BE1
3C73A747
BE1084F1
BC3AFA18
BD3823A1
BD511574
BDDD4AD3
BD6AC096
BB8E9F3B
3B68AE4A
BD8C822E
BD70F538
3CF5E5BA
BD0C366C
BD3659DC
3DCA71B4
BD781B29
BC733B94
3D2201EA
3DDBBFD9
3D810EA3
3D1CBAD6
BD73437A
3CFE158F
3D055E14
3C237C99
3BBB8922
3C3C00C7
BBA5C016
3DF5CFD5
BDBE0E8E
3CAF0C74
BCAFB2C4
3CD21484
3CEC27D4
3DCB1DF1
BDB96A22
3C48632C
BBFD217F
BD007F64
BD559AD8
3D78D7A0
B9F3DB08
BDC6947A
BE13AB6A
BD3BF0BD
3C71E1E8
BD908623
BD7272EB
3CA30678
3DB5FA72
BC2F0E9A
BD2A043C
BD46A93A
BCBE3653
BDAEA655
3D0B943C
3D9F322A
BD1A5D38
BC60C1DE
BDB92987
BC50DFCB
BB2D1CD7
3D889B16
BD8A410D
BDA664E8
BD9BECF2
3CCC2841
3D451F2A
BD52F014
BD23A180
3D337010
BD2E9130
3CAAD345
3DC3143F
3DC193AB
3CCEC118
BC268B09
3CF7D2E6
BACCE708
3C48E24D
BD8D9D93
BD26D9F4
BCD25D6A
BDA8182F
3D341D9C
BD3A65FC
BD8B15ED
3D404FD2
3CAA2268
3D89BE11
3CDE925D
BD3544B1
BD4B02F9
BD474E85
3C46F369
BD962658
3B623642
3BC0487B
3C246DC9
BD00C227
BC2E1571
BD0864AF
BD891554
BCE1D986
BD67225E
BC105B19
3CEBC974
3DB9D003
3C597861
3D06C6D7
3BECED00
3D82AD33
BCF41059
3DB2CB0C
BD357AAC
BBAD3ED0
BC92ED89
BD3E96BB
3CAA279C
BD9018BB
BD69A646
3D7EF058
BD380288
BD087DC0
3DBBA707
3D0880D8
BB8BBCED
3DC0F6AE
3CC240C8
BCCBECA3
BCB4787F
BC5B0315
BB057780
3D854B78
BDDADBC6
BC917A4F
BD57EA0A
3B1096C0
3CC59113
3D953376
3D85198C
3D47D42B
3C848785
38EF366C
3DAA5E5E
3D14923E
BD92B272
BCB2BA20
BCDAD0E8
3DC2479E
3D1B9C7D
BD5B0860
BD7DB25C
3C8D57F9
BC9A8FFE
3D5595F4
BD1C2C3A
BCC61C08
3D5C70EE
3D245BB4
3D05DD3A
BD22F804
BD263F91
BCFE891E
3C179138
3D575480
BCFF2CEC
BD8AFE50
BDA525A2
BD49F7F1
BD819BEB
BA151BD6
3D21977B
BCF68D09
BC80B553
BD0FA95E
BDA8782F
3D0DFDB9
3D411525
3D39566A
BD8C4070
B9422E00
3C8C3D83
BDD0C8CB
3CCD6A43
3D4EE3D4
BCBCD21C
3CF9D960
BB5C0580
3D5FD4D0
BDDAB575
BCB9768A
BCF4A450
3D8F78E6
BD8E406F
BD5DAB95
BC88A3DF
3D284031
3D576B7F
3DA00CB4
BD70D3AF
3D27779E
BCEBD5B0
3D922A50
3C113588
BBC50BA9
BD12BEC5
BCC032B5
BD89CC3A
3D9D6060
3D140208
3C0D2FB3
3D9DFF47
3D412BC2
3D793500
BC102668
3CB49221
BDA8B030
BC067DA7
3DA5004E
3D6CC2C4
BDA6484C
BD641F24
3CB89A68
3D663FAC
3CD5ECE3
3DD91BEB
BD461BEB
3D968D1D
BB99E9AF
BD9138A7
3D2D0148
3D5E67B0
3D462324
BD467D61
BCC159FF
BD88CFCF
BABC0380
BB0E3EC7
3D380F28
3D73EE70
3DC4826F
3C3A9311
BD8ACD85
3CD9BB9A
BD9CE317
3C081040
3D1FCB67
3D935652
3BF934D0
BD68A876
3C5F0980
BD991C7F
3D8ED82C
BD9A455C
BCCB543E
BD542130
BD097AEC
3D255E04
3DA37656
3CE8EB3C
BD4A679C
3D4ED950
3D73C2C8
3D89DF78
BD8A6CC8
3D8ABB44
3D82B25C
BC2C8B18
3D155974
BD773B4C
BD7C178B
3D05AFDE
BCF2F534
3D97C634
3D058EFE
BD04942C
BDA87E68
BC7CB4A0
BDA362CA
3D812220
3D46254C
3D064618
BB6BA760
3D13E4C4
BD22E1A1
3CE782EC
3BF11640
3D7339E4
BD7745A4
3B2B8220
3C37D518
3B2B54A0
3CBA358C
BC81B914
3DA067D6
BD3B6135
BC2ACEB8
BD6A8BD1
BD56D009
3D05B610
3B835020
3D7D17CC
3C6963F0
3D9B98DE
3CC38A30
3D63E808
BD6662F8
BD8A1221
3D7646D8
BD42D7CE
3D82C096
3D278DC8
BD784776
BC33EDD8
BD44B88B
3C0B8C60
3D179FD6
3D8FAB78
BD88822B
3C2958D8
BCCBD522
3D87DD72
BC337848
3CCF40A4
3CFDAC84
BD939FDE
BD6882C0
3D262C10
BC94EDE0
BD1AFC3F
3BCDD790
BCE06BE4
3D10D6A8
3CCFBFD8
3D915116
BD0081E0
3B9C13B0
3D41AC08
BD42AB5B
BB3F3900
BC4C7B30
3D4E9B64
3D76F804
3D31A7E0
3BDE4980
BD94E774
BD2B6449
3D91AEAE
BD567B9C
3D944716
BD8E381B
BD66574A
3CA30A64
3D71CBFC
3D9AC6AA
3D7CD118
3D18E804
3C8842A8
3D90720A
3D942FA2
3D5A1CDC
3D04D18C
BD4CB25C
3D892C9A
3B0738A0
3C8962E4
3D832370
BD878B82
3BD618A0
BD0E39CB
3D41B8A8
BC518558
3D5C4DC8
BD3F79DE
BCFFD2CC
3D37C270
3D4ED73C
BDA1A1E7
3D352918
BCA69686
BD0F106E
BD6CBA3A
3D8D8434
BD593FF6
3C80429C
3D9CCD4C
BD12BA48
BD6D5B79
3D7268B8
BD8D9A9D
BCC8ECA8
3D9290FC
BD2A4E1D
BD49FBE4
3CDD1D64
BD9FFE34
BCB22F50
3D55ACC8
BD843344
3DA2ADF6
BD304C06
3D9B5FA2
BDA3855C
BD7DFF92
BD8897A9
BD1135BB
BD653DEC
3D7D94F4
3CA6C70C
3C661178
3C48B350
BC0DCF28
3D43C6F8
BD95BE5B
BD9EB106
3C07BAE0
BC03A190
3D3FD024
BBECBDE0
3CA9AF9C
BD969342
3D9C45F4
BD2324DB
BD192599
3D9F8190
BC35CC80
BC97D2B0
3C8D3E5C
3D3E7AF4
3D7B6E38
3D193E06
BD77F923
BD18A437
3D2F0C9C
3D8962D8
3CB10438
BD70F485
3CB8802C
BCFC4A80
BD448489
3D3B2D7C
BCA1A65C
BD08A619
3D01469C
BC83A314
3C486560
BD7AC58F
BD3DE172
3BCDE3F0
BD75FB6B
3CD36300
3D84E67C
398DE100
BD53C428
3C340DD0
3D048B12
BCA8C012
3CA753D8
3D82A5A2
BD44C8E0
BD63462E
BC83867C
3D3DA27C
BD468BC5
BD10B842
BBA5BA70
3D434020
3D78B348
3D9372A6
BD4C75C3
BDA27706
BD80C656
BCC5A9CE
3DA724AE
3B0B5980
BD170CF6
BD467E72
BC77F360
3D61BEA0
BD0F3122
BD89EEDB
BC588048
BD55E7B0
3D8B61EE
BD9EFE8D
3D72CE68
BD99FFAC
B9505400
3D645114
3CA6107C
BCD8EBF2
3C4459E0
3CB87744
3D99FD06
BB8DCC70
3D402C80
3D1D4676
3D516E64
BCF1F7CA
BC4B1C38
3D23203E
3C8DDF80
3B4BC800
3C5F8680
3D1884A8
BD8CA1FA
3BD87350
3D8E5318
BC1D75F0
BD30426D
3DA7113C
BD86BAB4
BD3F0F33
BDA616DE
BD6296F2
BD955EA5
3D888172
3D8C7CDA
3DA22E3C
3D947E98
BD0BEC54
BD8B580E
3D340190
3D8C959C
BD8F0EAD
BB4F9020
BD8E0105
3B45DE20
BD99AC8E
BD17936F
3D252896
BD740D2B
3CAE17B4
BDA845CC
BAF792C0
3D157976
BD05B6CE
3BD7C8D0
BD96C8EF
BD22DB9E
BD116871
3C5FF720
BB1ACE00
3D87BD24
BC640F20
BD8683B3
BCAF48E6
BD4B6C76
3D9FFF90
3DA4FC14
BD352E92
BD830B0D
BCCF132A
3D4513F4
3CDD3D58
3D8537E2
3C95F964
BD17B804
BD0A15E8
BCA6CA42
BC236830
BD744D34
BD962760
BB8BE4B0
3CE81894
BD467F2A
BD14377A
BCE722DC
BD0191FE
3C1F3D10
3C69B8F0
BC6A0EF8
3DA5A694
BC7312C0
BC0E6518
BD81F5B8
3DA020CA
BC89CDF0
3D03F340
3D9FCDF0
3BD93FA0
3D06BFE2
3D3A0B50
BCA8C070
BD72C9E9
BD33E133
3D368F68
BD8D6DB4
3D1EA21A
BDA8B8D4
BD98BA11
3D8B81E8
BD964BF4
3DA3ADFA
BD481480
BCB1CE8E
3C0DE108
BD33ADEA
BD3B6EB3
3CD61E0C
BD352AA3
3B027900
BD172B5D
3CA58B78
BD6BED6A
3D7B7A80
3D5B5E90
3D6C20FC
BD32F2A2
3D9BBEB4
3D6BCD5C
BC9F2F74
3D14864C
BD05CB42
3D154C00
BD8D9E30
BDA228BC
BBAA5090
BCB6B1B2
BCD41762
BD2D9939
BD5E8038
3D4438BC
3D809ED8
3CA17A54
3D90DC56
3D84812A
BD74F252
BAD818C0
BB9C7410
3D7F79D4
3D2AB25A
3DA3E3D0
3D480460
3D22B6E0
3CB9EAA8
3D5C0740
BD3684FC
3C66DB50
3C0BF700
BD7A40A1
BDA5781C
3DA43F92
3D464038
BCEE4E68
3B82E9B0
3C7C13A0
3C3A1C38
3D7C74B8
3D8797E2
BCFDE55A
BCBF59F2
3CD247CC
BBE6FAE0
BD2C59F6
3DA1BD96
BD6725E9
3BDE02F0
BC140FD0
3CA7F8F0
BD2D29D1
BCA5A9CA
3AA79EC0
3C55C3A8
BD8FD026
BD39DBD0
BD1D6CE4
3DA76F96
BD28C323
BD9A1A50
3AA19400
BD60BA92
BD84666E
BD8356E8
3D516C20
3B358AE0
3D5F41C8
BC06E878
3D931974
BD243F21
BD4B38B9
3D87A4DA
3D380EC4
BD51CF50
3CFA5AA8
BCB0AD22
3D90A6F2
3BC2C090
BD85C6AA
BD5D09C2
BD27E88D
BCDBFC2C
3D825222
3D9C1864
BD91DEAF
BD0BC6B8
3A6BED00
BC17D0A8
3D3FF1FC
BD9BC5FC
BD47662C
BC9C1790
BB264C20
BCD48252
3C5CB4A0
BCFDF35C
BD8F8EEE
3C540E48
BD7B8C7A
BA2F3000
BD295C3B
BD1C083F
BD4A285C
BD5AD6D2
3C0D2FB8
3D194F3A
3D2B61BC
3D277488
BD3D1C6B
BC0D0340
BD8C9699
3D6AEBC0
3DA4C916
BD16B95D
3C228300
3B9CD8C0
BD36BDC5
BD7B786A
BCA4992C
3CFF31FC
BD4E5FDA
BBAC2EC0
3C7FFE98
3D2C1C9A
3D47FE28
BD3EEB92
BD6E08C0
BBE97BB0
BD4FF535
BC8C52A8
BBBF6350
BCB2AF98
BD094B67
BD98A4AD
3D854C20
3C8FA590
3D81D5AA
3C74D7F0
3CFC9014
BC90A7F8
BD8CF23B
BBD71490
BD9AA873
BC3B7DB8
BC6A52F0
BCDC715E
BD62C74E
BD776A3D
BCF908AE
BC71CF20
3D5F38DC
BD14B6ED
3D9B8B54
3D661874
BD179C16
3CF628BC
3D9B48F0
BD661C9C
3D3C2524
3D1415BE
BD785EFC
3D6DEF64
3DA3F270
BD79F7C2
3D8B716E
3D800070
BC6D3498
BDA595C7
BD955B22
BBF34190
BD8526C2
BD5439ED
BCC9B94E
3BCA6340
BD23E1AA
3D5E3614
3D42E304
3D093426
3D0F54CA
3D851D3E
3CB82268
BAFF8680
3D50E9A4
3C3037C8
3BC79BF0
BBEC3650
BA1A7A00
BD824084
3C93660C
3BB83FE0
3C64DF28
3D19389C
BCF5844A
3D15C4E2
3CED60F0
3D487C8C
3C0AF290
3D3A83F0
BAF18C80
BD9E4785
3CB25368
3C03B318
3D402EB4
BD389F64
3D99CBB6
3D380F80
3CC488A4
3D7CEC3C
3D832DA6
3C67BAE8
BC4C3F48
3D9DBAD4
3B0567A0
BD0E735C
3D78F8D0
3D2E328A
3BE03F60
3D404BFC
3C6D3498
BCF4EFFE
BD88B0B4
BCAAA946
BD8A6EB0
3D28C996
3C982964
BD87CC48
BD70875C
3D00AD56
3D4C7028
3D9B4324
BD1897A6
3D7916B8
BD186219
3B9BFC50
BD5BF41E
3D90819E
3D93D87C
BD81E27C
BCDD43BC
BD92EF96
BD5D4EAC
BD45470C
BD86113F
BC11D3D0
3DA80244
BD63B39B
BD01CDDE
3D9DF188
3DA01C4A
BCCF0796
3C33D660
3D912E76
BD8DDCD8
BCE8A7B8
3D038BB2
BD2DDC98
3C80D84C
3D8A3704
3CD1B1F0
BD6D73D6
3CBC13E0
BD2CE2BD
3C146380
3D01FE5A
3D417B50
BD7622D2
BD72FD9B
BCFE52C4
3D3A44D0
BD3219B6
3D8759F2
3D85B730
BAFFC340
BD699742
3D2A7130
BD90B443
BD64CC50
3CF8BFD0
BD791CCD
BD93FF87
BBD59910
3D0A07F6
BAE9F4C0
BD17F0B7
3D78154C
3D9CF222
BD65E934
3D5D4D08
BD718526
3D0E409C
3CADE574
BD34D315
BDA04268
BB899290
BDA2C79B
BD3E2A85
BCB853CE
BD0CBA06
BCCA6422
3D4CD7A4
BD0EB1BF
3C362A80
BC286160
BD235567
3B57D3E0
BD828AC4
3C122C38
3C6665D8
BDA0C5FF
3D8F1D54
3D9365EC
BC4FF388
BD61E9D5
BBBF3580
3C5D5278
3B6C69E0
BA11C280
3D53B8E4
3D9DBB22
BD7D7C9F
3D885724
BD05C130
BD3323DB
BCCEBD7C
3BA602F0
BD246580
3C900750
BD8DC58F
BBFFE940
3D24BA90
BD27C9D2
BCD0205C
3BC49110
3D73EDA4
BD73D326
3C345638
3D4C4B8C
3D85DCB2
BD52E0CB
3D208306
3C9A378C
3D06E874
3D21B90A
3D0CCCFE
3D2DD8B8
BD519848
3D2815C2
3D690F48
BC85E478
BCF9F9B2
3D6ECBD8
BD15A75E
BD994D44
BBE8BF30
3D78DA30
3CB6DE10
3D37552C
3BB8E6A0
3D817030
BBE00E40
BB31A200
B77F6000
BB9BA670
BD227BA3
3D95EFE8
BCD7CBA4
3CB382F4
3D2E497C
BD9C5FE7
BD1F054B
BDA82046
BD741FFE
BD988DA1
BD877B54
3C96DC84
3D61F778
BD1F3E44
BCF04D12
BD211D4B
BD03536D
BD951E38
BCDCED30
3D6D4334
3D26DA44
3C358130
BC8506D0
BC9316D8
BD4F11F3
BD6DBB6E
BD7D3C52
BD895C6B
BC363D08
BD1E8ABA
BCD95C12
3D8FCB32
3CF9F784
3BC4DEB0
3D977DB8
BD1BCAA9
3D9F7ADE
3D9DA63E
BA0E6C80
BD90EC5E
BD947CE6
3D0A8536
3D8856EA
BD93DD64
BC101798
3CB595EC
3D27BF90
3CB5C580
BC13AAE0
BD513A97
BD449A1F
BD917C39
3CF6AB84
3D31C2E4
BCA9CB9E
BD890DD0
BC9ED880
BC28B7B8
BD5BDD2D
BD8E3D27
BC346560
3D564090
BC822388
BD69568B
3D0E3D16
BCA6A428
BD5BAC87
3B699BC0
3C301B98
3D6226DC
BD980570
BD8C177A
BD8C0D45
BD016B06
38906C00
BD26BE46
BDA6ABE7
BD5BEC26
3C271018
3CBAA9C0
3C12DF78
BC4F54C8
BDA1CE02
BC406840
3D94B718
3C9FC8E4
BD2A6FDF
3AE8A140
BD1EFFA1
3D5B3E30
3D8E92DC
3D714B6C
3D21D9EA
3CBA9630
BD8B6574
BD8AE762
3D59EE14
3C985340
BD2A4A68
BD52A370
BDA55A7B
BD9D677E
3D48D57C
BD97947A
3CBFA764
3D567BE0
BC51A688
3D831CBC
3D5E31D0
BD971A35
BC2E51E0
BD36B723
3D97E57E
BD8D64A2
BD195737
BC9CAC30
3C87D798
3CD486DC
BD17BADB
BB9F5150
3C280A60
BD42FC3D
BD8FE263
BA536E80
3D02F630
BD902DC5
BDA3ABC3
BCC41D7E
3D986394
BCEC7DCC
BCFAA412
BBC1F840
BD94A5DD
3D91E5FC
BD3E501C
3BA39A80
3D88730C
3C360B30
3D23D49A
BBE972C0
3D871E4C
3D952666
3D4B1F98
3AE52AC0
BB9D9710
BC038968
3CC8E098
BD2F8744
BCD75770
3CCDAFA0
3A9F0EC0
3D9F7D9C
BB51C900
BD85D73F
3C85A874
BCD03096
3CD04B74
3C5CD690
3C1AAA88
3D0C7B64
BC69EAF8
3D88DB9C
3CEF594C
3D893C70
BC3DC3C8
3D2D7416
BC8B4024
BD425BC1
3D08BDEE
3D9B4BCA
3D97D0B6
BCAAE4AC
3D981FC2
3C406698
3CB358A4
3D1B4CF6
3C76E6F8
BB802400
BD727CF1
BD1D04DC
BD546C34
BD4FF4BC
BC80545C
BBA8D4D0
3D5806E4
3CE12280
BD8DF90A
3CE6C3C0
BC1F7148
3CAD1DB4
BD0EFA54
3CF579A8
3CDE04B8
BDA62653
BD79E9EB
BD343FF1
BD36E4AD
BD94831E
BD97E918
BD7A3A24
3D25AC42
BCDE6FC8
BCDA2EA6
3D6D0DA0
BBBB4620
BD9AC254
BD464BD7
3DA29572
BD8CFB0E
BC110800
3D3BF540
BC2585E0
BDA07B1C
3D2E4100
BC5CF688
BC1AAB58
BC4DD6C0
BCBCAB2E
3CDD1028
BB662D40
3D16DDB2
3C995908
BD9EA1EE
BD9FE111
3D5C6648
BCB05CE4
3CAA7764
3C03E470
3CA3C40C
3CFA915C
3C8440CC
BD8EEC9A
BC5AC3D8
BCFCC9AA
3DA622AC
BD1A96D4
3C14BEB8
3D5580F0
3D99118C
3CDE53BC
BD1EC2B5
BD3BA931
3C8D50A4
3CF1D428
BD55A5D2
3D4D4308
BD54F170
3BCCC890
BD9190EC
3D447D50
3C8F0CC8
3D3C3FF0
3D8A2862
3C861A58
3D5E4320
3C7F55C8
3D899E58
3990C800
3D8E4758
3CD04124
3C8EA5EC
3C91A444
BC8D1508
BC92DB5C
3D9623A8
BD90E321
BD09C1D0
3D216F5E
3D90FF08
3D1CFD6C
3D461D24
3D8F28F8
3D2405DA
BDA33AE2
3CF39D50
BD354B1E
3B9F9070
BC94A2F4
BD974EB2
3D5AF524
BD8D747E
3D89DECA
3D87D5BC
BD21AA7B
BD04F9D1
3D44FD0C
BD31FDAE
BB7B4420
BCACE3D4
BC3F62F0
3D50A3A4
3D5B5C64
BD57A618
BD729DB6
BBC72F30
3D28709C
BBAF7790
BDA2E42A
3BFC32E0
3AA1C780
BBD02570
BCEE21CC
BD84F3EA
BD6FF3EE
3DA7F50A
BC0A6168
3D6A301C
3C8078BC
BD06D13E
BCC5C0C0
BCD40E9C
BDA84A2D
BD3F6161
3D87E396
BCCB0D5A
3D3A1020
BD8F5ECF
3D6D2FD8
3D715760
3D840564
BDA692B9
BD72EE98
BD2A7A80
BCA76564
BD6CF730
BC5EBB18
3D738158
BD245715
BD321BFF
3D62E56C
BC8DFFA0
BC9CEB98
BD08A25F
BD0496CF
3D94F336
3D2BED16
3CBC7DE8
BC496CC8
3D7DA4D0
3D169FD8
BD89BCD9
3BC71D90
3D962560
BD9EA8AF
3D6CE7E8
BAE17FC0
3D0E4972
3D62EE7C
3D2B4CDA
3D9F1F20
BD0E6A91
BD655DE8
3CDF84A4
3DA1BAC4
BD88FB5E
3D7A3490
3C958790
3D5978D8
3D7FDD7C
3D8571F2
BD077E7B
3C94D76C
3CB730E8
BC822F38
3D61FA78
BDA02F2E
BC94D2B0
BD572A84
3D95B6A6
BBF383F0
3D3357B8
BCC31D86
BD43F7F2
3CA4D3EC
3D266396
BC99AFC8
BC7BECD0
BD66C284
BCE6DC38
3C38D428
3D804418
3D80E630
3C66ECA0
3C812744
BD5D3727
3D8925F8
BD819861
BC5CE8B0
BBFD09E0
3D9D2F4A
3B145760
3D995A4C
3A3B3F00
BD0086C7
3D8BA68C
BD91B29E
3CADA848
BA3BC980
3D8D42BA
3B5093E0
BC49C498
BCBEFC5A
BD5D6ADE
3BF26930
BD9A5C70
3C29D0E0
3DA630CC
3C2B87D8
3D4B7C9C
BD786BEC
3CE71978
BD2B11D7
BD677B9C
BD0A71D9
3D2C65B4
3C912230
BD0B5142
3D396248
BCE36372
BD423C62
3D0A1A80
BCE9AFAE
3D7DA7C4
BCAE3C48
BD4A2156
3BD6EA30
3D93D0F0
3CA4531C
3D88F378
3D19754A
3D5E0BF8
3D98AB74
BCFA7A96
BC358B40
BD24F401
BD8795DB
BD3E8564
3D81347A
3D1A0766
3D258214
BD3C90C7
BC9A9A54
BD61EF00
3D02EA98
BDA543A1
3B1F33A0
BCE97EB4
3D389EAC
3D9DAFAC
BB3399E0
BD7953A0
3D849262
3CE58C74
3D634A50
BD72CBAE
3D824E64
3C80B194
BD9ECCF7
3D521CB4
3C7B96E8
3C005A08
3CC35E14
BCD70F5A
BD0D50AF
3C03E430
BCB777F6
3C739DA0
3C0C6FD8
3CE8F8C0
3D474AEC
BC98011C
3D769990
BBD9A9C0
BD5CF042
BCEF73E8
BD24DFCD
BCAB4682
3D6D161C
3D983832
3CD3BCF8
3D82FDF8
BC703C98
3D4394E4
3DA093F4
3D291138
BD71EE36
BD85E5E6
BCE7CDBA
3D766058
3B272040
BD98D4CF
3AAD6FC0
3D68B8E8
BCBBC120
3D4BC930
BD651A9A
BCB77D5A
BD9EC5E6
3D4AC3DC
BD4D25BD
3C89C9B4
3D80E5F6
3D4F6320
BBA045B0
3D731A4C
3BF287D0
3CC784AC
3D07E186
BC965B4C
3D0CDA62
3C879A30
3CE0AC7C
3CA283A8
BCD5646E
3D6D958C
BD930EF9
BC014078
3D5689E8
3D9BA470
BD058404
BC7510A0
3D49B6F8
3D4DE4B0
3D7872B0
3D915874
3D02B978
3CA4C6A8
3B6C8F60
BBB0EC50
3D83B59C
3DA3CF9C
BC220430
3D132FEE
BD85F33C
3B0EA220
3D0CCE6A
3BD69650
BD97143C
BCF45EE0
3C591A40
BDA034F8
BCF52F3A
3D4E2474
BCF1F8FA
3C83619C
BCFEC0BE
BDA51BBF
3CF68C2C
BD99A8F4
3C389218
3DA1C386
BD0CD4DC
BDA67C19
3C7B3210
BD74C0EF
3D02C49C
BD4FD958
BCB1ECFE
BB1DD3C0
BD99CC70
BD655CD6
BD37830A
BC64A6F8
BD715A4E
BBFEA160
BCE831BE
BD68E714
3C72F220
BC6DBFD8
BCBEBE52
3D11A070
BD727572
3D428EC0
BD945BCA
BD1E94D1
3D41452C
3D845718
BD17A603
BD46E75D
BD1077AB
3D796920
3CB02DB0
BD705FBC
3CDF667C
BD625FAA
BD3503BB
3C6A0E60
3D3E63D8
BD341680
3CC24A28
BD15C5EA
3C92D348
3AAE5BC0
BCBEE57E
BD9D83E6
BD9B4306
BD219A1B
BD12F9D2
3CDA0024
3D1A96BA
BD47CFD0
BD93A016
3D3B332C
BC01B2E8
BC2129E0
BBD4D7F0
BC9855A4
BD2664C3
39A6BA00
3D9ACE6E
BD907F20
BC609918
3D7D7D18
3D91FCEC
BD95E179
BD0EF548
BD031D77
3D9098FA
3D6F5174
3CA68A74
BCE73356
3D0C93A6
BCC2FDE2
BCA26E10
3D9711F0
3D519404
3CF7D7DC
BD914F4D
BAEA0400
39769A00
3DA1D21A
3BAAA910
3C82D678
3CCC13E0
3D98FCB8
3D440AFC
BD47C968
BD9EF1FA
3CC05BF0
3D49595C
3C5235E0
3CED09B8
3D2DBC22
3D9660D6
BCA267D8
BCFBAB54
3B5250C0
BD87B571
3D8A4AAC
BC4B9848
3A073B00
3BFCD1B0
BD55A092
BDA70677
3D18441C
3D4B8184
BC203C48
BD29BC5A
BBAC53D0
BD223051
BD55D804
3D9EF202
3CA05134
3C33A508
3D417324
BCB6CA80
3C81C53C
3D3377E8
3D901D08
3BDB85A0
3D2F4F98
3D6BCA18
3B840020
BD1E969C
3C86EB88
BD2208B6
BD4650D8
3D841968
3CDAAEF8
3B94F6D0
3D46734C
BB239620
3D296C80
3D7D20A4
BD4C32EE
3D91EEC8
BC155A30
BD45D1FE
3D7DF1C0
BDA6DF30
BD680814
3D2BB190
3C86F044
3C62A760
BD6EBE3A
BC87D140
3CE5A1F4
3D86A314
3D0BB054
3D28C446
BB173CC0
BCA9D2D2
BC9ABA80
BC15A070
3D097F88
BB481DC0
BD869B40
3D35103C
3D310CFC
3D31A9D0
BD90CE66
BD5F3AD2
3D465CC0
BCD84EA2
3D7F2A64
BD0AA4F8
3BD06D00
BCE053AC
BD060090
BD9170EA
3D3DEAE0
3BC2DEF0
BD84F2E0
3A084280
3D7A8BE8
BC211648
BC9E1288
BCCFEA84
BD3ED529
BC8E2488
BD3D12A3
BD7DEFF6
BD207A7B
BD0FED3E
3D0285E0
3D837F44
BD9C29BC
3D843F56
BBEEEE20
3D056758
3D43EE14
BD016D01
BDA61136
BD434E17
3D833BBA
BDA77572
3C91CE48
BDA714D2
3C35D988
3D7149D0
BBC60C90
BD9F0DC2
BCE09536
3BFCB160
BD775F28
BD693C0E
BD5DF698
3D4B3150
BCD2DA1E
BD84AB16
3D8C4A3A
BC4470B0
BAA028C0
3D8A1AC4
BCC89DA6
3DA08820
BC6EC848
3D37A24C
BD244C5A
BC1824A0
3D4105CC
BD5DD9F2
3D39DEBC
3D61C8A0
BCD673BA
3DA54F38
3D60B8B4
3D97665E
3CEB51D4
3D86BC8C
BCA114E0
3CE6C5A4
BCAA70AC
BCC8EB22
3CED73A0
3DA72A78
3C4661F8
BD170F6F
BD154243
3D304EE4
3D1EC3CC
3CF916D8
3D28C2FE
3D93DD2A
BC120E60
BBE54B80
3B0AF740
3D7A7508
3D652614
BCCC6F86
BD8437B2
3B14DB20
3D25E1FE
BD8D125F
BCC81A20
BC2C8078
BC9BEDD8
BC671898
3D5627C4
BCAEDE76
BC8037B0
BC56FF08
BC95F354
3D010508
3D624CD8
3D9528D4
3D45B40C
BD1908BE
3D7C113C
BD0DD918
3D83C2DC
BD775FB7
3B1A2DC0
BD9849E6
BC9080B4
BC198980
3D4FFD24
BDA60751
BD8F1C97
BBF48080
BD9ACF34
BD8BB4C7
BBD94E50
3D070F58
BC150C28
3C888A54
3C81C02C
3D927BE2
3C1D8608
3C491DB0
3BB34700
BD981CEA
BD2C9E91
BBD43C40
3DA79A50
3D51EF88
BD4EC6A1
BD4E129E
BCD7C88C
3BA39F50
BD8D0A47
BD37FBE6
3D10DE4C
BCA6C828
3D2DD06C
BD81D3DA
3D980726
BD25E1C5
3D9AEF0C
3D354670
3D78E224
3D91890E
BD1CF564
BBB1DB10
BBF46380
BD8211D3
3BF1B350
3D7E2E20
BD3E59BF
3D6C4F04
3D57A0D0
3CE44008
BD8EBDE6
BD6AF414
BBE7E750
BC97B41B
3D0E74AD
3D61061D
BC35CB1F
3DACFA9F
3CDCB543
BD0CDE68
BD7594FB
3D12D9A0
BD26A530
BD010797
3D30FF74
BCF518FF
BD98009B
BD95C4D2
3DAC4A4B
3DA23BE2
BD9351FD
3D1FCBFC
BD53CF17
BD96E438
3DA5D1B2
3D28CDE4
BD3E2A2E
3B196DAB
BC978B99
3CD44035
3D8E491C
BD04E4B1
BCA25D4C
BBDABD41
BD82C39B
3D31D304
3C84B018
BD266807
BD0C40E0
BD935707
BC73D8F8
3D997E62
BC43CD58
BC4D4E92
BD298CEB
BCF17891
3D744166
3D94E148
BB96D499
BD1E8F84
BD949EFA
3B3FD780
BC2957AE
BCC45945
BCD77BD7
3DA96316
3D488D1C
BD9EFBFF
BC7D2638
BCABBCC4
BD67C7E2
BCF9963C
BC00BC60
BD4C51DE
BB0542C0
3D91BFCB
BC11B9BF
BCCFB6CA
3CFF4ED6
3D56CF64
BD2805A7
BD48BFD2
BD7251D9
BD7A55C4
BD888C03
BCEAC576
BCE7C18C
3CA81194
3D90914A
BCF6F05A
BD07556D
3AC7B37D
BCFF3DC4
3D311D17
3D693B55
3D0156BC
BCD5264A
3D82519A
BC2F35D3
BDA9743B
BBFEDCD7
BD7188D0
BCFB7AAD
3CF1FB54
BD3CE7C4
3CC85FF5
BD548397
BD1408FA
BD64800B
BCECC34A
3D3D83D3
3D9C3F6A
BDA8881E
BD9E150E
BD4CEF45
3B23C69F
3D86F3C4
BC7C6168
3DB1585F
3D0D03B5
3DDC2B20
3DB5A1C4
3C967D48
3D0F1113
BD802B45
BC136F48
3D5A469C
BD254C82
BD778C00
3CF2E558
3B74E6C3
BD2207BC
BD3F5313
3D6B73E2
BD93D0BE
3D86A5AA
BD16A2C0
3B8BF181
3C3D3EC9
3DB128AD
BC8A5178
3D177766
3CBBE928
BC6B9A31
3D4DCFB3
3D4D9386
3CD1B366
3DA7F16B
3C321B74
3D12AF94
BD9ED439
3D7CEFE5
BD659A47
3CB4B725
3CD7FAB7
BD31A8D3
3C6AE9A9
BC200DA2
BDA8BD7B
BD9F1808
BD62CE10
3DB1B23C
3D9A86D8
BD149F9A
BD8E505F
BD19BBEA
BD44F7D6
BDA0DD29
BDB778FE
BD46CB6F
3D934CB0
3BAECCEC
BBDC5E4F
3DAF9DB1
3D0957BE
BDAA6C26
3D008941
BD2D7E0D
BB2DCFF8
BC804A30
3C2B2450
BC60AAE0
3D9CDC9F
BC9517E5
BCEBEFA4
3D084404
BD8D4CEC
3D8802EA
3D7F3DB5
BCA23F90
3C901C08
BD4CE932
BD59ED12
3D2352D3
BD56AF89
3D3D71C0
BD75A097
BD92FFB6
BD72DA54
3CA1AB47
BDA90F6A
3D89C198
BDA29EF9
BD9ACAE0
BD451143
BD175301
BD893DED
3B96C9A0
BCD14A0A
BD002284
BCE1FBC3
BD8878CF
BDEA1C47
3DE85F92
3D756195
3C8BFBFE
BCAEDFAA
3D9D5722
3DA90EAA
3D5B97ED
3E509ECF
3DFDBB52
BCA16C54
3D6F647A
BC8A7BDC
3D6AD2AE
BD0CD8AB
3D77F538
3D81F62F
BDD1165D
BDDF49C9
BDA196D3
BD9C981C
BCE68915
3B9A170C
BD3107B1
BE141C8D
3D73F5EE
3E41D9FB
BD315195
3D42C868
BD7286B7
3D571C64
BB4F26EA
3DA16212
3E01220C
3D3F5630
3D795ECA
BCE35792
3D22DA5C
BCCA9DBE
BCEE247A
BD221C76
3D46BCE6
3DDE0C2A
3D310077
3D454E7D
3DCB611F
BD7BCED8
3DB576EE
BE3471FA
3E241FD6
3E32B45B
3DDE6A1F
BDC21305
BE3A167F
BCFAC0DC
BDD92F73
BD277FC0
BE0E3BA2
3D986CBC
BE0325AE
3D8E04A5
3DB23246
BD347252
BD4D5A95
BD8E800F
3CCE27FD
3DBCF9B0
3D0CDEF4
BCF618EA
BC75B610
3DD97572
3DA6AD2A
BA2BB900
BE19B6D4
3D2ED30D
BD3818F4
BDC15543
3CEAF2F8
3E1983BD
BD9ABD7D
3BE19840
BDC4E9E9
BD5821D3
3D225344
3DF96B09
3C2AE350
3DF4B312
3DA11718
BD381C80
BD34D9C1
BE159F44
BD5B2812
BDCD6AA3
3DBBB1A7
BE5158F4
BCD4B47E
3D31FE8D
3D2A64EF
3DE9707F
BDE536D7
BE2BB892
3D14A893
3C8CFA4E
BBD4AD4D
3DAA662B
BDC4FE25
3DD5E792
BD4A4AB1
3D9AB0AE
3D8EFA6E
3B45FC6F
3C929A30
3D9DEC92
BD1CACAD
BCB99AC4
3D3C12C0
BD20B8F3
3D11A18F
BDF8B405
BE2183C5
3C47C4C6
BD6487CA
BC85301D
BD13510B
BB4515E7
3E2229B3
3CCB370E
3DFFD83E
3DC2342A
BDBD2C01
BC0A0C0D
3C905BDA
3E18A301
3BF702E6
3E25EF1E
3DF1AC3B
BDA072AC
3D8412FF
BD58A813
BD58FEC1
3D865E6A
3D94C418
3E1E383B
3DA7E405
BCB89A2E
3CA6A7E2
BD04BE8C
3C9B1C06
BDDE9EA9
3DBAE6CA
3E1C51FA
3D58D483
BDF38F22
BD769557
BBF61B00
BCE9F1D3
BDE79678
BE07800A
BD6D7D08
BD2FE05C
3E2226F7
BC6F04EF
BCED81A1
BBF6CF34
3D23A953
3D42FCC5
3E3A786F
BD91F919
BD30FE4A
BD0EF626
3D0D797E
BD5F2281
BD86AA54
BDB5FFD8
3D759CFE
BD9FA49D
BE266554
BD79B3AB
3E43FFFF
3DB3FF8F
BD0A4B30
3D4CCEB0
BCBE15F1
BD64D668
3D02B73D
3D96B380
3DB298AA
BD786152
3BF2B722
BD0A3269
BE354126
3D442D34
BE058A5B
3CC0CF99
BDC03461
BD9AD473
3C02D71D
BDCE4374
BB66C885
BD3F9DAE
BDC97268
3D534068
3D8537BC
BE11406E
3D598EE6
BD43ACE6
3DEED63C
BC89314A
3CF332A7
3D9559F0
BC9C8F8C
BD30892D
3DBF3DF8
3D72E41B
3DAD4359
BD15F334
3D91667F
3C1BE3CC
BD114EF7
BDDC7723
3DEE0FE5
BD85F3C5
BCF15D5C
BDFD367E
BDAD436E
3D8C66DB
BC890449
BD312421
3D129E59
BD3BE46C
3D4548F3
BCA1ECAE
3DE0D770
BBEC987A
3DB1B3F8
BCD8C10F
BCF6594F
3CF53743
3DD5F735
BB5980B7
3CDDBFDF
3D49792F
3C9AFA3D
3D90DF31
3CA93324
3DA35633
BD39C3D9
3E3FEF09
BDA48CFE
BCBE6192
3DA3E0F4
3B76C5ED
3D93EBF8
BDCD155A
BCB13BCA
BDD9047D
3CED8509
BD155EC5
3CEC9F76
BCB34FCF
3C562005
3DAE159E
3D32D4F2
BCFA0712
BD159ED2
BB74C85A
3C56AE27
3C3F4210
BC6631F4
3D974778
3CF4A49E
BDF01440
3AB3EE80
3CF3BCAF
3D5D5406
BC68D9F6
BCC50553
BC6C2B68
3D2ABEEF
BD2C5DC2
BD8EC323
3D5C5617
3D5E3795
3A999180
BCB3EE06
BA46987F
3DD14DA2
BBE0D441
BDE2061A
3D50AE5D
BD3588D2
3D93D283
BB59F552
3D873150
BE072FC2
3D292CAA
3DD279E4
BD51ADF5
3D88E679
BDDB939B
BD66C6D8
3E1A2872
3E3CB3BE
BE3E51D1
BD212C5F
BDCA258E
3E4BBFEA
BB16C7E0
3E2B6477
3DB9C134
3C4A8147
3D95ACCE
3D4A990C
3DFF15D1
BD6584E5
BDA945FC
3D0EC15B
3D5EC7C0
BA24D694
BE014125
3E5CB167
BC8A9DB7
BDBA9E21
39B3D75B
39924EB6
3E0EE689
3D8E6C3D
3DC19B4C
3DA55264
BD2A2F95
3C9A42D0
3C82572B
3DC3AFFF
3DE9C32A
3E0BE997
BD4205F4
BD1699D3
3CDBD25A
BD69DBCE
3C876B5F
BCE8B6D5
3E418A94
3E00816C
3B7B62E8
3DC55FF2
BDB98B53
3CC6CB19
3E4F6788
BDA24318
BDA597B2
3C6C8705
3DD507E8
BBD1B4DB
BD74ABE2
3D8397C8
BDAB4CEC
BBBEA844
3DF8349B
3D0080FD
3C10971B
3E42D5E5
3DB96C65
BD7C9D78
BCE35075
BDE490C5
38CEC606
3CE49594
3CA49530
BC3F7EAE
BBF14BA0
3E19CE93
BCAD71F8
BB469740
BDEBAB43
BB6EF231
BE05E6BF
BDA28CA2
BD09BDD4
3DE87642
3CC252C6
BD96EE82
3D3432E2
BC80ADD0
BD850ECE
3AD0CDEF
3D618D52
3D395E6B
BD19E966
BDA515B8
3D7320FF
BE2AE5B0
3D86B76A
3D0801F4
3CAF1064
BD8688CC
BDB31E8A
3C95017B
397CBAD8
3CFE3FF2
BE0193C5
BE01C718
3D55D97F
3E0C968D
BCDD4E22
3C01C279
BD07B42A
3E5D03EF
BDD330DB
3D83EF6A
3CA16D36
BD96DE97
3D45E89D
3DC11954
3D3AACDA
BCFF1DAF
BDBF7E8E
3C688BE5
BCB23908
3C09AF16
BDCBC8DF
3DA747CE
3D2F2B8F
BDA988E1
3D105DCD
3E0E2280
BC0DC463
3D5CC07C
3DFC070F
BC8E48F6
BDD6D30A
BDDE1BA5
3D31C5E5
3D2610CD
BCE16B12
3D9DE2B5
BC99D5FF
BE0413A9
BCC2485F
3C73A5CE
BD8FF4BA
BC9C3748
3E69C367
BBAF9F13
3DFF5ABA
BD5926D8
B9B258BC
BD3AA502
3DBEA717
BDE17564
3CE177A2
3DB6CAE3
3DA1B507
3DC65A2D
BDF652E5
BDA77A64
3BDE4AE5
BD0042D0
3D81D414
BD956CD5
3B4E6848
3E2D21D6
BCB899F5
398433E7
BD859452
BD726209
BD87C465
BCC9A170
BD1B6471
3CF43AC8
BD968266
3E1118A2
3D4551ED
BD2E764A
3D130048
3E033F43
BD9893B5
BD95DB8B
BD4B027A
3DCCFC0B
3DA531E6
BD6229ED
BD637096
3AEAED8F
BCCCD602
BD475BDE
BD8F2BCB
3D891556
BD3DE32E
BC54552A
3D563AAD
BDC47046
BD6DBA20
BDCF0CDD
3DCF8123
BE4FF32F
BE3CC63A
BDFED495
3D33A673
3DB05AE0
BD11BE06
BDFD3B88
BC9A2DEA
BD30AC24
BDD50708
3DA09064
BB3059A0
BC1A2E75
BD81F677
3D3E76EE
BD5FE583
3D41AAEF
3DCC3D2D
BDB21810
BAA1E6D7
3D3F728B
3D1A1572
BBF35FC4
BE311E54
BDD97AC4
BD855A3C
3DC3B9B7
3D82F5B5
BC35BBDE
3C31101A
BC731288
3D7FA981
3B69A24C
3E04F4B1
BDC19848
BCC1FBA7
3D076716
BD150BA0
3E06C0D6
3C9131C1
3DC581E0
BDA23C57
BCA3BB7B
BD08D838
3CC0A560
BC783851
3DB6F848
3D787A01
3CEB2DF4
3CC015D5
3D7F6C9C
3E07D53D
BD41F752
BD1C1440
3D18C2B4
3DA9BC88
3BC8A566
3DE3CCF2
3CB8914B
BD5A83B0
BDA4A0DE
BC97643C
3D109647
3D37057B
3C1A6BB0
BCA0F359
3CE117E7
BC37812B
3D8FA544
BC6076CC
BC18E373
BC8C0688
BCDCED35
BE3BA249
3B99AAD1
BD378C7E
BB924E9E
3CEA2FC0
BC454562
BC978A8F
3E2169E2
3B0E1718
3D60AEF8
BDFC2E92
3D10EF9A
BD1BB088
BC86E61E
BDD09BC5
3D9505C5
BB82AB60
3DA4F4E0
BDAF905A
3D4E8395
BDB8C196
3D320B39
3D1F41A4
3C1EF48B
BDF4801E
3D7B2929
BC0DB76E
3D901B24
BD53DB21
3D7604F5
3DB2D0BA
3D715DE3
BDDC6187
BBE17B25
3DD5C9D6
3CD5876A
BDDC6334
3CFE1FCD
BC8654D0
3CA838DE
BDF4315F
3E093EF8
3C540CD9
3CDA610B
3E0C876B
BDE5D79E
3E47F2A1
3D9F0316
BD6FD1C8
3D9C9DB6
BCBDD6D7
3AE8BE2C
BE6DD4F9
3E1A7EF2
BD160E44
BD14B32A
BD24205A
BCAAD8D3
BD6D9FDC
3D9CD0D8
3D5020AF
3D9AFB13
BDE63E03
BDAEFBFB
BDC895B8
3E3A97DD
3D00224D
3DAA5A54
3D30C6D1
BE55770D
3C8D1AB1
BD99BC23
BD6AAD7C
3C1415C1
3D1D53B4
3D585F8E
3E246B2B
BDC3C949
3E4CE261
BD93E3ED
3E239FD8
BDEA54F3
3E1CC951
3E016538
3D58A2A6
3E536B68
BDBDD83A
3D1F145A
3C295160
BDA1F52F
3DA965DB
BDC09BC5
BCD2C4D8
3E4A30DC
BE0DB2A5
BD480A58
BC862FD2
3D861DC6
BE38DE65
3EA0B20D
BE35F1A0
3D24F04A
BD763CEA
3D146206
3D54E5E6
3D7BAC8C
3CD243FE
3E2AD503
BE38F826
BDDEF624
BD9CCC89
3E3D925E
BCC5D4C3
3DC1EFF7
3C42DDDE
BD41E944
3CDBD6F8
BD188B2D
3D0666AB
3DCDECD2
BDC86A7B
BD3B03D9
BDB76470
3CDDA664
BC610282
BD0B3761
3DCB4ADC
BCB63484
BE5D3810
BD9D5E7A
3BCDCB52
3D0940EE
BD2F5117
BD3B1965
BD2881DD
BC5BA257
3C09224E
BD1717AC
3D98D4A6
3DD88BC9
3D84E685
3C124E20
BBD1C186
3C04E368
3E8C1875
BDE0D6A0
3D058F53
BC99382A
3C0EFC29
3D92BAF3
BD6A0919
BCAC919A
BE1E9FA3
3E0A147B
3CE7AECB
BCE2886D
BD2CC026
BC8DFCE2
3D62C58B
3DF0D266
3E3B939E
3D213542
BD5CBE09
3D8C9E99
BD401FDF
3DC2EE7B
BDAC12E2
3E1CAE4E
BC2DB335
3CAFEFFD
3D055487
BD54F23A
3D08F984
3DA2BCF9
BD68D089
3D9A0619
3E77EF11
BE025130
3DAA5B83
BCE9FA72
3D9E7804
3D8DBB52
3E0C3499
3B408F69
3E07698E
3E441892
BE6650B4
BD81E9EE
BD810D95
BBF3D5DD
3DC42990
BD9EDD6A
BCB056E8
3E50E8DA
BD9B189B
BBB43B32
BDBEB7BD
3E02DB11
BD510C59
3E452CC7
BDF55358
3D179663
3BACBA50
3DA5F316
3DA54287
3C5F6D08
BDA2F849
3E4CEC40
BE977F1B
3D6FD461
BD4F889A
3DBBA299
BCD64713
3E0EF2B2
BD2790C8
3D41000D
BDE21DB1
3D8D2A79
BDD9495E
3E056AE5
3DCF8B2C
BE0C37F4
3D2165CF
3D272C8B
BCA179EA
BD018191
BBD771A2
3CBFD859
BDED4ED5
3D14389F
BD376B9C
BD0C925B
3DB22F3A
BE20E2D7
3B5B689A
BD3D91A3
BD82FE6D
3D14C80A
3DFB9008
BE0F87EC
3D8BCC3C
3CAF510C
BD95165F
3CDCF0A9
3EB09891
BD7F3670
BD81C20E
BBA6F9B8
BC96AB5D
3D8633B9
3DFC4B5D
3E16A6C9
3D92FE71
3DDEA9BA
BDBA062E
3D82A7DD
BCCA767D
BCB4AB08
BC269BA1
BD4E23DC
3DA0D81A
BE0E80B3
3DC5AA20
3BE92517
BD82006D
BCC623AC
BCE60829
BDAC93AD
BD81A16E
BD3E5A3E
BD9B8EB7
BC93DA2F
3D3F5183
BD947307
3CBD1232
BD5A6C57
3D834BEB
BD8B986B
3DBFE5B8
3D119B85
BE64A50F
BD0ACED6
BD79B4FF
BDD1646D
3CA8D75A
BD6A45F3
BE52833B
3D1CC494
BBD1B8B9
BE140093
BCF0BFAA
BD9598B6
3C8B616B
3E52FFBE
BD2C3157
3DBFBB60
3DF719BB
3D00E943
3C03F815
3CF3510A
3D457B58
BDBA4B48
BC72B738
BE009FE7
BC7DC86E
BDCE22B6
BD91F1D1
3E824D67
BE93A1F8
BD3CA7BB
BDF5BA38
3D0FBE8B
3D9ED259
BD4BF716
3D87C8D0
3DB034CB
3DDC9A38
3CB610BF
3E07ED9D
3D63AE25
3D30C367
3D557F32
3E0652B6
3E0F2D23
BD9EDD44
BD3ECB93
BD6D5B10
3DEA3B56
BD605910
3D9A1A61
3D581308
BD964B5E
3D6EC324
BDAC9A30
BDF975A0
3C931E4A
BCA7279B
3D9777D8
3D09C9B2
BDA503FD
3D12E06A
3E318E1A
BBB34BB3
3BD090C7
3E656E55
BD982D12
3D92F466
BD47EFF4
3DECA65F
3D12B052
3E0A68C2
3E48E581
BE1914C7
BD75A9F3
BDCC522F
3D96664A
BC414D48
BDDDC2ED
BDD12FEF
3E0857F1
3D7EDA10
3E1C230F
3D902768
BD39C00F
BD7B2566
3E4EEEBD
3DB9BA95
BD648FAF
BD5812A5
3E0054D7
3D8E38C0
BCA442F7
BDF8C2FF
3CC98D1B
3D4B1F08
BD411B3A
3E44F4D4
BE65136D
3DB95214
3CCE8B38
BE05C4AC
BDD8956F
3DBEC836
3D73482A
3CA0DBAC
BC3155F9
BE26AB7B
BC0D7F00
BD5751A6
BE1D353C
BDB8D541
BD41A158
BDFBC98B
3EB69B55
3D77DF5C
BD8927AF
3D763164
BDE24ACC
BC60A455
3E8914EA
3DA77C46
BD184A3E
3D61E8FA
BE04A173
BCCB1B8F
BC7693E4
BDC47068
3DE8ECF2
BE0831A7
BE30306B
BE1138D3
3E69F2BC
BB507021
3E0DB8F0
3CDC37AF
3E239931
3E0C7FD3
3D5327C7
3E3CC7C3
3D916FB6
3D4A06E0
BDAE35BB
3D73D541
BE350B34
BD4E8988
BD703319
3BAA1DC1
BDDA195A
BE35668D
3D532801
BD5F6CA4
3D8708F9
BE33A7AD
BCF4470B
3C83A797
BDD87DB8
BE100A53
BD9BE1A3
B7C149D8
BE1813AE
3D9FD4B9
3E473DF0
3DA0C4E9
BC569E45
3E4720DD
BCA4B1E0
3DB62E02
BBF76FFD
BB8344A9
3C045D7A
3D3C38BA
3D0856A9
BE0A95E2
BD4B7F79
3E226681
3D14F5E8
3D0D825A
3C4AB3A5
3DD4BBB5
3E4DC39A
BBC12DEA
3DF55BFB
3E1F5E3B
BE0E05C9
BD6F7F1A
3E44BAA8
BC3D8E0A
BE329D97
BE6A3EF2
3D0961EC
BD287EF2
BAB3655B
BE1EE9D9
BC8200B6
BD977C66
BDDDD3D1
3CD97862
BD77FF86
3DA0FA6F
BE027960
BD9C360B
BE0DFC2E
3E08B816
3E3A308A
3D857279
3BAC2007
BDB98D09
BD6DF7BC
BDD26680
BDB845F9
BD507F32
3D8F3C1B
3D0EB5F0
3E0BCA0F
3E4C42F5
BCF95049
3E1C2A0E
3D85FAED
3E04C8A3
3E242A5A
3D981598
BDD1BFB7
3DFF8ABF
3C739202
3DA56FE0
BD9A4AF3
BE0D1ADF
3E039BD2
BE1AFAFD
BE14D672
BDE64937
3E270057
3CD8DDC2
3E1ECFC2
3D97B791
3DA53DD2
BD6AB258
383259D6
3E2C8504
BC94F445
3DAC1538
BE25E695
3C6FFC64
BE67FEA9
BE1DD425
BE12AA5F
3DF04577
BE04A99B
3D22952C
3E6F0424
3D58C95D
3E3F9275
BDCBB471
BE41465D
BE2D96D7
BBACCF7D
BE237B21
BDB7636C
3AC7A207
BDE47435
3B4A0DA2
3E7B720B
3E46CF98
BCB5247D
3EA02355
3D079F9C
3E9F93C2
BD0CF4A6
3D6DA6D5
3DDCA0ED
BE225688
3D1E9F4E
BE308D54
3D5DD61D
3DD8D7BE
3DC45C4F
3DA774FA
BC99D0C6
3DDFBB10
3E945047
3DAB97EE
3E243843
3DEC751B
BCDEFA4B
3D78D2D7
3E441368
3E5748ED
BDD34370
BDC12CC6
3D5640DF
3BA67763
3D143F03
BD0CBFAD
3D317419
3CC5BC8A
3DAD2015
3E07CEBD
BE4501D8
3E3D54AF
3D4CA026
3D1FB3AD
BE357B96
3E9E461B
3E56ADB0
3E8F2119
BB1559FC
BE1E9F6C
BDA78746
BDE27A96
BE3DE268
BDADBB59
3E1373FA
BBD685A5
3E54F06F
3E787D41
BD83F49D
BCC55950
BD48E6DA
3D8B4A86
3DC363DD
BC60ED01
BD938701
3D04B18C
3D99D319
3D96E92E
3C5A4EC9
BDF2E9BA
3E0F7F4A
BE294433
BE0283C6
BD0ABFED
3E5295ED
3D951549
3CADF750
BD6DA9CF
3C43F3DF
BE24A8DC
BC954ADE
BDCB44AB
3E595314
3E1DA145
BD1BF490
BDF23010
BE5DDE2F
BD5E5AB5
BD94F59D
3E9B543D
BE0DEF91
BDC67A72
3D921A91
BDB83C5F
3E4B1E35
BD95FACD
BBBD7341
3CB49C08
3DA7A8E5
3C78DEFD
3C9A47D3
3DA448A9
3E1A0DFA
BC630367
3E2918DC
3E798A01
BCE45731
3E8D31DF
3D0201FA
3E4B8C83
3DCA36BA
BDA6834C
BBD157BF
BE306AFD
BCE359CA
BD88D244
3E1E4034
3BCBFD1D
3D7093E2
BD94C60A
BD8A0C01
BCF20395
3E39C599
3E1F5728
3E03F7FE
BE294A05
BDDB0ED8
BD451A52
3E70DC67
3DD37AC9
3E178EB1
3CA23FF9
BE7340D2
BD212950
BD01B613
BCD52510
BB6DB90E
BC89B003
3DC932FF
3CB32B32
BDBD5FCA
3E46BC66
3DA4BE1C
3E626B98
BE27F0C3
3E19AA7E
3E32CA0F
3D7D4827
3CE687ED
BDFF17B6
3D3A0228
3B5E7B82
BD9FDBF1
BD7B9507
3CA0DF1A
BD4DFEBB
3D9AAAC3
3D0456F6
3D0456CD
BE02F7CD
BDC0EEE2
BDE1871F
3E41B839
3DD96FFC
3D0F9BCF
BAFA6D00
3D85CFF3
BD890B51
BCD5ACB9
BD4E1CAA
3DBB4484
BE53C611
BDD4F5B2
BD2C1D00
3E47F54D
3DF97229
BCD9A18D
BD1A0367
3DDD60E4
BD79B562
BC15B776
BBF5155B
3D7D26FA
BD066132
3D2C5345
BDBA4801
BE07B73C
BDEB68F7
BC1AD16C
3E7FE598
BE02CECF
BDBF417E
3D31A5DC
BB84D965
3DFAC757
BE233403
BDEC341C
BD826369
3DB16CA2
BD85665B
BD728667
3DF89708
3E0D21DA
3C6D3C10
3E6E2BB9
3E772425
BE0B018C
3E072E43
3D30AF6A
3E31A38A
3D133C6C
BD1C747A
3BD7D8D2
3D2B87E1
BDFEE8B1
BE5BEF59
3E00FDA9
BDFA09EB
BD435374
BDCE1E34
BDE45F5F
BDB3A3A0
3E00A55C
3D2DC75B
3E815FE6
BDF24579
BD3D2AC4
BD5D6A52
3E2B7D31
3E0974C8
3E2A653C
3E1DD583
BE1ABC7B
3D58F538
BDF50028
BD08A373
3CE82493
BD5C78EF
3E38B3D1
BCB0F131
3C9D5A10
3E53F39D
BD837E20
3DE29688
BE48491B
3E2F71CF
3E2139AA
3E5D67C2
BD8413FC
BCDCEC97
BD8A3B9E
BDE617E3
BD7ECD7E
BE3F7250
BD6ED16D
BDB06687
3CEA4DBF
3D9E5D3F
BD99BF59
BDC678CF
BE150D1F
BD40FFB7
3E157BC7
3E6FA207
3E131EBB
BD86369B
3E76FA55
BC068A96
BDEDFD54
BD15FF3A
BCFFC44C
BDBB0227
BDFC56CD
BE089C99
3E1448BA
3DCD141D
BD95D243
BDC25367
3C329EBA
3CDDB873
BD0CF65F
3CC3FDD1
3D894BFC
BE016102
BD05DF6A
BB7C5FF6
BC37C7E6
BDD8EB45
BD3E25C3
3E4AE31D
BDDD4BCE
BE061FBB
3C9EB5B0
BCA651B7
3DBBF852
BE59895D
BE0CF061
BDFFE9ED
3E20791C
BCF90A6B
3D2FBA7A
3E4E46D8
3DF79D21
3DFDDF9C
3E51F084
3E53790A
BE01BB37
3DC77FED
3D9BBCBA
3E2AEB03
3C8D57D5
3D540C1F
3E278ADE
BDE05A3F
BE0BE050
BD5B0A7F
3DE7548A
BDAA6467
BB9FBF43
BCEC28EF
BD203C9E
BDF4E3B3
3E2AE9A6
3E155642
3E659B15
BDBEE028
BD956399
3B68C40C
3E28EC00
3D7F2D38
3DD362C7
3C44B44F
BC22215A
3DA6774D
BDC25E9E
BDAB0FD4
BD9FD04D
BDBD702B
3C70CBE8
3D1E2B19
3D0AD2AF
3D92B923
BCE6628B
3DBACFD9
BDB15BE6
3DBB0DE7
3B5A64B5
3D8297CA
BC50714B
BE0E6275
BD880D6B
3CB82C88
BD87AD7D
BE27F17B
BE019D34
BE439B10
BCAE8AF7
3DEFEA43
BDE2D3B8
BD8B3C15
BE0F799A
3C51F576
3DACBD56
3E1CABEE
3D3D888C
BCD27D90
3D88CC76
BD9CB282
BD347C43
BD8FEE19
BBAFAFFF
BE1729EC
BDF1A61B
BDCA3D1F
3D21E170
3D5FDD62
3D89C258
BDDCEE7C
3DF9E72C
BCAFC2EB
BD8FF549
3D1548AA
3D3F37BE
BDE54E02
BDB65F5D
BD7B2EAC
BD847CA7
BD84F57A
3D7CDAB0
3DE26FAC
BD63F7A0
BDEC951C
BC35C9B2
3D4FEC29
3E2775D7
BDE6100A
BDB827C1
BDAE3404
3DFBFA0B
BC854F41
BD31751D
3E26F600
3D1757C7
3DC172AC
3D9818FA
3DFE8791
BD5C0D0C
3DAC12A9
3D70A6C3
3D193C38
3DD956BA
3D24AB2E
3DC28F96
BDF9700D
BE5C8D6B
BD9C37D2
3CC38779
BD54C934
BDB05F94
3C116317
BDBE61B6
BD931F0C
3CBF9B62
3D1251F8
3E2BDAD6
BD8702BD
3D28B2D8
BD9B4306
3D8C2614
3BA206AB
3DBB75A6
BD897C56
BE371A95
3D87FBF6
3D14FA1B
3DB4715B
3D8F56B4
BD28A714
3E152A01
3D82CCED
3D8BD1E5
3E04C8EA
BD0DF9ED
3C864B78
BE026823
3E2203B2
3E1FF0EA
3E04DD63
BD5EB88A
BDABB917
3D644F18
BD8DD959
BDA74984
BDF54F15
3CCC3BCF
BD8F39E4
3D1E29CC
3DFCAF1A
BC9B7785
BC94299B
BE0FB8F8
3C143C68
3D0D446B
3DAECE01
3DD0F576
3DA5942E
3D8D7D70
BBA3ACAF
BD601FBC
3C7414C0
BC86E323
BBC6F341
BE0DBF87
3C011529
3DA064F4
3DC7A18D
3CD7A214
BDCEDCD4
3DED8C7D
3D84EED8
3C27B238
3D6F0120
3BEEA922
BD97BB20
BBC58ABC
BD912757
BDA4CA8D
BD99EF54
BDB1331E
3DB09696
BE2607FF
BE28B00D
BDCBF6F1
BD5FD385
3D340EE3
BE1AAFFA
3C043D8D
BDD08F31
3DC0C392
BD888B48
BD95D5D6
3DD9A090
3C0E9307
3C9E23E6
3C896F13
3CC6702F
BC8A7540
3CA04C64
3CCA3D9A
3D8A5F9D
3D807EA6
BCFA303D
3C61EAD5
BBC1248F
BD3C5A76
BCC83EFC
3D43D3F2
3D843C44
3D656A55
3CCD9E86
BC397878
3CEBCD7F
3DC27A18
3DB66EEF
3E027EF6
BDF4A475
BD349A12
BCD21752
3D623D42
3DFFE33D
3C808969
3C9EB3D7
BDDEE02D
3D34C711
3CDFF1D5
3DA4307D
3D73487C
3D55082A
3D5FE9F5
3D9839C8
3CFC9EAE
3C404831
BBE2431E
3D8B0DE1
BD9CD3BD
3DA43489
3D943E66
3D4FEBD4
3B1581EF
BD1437EA
3D8CD1E0
BD8B59EE
3CF40F44
BDA3562F
3D74DE4C
BD988DBD
3C46C15D
3DA7F222
BDA0239A
3D041E08
BD09E841
3D8DD07A
3E02471E
3CEF2620
3D0840A5
3DA55BA6
3DF36264
3D63D9BD
BBA33583
BD86A2EF
3DA96C62
BD88D4B9
BD5A5E65
395FB7C5
3DDB98B4
3D5C20CD
BC4604F0
BD2ED980
3C805CC7
BCBEAF6B
BC280FDF
BC7CC7B8
3DBA1CBF
BD51DE77
3C9CF4F1
BD768586
3BF2B517
3CFF3A2F
BDA6AE97
BCCBEB5E
BD55D409
B9241655
BC2ACFC9
3CDF98F4
BB6BA27C
BDF99F72
BDEB65CA
BCD0B524
3DDF8083
BCF7213F
3D5FFD19
3C017273
3D0FF553
3D8420D0
3C1E7E51
3E0A0E94
3CBD7588
3D61CB05
3D240FA4
3DBD793F
BC37DAB0
BD173EC9
3CEA6868
3C3AB798
3D066CE5
BD8C9927
B9808BAD
BC046532
3A8D7CE5
BDA46517
BD59D9BB
BD54CFF1
BC5877D6
3D14B099
3DC82C2E
BCA45C48
BD8A1BAF
BD8A7EFB
3DAA308B
3D20E6B8
3DF344E0
BD976B50
BD5F5C18
3C406190
3D4D71C8
BD874B9D
BD15CC02
3CDA2E5A
3CEAA304
3D02EB0F
3CB9938B
3D201219
BD911ACD
3DDF7CEC
BDC4A054
3DF2186C
3CBDC286
3DB48099
BDD7786F
3B7FB5E2
BC2E0148
BDA51B61
BC64CE69
BCF52DE8
BD5DC140
BB071B1E
3DA5AB9D
3DDE83AF
BCD1B00C
BDCDB9F6
3C56FFE0
3AD4ABEE
3E112A71
3D424970
3C8A39C7
BD1A84CF
3D22E9AD
3DD37D19
3CFA4EBB
BDC61925
BD325410
BDBBC7DB
BC71E77B
BD9D9465
3D333418
BD334FA4
BB85BB00
BD82955B
3D90F86F
3D93301C
BC9807A6
BC93490C
3DB0BC01
3D306CD0
3D11185C
3CE804DE
BE06D08C
BC4604ED
BD073FDE
3D91AEAC
BDE5E443
3B8E6956
BD60A516
3CAEA970
BC7C98F6
BDBF0C28
BC532EB0
3CC22410
BC829354
BD14C69F
BD977C14
3D7B42B8
3D9F29AE
BD4C6680
3A834F40
3CAD49E8
B9EC7F00
BD7BD0CC
3D0BE34A
BD9BDE6A
BCD444F2
BD388EFF
3C6D9C40
3CAC35E0
3B368500
3D849FAC
3D91D722
BC5ED700
3D877636
BC9F3748
BD9175A7
3D809CAA
BBA1E610
BD8BB077
BCA9FFF8
3D60401C
3C6891F0
BCEB3816
3C17D818
3D71E0F8
3D0C17E8
BDA77401
BBF98510
3C9F77B4
BD7C8C72
BD9D2878
BCEFF214
3D6D22B0
3C87B9DC
3D7368CC
3D797A60
BD96F1A7
3D669F84
3CD4E2C0
BD7D3EC0
3DA6DCAC
BCF1A434
3D8FF018
BD3D76D1
3D0862CA
3D254322
3D2E58D4
BCE63C24
BD65A526
3CDC9AC4
BC95C290
3CAD4444
BD2AFABB
3D528E84
BB4B3940
3D1976E4
BDA3C7B1
BDA21EFC
BC27AEE8
BD7C42B6
3DA4A67E
BD8C8424
3D9F06F6
BD301CFB
3DA1D13E
3D673168
BD2F7078
BD3F4AFE
3C536EB0
3D3F0828
BD7455C6
BB7C9240
3CB39ACC
BBD07950
BD5F6331
BCC6065E
3CA917D8
BD9E85F8
BD06B8AC
BD5A97F6
BCB9CE32
BD6A04CA
BC8343C0
3D5F1C6C
3C8D47A8
BC8B4F64
BD1135E0
BD9BE611
BD1100C7
3D0AC650
BC9B90FC
BD745BF8
3D5B1C00
BB7E7FE0
BDA5C125
BC8E59F8
BC3A5F98
3CF0AB9C
BB42C340
BCE035BA
3D7994D4
397EAC00
3D97F2B2
BD838A76
BD655AB2
BC9819D4
BCB2C178
3DA4A9EC
BCFB0C4A
3BBE5F30
BD073378
3D97C97E
3B8D3F10
3D18D9D4
3D8C2DE8
3BAA1C00
BC177D10
3CE3F558
BD2D942D
BCED694A
3B992B40
3D88130A
3D8DDF86
BD3A1128
3CA9F388
3D61EB2C
3CD30D54
BC8BE4F4
3D79E008
3CCE1608
BDA79E6A
3D323520
BCDA3932
3D916EEA
BC02AC60
3D9860EA
3CF55E50
BD8DD962
BD886A66
3D2F6240
3D14718A
3D71601C
BD0CCF71
BD05B723
3D797320
3C4879E8
BC9EB758
3D32AFF4
BD8A1D10
3CA3D5C0
BD7B723D
3D307708
3D7C2DC4
BCF9AC40
BD84D85E
BDA72668
BD5E460E
3B8882B0
BCB6AD4A
3B077EE0
3D859D98
BD31CE2A
3DA2DA8C
3CAC839C
BD98024E
BD8626EC
BD1851D9
3D6720BC
BD85E944
3D7C09A0
3D9A93BA
BB5182C0
3DA31074
BD3EC080
BC896114
3D033CE4
BD1B395B
3D25E2DC
3D1CE3F8
3B54B400
3D3F98B4
BC6ED270
3D97E606
3D676774
BCA1C18C
3C2A9EF0
3D7DB5D8
BCBCB5E4
3D84D64C
3D3BF450
BCE91176
3C6D5550
BD0CFBD4
3CBCBA0C
BDA7FF22
3D331158
BD119A92
BC743B90
3D992DDA
3D029654
BBB761F0
BD9D91A5
BD6FAF38
3D8D68AE
BD9D3D36
3CD09FB8
BC95C678
BC84BE30
391FC400
BD3DD448
BCAA4EF0
3BF7C930
BD9821F9
BB8F2810
3C311F30
BD8C1071
3D3D7C90
BD7E70AB
BD2E5D08
BCB34ECC
3D031FF0
3D1DB778
3C4B40E0
BC6A25F0
3CBB3590
BD58B379
BD7AD925
3CE02960
3D8D2C32
BDA0F77D
BD803036
BD3DF781
BD977DCA
3BA4FF10
3D7D6C70
3D547A68
3DA888FC
3D550C5C
BD507E96
3CD1C754
BD46DF84
BD9E47A7
BC180008
BD583406
3CF37224
3D92EDEE
BD47F726
BD1FC1C0
3C63A758
BD95402E
3D2CB8B4
3CD3CB58
3D1DA194
3D7ADBCC
3D547B8C
3CD899B0
BC966D58
3D11BE88
3D0283E0
BCE5A882
3CBBFA38
BD9ABCD7
BC23B9A8
BD84AC97
3CA2CE4C
BD5F3922
BBFFC060
BCDF0590
3CC51D2C
3D9962DC
BC7CB8F8
BD9111E2
BB47DA40
BCE603E0
3C121998
BCDC0BBE
BD95096A
3D9AB9B8
BD5CE1DD
3D478E10
3CCBC85C
BC8B31F8
BD70DC81
3D970066
BD386EC4
BCD4E20E
BD34B0A0
BCFD5470
3C501FA0
BD910DBC
3D30C828
BBC6FE40
3DA1DC06
3C8B5CDC
BC1DB620
BD894515
BD310170
3D20A8FC
3D7152C4
3D2E0AB6
BD95EDC2
3D9B033A
BCB7EC68
BD6F67FA
3D320A18
BD2C31EC
3CD084E8
BC0C18B0
3C155BD0
BD87C9C5
3DA0E4E2
BD2A8073
BC81B744
BD723651
3CFB494C
BC9DA7F4
3CD6A4C8
BB2EB9E0
3D70634C
BCE4750C
3C6B00F0
BD9BB34C
3CB77058
3C03C0B0
3D6E3C9C
BD871186
BCD6EA7C
BD6DF588
3D91A896
3D6DE690
3D1D9276
BC8C12C4
3DA271FC
BCE43C3E
BCE20F70
BD43A005
3DA20C34
BDA8B1D1
3D3303E0
3CA7EA3C
3D945E28
3D9BEB46
3D8DCF1E
BC439B90
3D84351A
3D45E350
3D694134
3CFDB5DC
BC7EBBE0
BBAB9AA0
3C3DEDE0
3D634BD4
BD2CC88B
3DA0F702
BC96A63C
3D627CF0
BD8EE021
BD1E4CCB
BC5396E8
BD60DF27
3D159B92
BDA33E11
BC91F6DC
3D894048
BCC7C3DE
3C15AC10
BC2657B8
3BBBB430
BD616128
BD2745B2
3C236D38
BD29BA56
3D049124
BD3C0F6E
3D863336
BD1EDFEA
BD70530C
BD2220B4
BBC62960
BD030E83
3C5F3A60
BD83559C
3C1AC4A0
BD5ED922
BD89487D
BCCC8A56
BD08D062
BB00F2C0
3C092240
BDA551BD
3D8C30FC
3D3AA1EC
3D39F740
BD2969C3
BDA6ACF6
3D9DD0EA
BD2FC913
3B78A040
3BEBE6B0
3D9851B4
BD211F4B
BBC7FC80
3D7FB180
BD4697B7
3D579738
BCF29014
BD746FA4
3DA70A60
BD2463C0
3AD6E980
3D9580CE
3CA4777C
3C466A20
BCB5E8D8
3D8857AA
3D0D7CE8
3C4C7970
3D7E09D0
3C5F6DA0
3C4846E8
BC88D47C
BD52A0E2
BD9024D2
BD063FBB
3D698688
3C8AB2D8
3C497628
BCBAD8C2
3D8E95C6
BB57BA20
3C005E50
3D933110
BDA85B03
3CB29FB0
BDA77E82
BC9BD0EC
BD21C484
BD16FDA9
BC445518
BD239BC7
BCD3CA06
BD3EACBB
BD877B74
BB54F7E0
3CBEEA24
3D894A30
BD6445AD
3DA06DCA
BD155B98
3D1A0B9A
BD804A36
BD8F909E
BD77F432
BB3D76E0
3BBA7310
BBCED550
3D87FF40
BC86C960
3D8EDC08
BD2CB0D6
3D810A58
BD2BCF88
BD0B1A0F
BD8903C2
BD991A72
3CB3B440
BC7BEC18
3DA495FA
BD754D90
BD2B9EB3
BD01F973
BD59A264
3D33FF34
BD06A00F
3D5230F8
3CEBF650
3D579188
BC88B804
BC52C8A0
3CCFD048
3D3CD0A4
BC9B4F74
BC15A410
3D368FC0
BD8B8398
3CB454E8
3A5A4280
3C0F0A88
3D855852
BB13A660
3D921D64
BC0DAD20
BD4B7123
3894C800
3CE1D618
3D38165C
BD1A3B47
BC701648
3D6D9D8C
BD83EC16
BC603820
BD1744F7
3D78DCC0
BBFD2C50
3D5554CC
BD51FF73
3DA158EE
3D0A3712
3C562798
BCC5AA18
3D603F68
3D875EE2
3BBA5630
3D740120
3D3E9298
BBB6C290
3D2CA834
BD5A9DCA
3D960DA4
3C8DECEC
BD065D3F
BD00DA21
3D86560A
3D9300B0
BD54574C
BB175E20
BD85081E
3D15D40A
3C338A28
BCEBE82E
BD9D3EC9
3D8DC03E
3D82262C
BB3C6FE0
3D206904
3DA47324
BC0C3F18
3CCB6688
3D9A8044
3D757CA0
3C255838
BD665574
BCCEF790
3A774A00
BCF4AF7C
BD3F6E6B
3C396458
3D59B6D4
3C8FDBBC
BCCDFD32
BBECD810
3C3EEF30
3D686CEC
BD63E5F2
BC535440
BD965C7C
BD2CD7E3
BD80067E
3CD5D75C
3D900F08
3DA138A8
BD9226DD
3D2411B2
3DA27254
3DA746C6
3DA37CA4
BCBDCBBC
3DA5CD2E
3A4F6280
BD9CBD41
BC5C0610
3D2D0E3E
3CCA451C
3CF6D044
BD00036A
3D055184
BDA38763
3B69C940
3D612FF8
BD7F2F3F
3D59F688
BD9F08C1
3D746C08
3D797D20
BCA9B176
3C0993A0
BD046D0F
BBB1AFE0
BD8104F6
3D6A5C00
3A198500
BD222A28
BC128578
398A5265
BC8D1B4C
3D8E3F1D
3D1B405B
BD8D2808
3D0A3EF2
BC4CB77F
BD9E6CC4
BD48714F
3CB074CF
BD11110D
3D26253E
3D647FF8
BCBDE794
38B2F000
BDA195A2
3C35606D
BDAA5E26
BD82B426
BD4FBA7E
BD1B9C57
3CDC3164
3CD7226D
3D32D4BB
BD42DFC5
3D8BBBE4
3C14F910
3C3E2878
3D42FB20
BD72A9F5
3D283252
3D72485B
3D9EBD3E
BD7A56AA
3D2834A3
3A9AC740
BD035B3B
3D97D327
BD9D5085
BCAF2CAE
BD960098
3D633988
BD48AA57
3D5BD54E
BD71BEEE
3D22D982
BD8880A9
BB95CC37
BBAC0CA7
BD382E58
BD42EA66
BC489760
3D8D9E7C
3BAAB4F0
BB7A6560
BD7655D3
BC7FC430
BC98FC24
3C81A9CC
3D16D2B2
BD1B9A5D
3DA66C58
BD8A486A
3D819D23
3D6E4538
3D97FD1E
3D4E9D37
3D4BEDC8
BD50A776
BD50F1AB
3D39EBD8
BD6DF097
3CBD7135
3D52D09C
BD9F7EA6
3C99C6A4
3C196BFC
3C07B0E8
3DA16FEC
BD27D4DC
BD15CB54
3BC3E980
3D7BB950
BD97CBAC
3AA97CB3
3B1FE060
3D86A6BE
BD7FE8CC
BD8DA238
BD938CF3
3D4B7DA8
BD58026B
BC43E465
3D3622DB
BCE9299A
3DA3F7B4
BC3899C0
BBABC977
BC9A84E5
BDB9F7D5
BDC7A603
3D389030
3D0FCE96
BCC6A232
BD83331E
BD89F365
3D6A28C0
BD15F384
BD10E0F1
BC39535B
3DB85634
3E09A25C
BBDFD161
3E1574CF
3DB6523A
BD2A72B8
BD46F217
BD1495BE
BDB6C0DE
3D690099
BD3638D0
BD1E7384
BC966DBD
3CE64F6E
3CA50A04
BD230D9D
3DC4D168
3C2B3C3E
3C4A3980
3D11C6BA
3D43CB6B
3D84ACA1
BDFCE237
3E0C5674
3CA3AC79
BD23DC60
3D666070
3B2C01F2
3E37D426
3DA67518
3E1F940B
3B19B8AE
BD448719
3BD5EBD0
BD660719
BD0B955B
BD9EE359
3C9C324C
3E289060
3E18E742
BE056CD7
BD8F0937
BD72AE20
BE06997E
3A2745C7
BD99598C
BCF991AF
BCAFEA64
BD1D3B76
3DA5B6EE
3C377DE1
BDCDF495
3D723C11
3DA80F03
3D9AB1EC
BC8B9E4F
BD69271C
BC8C6470
3DC757E8
3DE89C9E
BD3A409D
3CF6094D
BCBD8801
BD06CD3F
BD49E25F
BC299A3B
3D3228B0
BD1C415D
3E01B8A6
BD2CB1FC
3BDE7F9B
BD7C6AB6
BBF40ED0
BD6CF9C9
3DCAA140
BCB0C662
BC387CCF
3C5D5A10
BD6EBAA2
BDABBE43
3D68E9E5
3CD9D629
3E1BDF63
3C5D5FB3
3D048588
BD55AC89
3E266DD9
BDB80392
BD80CBA4
BD840F22
3D82ACE1
BE00323D
BD25A0A0
BDA01051
BCB0103A
3CBDFA3B
3D47C4DD
BD07CEBE
BE14FDE3
3D9CFEF9
BCCCA6C4
3E3418B7
BCA5CE8B
3CF6951B
3DD2E57F
BD67A6A4
BDCF06C7
BD99D64E
3C591E25
BD18913A
BD206556
BDA8B661
BDAEE7D9
3D8B3098
3DD50CA1
3D94FF58
3E23D54C
BD2BA344
BC522650
BD8D3623
3E23830E
3CC00F73
BDA5E412
3DAFBF7F
3D2A1E85
3D991A2A
BD370B98
3BBD56D8
3D66DC45
3DB53C18
3E4D1B34
3DD53711
BD26147D
3DC9C92C
BD494CD6
BD6806E4
BDEF077C
BD27EFCC
3E266DD9
3E1F9951
BD071F45
BD86DC30
3D894788
BE049267
3BDB4FC8
BE3C1955
BB2929FA
BD913A1F
3E17E743
397E95F3
3CC05002
BD5CE8EA
3BD79716
3D0B5403
3D521C92
3DE70EA8
3D55384A
BC936190
3E2689BA
3E1EBD3C
3C8C6D2A
3C7DD52A
BCFE61D1
BCE7C8E5
BDDB9262
3C198DB8
3DF87B98
BCC12D7C
3DED383B
BD148108
3CACD74C
BD68C245
3DB1D767
BC82EF78
3D3429D1
BD747AEB
3DEF89B4
3CCCA7A2
BDBCA068
BD5348F2
3D0AE352
3D03D147
3DA8F11E
BC30BD99
BDA4F87F
3C08E67B
3E43267B
BD652895
BDC48AC0
3C2488E5
3E451C48
BD851793
BD30C106
3D61CB10
3D81D84C
3D53D83B
3E0E9157
3E02A599
BDA6A829
BD148CC7
BD612EEA
BC893A15
3CB8EC27
BD4FC03C
BCBF7547
3CAE95C1
BE201A11
BD7741DD
3D0877A5
3D9F1FC1
3B2130FD
3C551497
3C50E0AA
3DB4716D
3C4CB9E5
3DFCF85F
BCDB487C
BDB6CF8A
BB825FC1
BDA088B7
BCCD0B1C
3D78F0B4
3E0E1C6F
3C6C3DAD
BDFED8D8
BD296BAF
BD023EBE
BD0B4542
3CC0AE17
3CA71405
3CE23CA8
39BC5551
BD25BCAA
B98641B1
BDDC309C
3E25A0DC
BE04D72C
3D832A00
3C7E355C
3DDF1BE3
3CA3DB9D
BD0A7BED
BD6E7084
BD3ACAE1
BD419A2D
3BCC8E39
BD20B154
BCB7B682
3E1D5ECB
BD885DE3
3CC7FED2
BE0C4BBD
BD0F21D5
3DE3BACA
3DFCD97D
3DA42D9A
BD6E8B65
3CF7D540
3E3F3A34
BC52C79E
3C58EC3A
BD418138
BD827FF3
BD4D8CB0
BE05EDE7
3D0AA02F
3E477959
BCF615DF
BD8615C9
BDDD1931
3D9AB6F4
3D3777CF
BCA07F47
3C18FDB8
3D4BF904
3D3B436C
BC17603F
BD3A26AD
BDDF8B29
3D83DA40
BDD9DBB0
3DAB5C6D
BE0DBA95
3D87E8F1
BCC406EB
BD46C075
3CC34E8F
BD2A2E62
BD917CE5
3E12FB7E
3DB369A4
BDC58A34
3D920CBA
3C16B48C
3D4FBEF9
3BDA4865
3E00A752
3E1BC49B
BCEB0318
3CF79227
3C9E820E
3C29296B
3C91C608
BCBC8824
3D04DA81
BD027D83
BD82EAA7
BDAC36DD
3CB1676A
3D14737D
BBEC545A
3D2760EF
3CD5CB5F
3DD3023C
3E31AF08
3D682D42
3D143551
BDE7FBF6
BD7D440C
BDC55B0B
BD34DDC9
3E03AD0A
3DD80166
3D84F298
BE291B5C
BD9AFC65
3DF0DA05
BD99028B
3D0F268B
3E024DAF
3DFEB480
3DB3BBCC
3CBD2794
3BF36447
BDF87F95
3E268FEE
BDC6F12D
3E1E2F0F
3DB0A2E6
3D07447D
3D640EFF
BD17759C
BD9E3A4F
BD157FA0
3BD8CC29
3D99D616
BDC075B7
BDE2A347
3DE7D330
BC96A1E4
3D97E548
BE1631D1
3C68E9EA
3C024EC5
3E262F55
BCD6442A
BDC38B12
3A72C112
3DAD2673
BD4794B8
3CDE6A76
3C776A12
BCE044E3
BD73AC69
BDA615D2
3BBB64A6
3E0F3B9A
BD917789
BDBC20E9
3D4D17BD
3C17BE27
3E046958
3D3D9A71
3B555BC0
3D1EA852
3DBD0B61
BDAF733E
BC002203
BDDC640D
3CAE5240
BC3C1392
3E5F5E53
BDAE113D
BD9323FB
3B860417
BD3B41B4
3D4622D0
BE19143F
BE271BFC
3D6A5CBB
3CC0C9F6
BDBD9B5D
BD87E9B3
BBB8D394
3E088F32
BE029CE7
3D0280FA
3E0183BF
BD28D7AC
3E0216FE
BC13FBA1
3B0443BF
BC1D1577
BD8BD056
3D12DA2A
BD48B0EE
3D0C67F6
BE44E3C1
3D8DB807
3D616F42
BD806DB3
BD96E767
BD1F7F83
3E53EC39
3E2DC105
3E1F3138
3CD08F2C
BDBF8ADC
BD90795B
BDC9D207
3E315AED
3C96BF68
3E0DEE25
3C648A64
BD89F2D5
3CB49335
3BA2CA55
BE193951
3DA41801
3D93BE0C
3DE55F33
3E32F545
3D4D9076
3DA1ECFE
3CB99849
3DE1B0F0
BDAC399A
3E5F044F
3D56B975
3D83567F
3DD86B40
BE23257D
3CE65D6C
BD2BABEE
BC552290
BD74F000
3D38BE26
BDC66E6F
3E80F661
3DB1807D
BD1ED602
BD96E55C
BD161B11
3D3091ED
3E75F149
BD1CF859
BCCC9281
3D07599E
3E26AE79
3C80B723
3CB18E56
BDAE8A1A
3E304DC9
BDEB750C
BD3B93B4
BDC6F9D9
3E4ED990
3D60A0D7
BD48CF19
BDEC8ABA
3C8B128B
BCCB8792
BCA50026
BD81DD7D
3E3BDBB2
BDA82414
3D07DC66
3D52DC7E
BDC7DBD7
BD65C5AE
BBD4001A
3E6A5050
BE35F33B
BDC6EC20
BD90AF8A
BCD2041F
3D4E2311
BDEDBBA0
BD646082
3E47E6E8
3EB1E92F
3C08BB5F
3D86E8F5
BCF045EE
3DA67673
BC3AFDCA
3D11F25C
3ECA3460
BDA4A1B8
BD84673F
3C8524BD
3C230CB9
BD5A4B2B
BCB57437
BD828C0C
BDD951AB
BD8E66E3
BE764AE0
3D8EDBA8
3E2E1940
BDE43246
BCE763CC
3DF21BF5
3E86A5C7
3E295579
3D9EE97B
BC43748A
BE0CFF27
3BF48636
BCBC2A5D
BDC8CD1C
3B715D60
3DF1F032
3D30C8B6
BE1656C4
3D9420D9
3DC6233A
BE0E43AE
3D95E4A4
3E88819D
3E02E8D8
3D3CB21A
3E1BE842
3E4CB1B5
BDA80554
3E89ED3B
BDB5537B
3E97595E
3E5E8540
3E5DAB7C
3D40BE3D
BE6D6EA3
3CD1F6E8
BD5E91DC
3CE11C26
BD2D4FFF
3CD1FBAC
BE073A82
3E40CCB0
BCB8DE91
3C0DD0E4
BDC427D1
BD53F6F2
3C34FC80
3CF3C131
3D3F3A24
3DA970BB
3D9FD472
3E8133B9
BE22FC53
BE21C7DD
BC43053F
3D9BB1A6
BDE01EFE
BE9348A6
BD9084E7
3DFF109A
3D49E57D
BDD56974
BAC80F3C
BD84D6A6
BD480423
BC096EDB
BD88DC73
3DD13BFF
3E2572E7
BCBC3119
3D9A2189
BDB417CF
3C1A117F
BC9F2AF3
3EB92D5E
BD3CA122
BD97DDB2
BB708B2D
BD757D21
3DBDDE67
BD78E63A
BD480EFF
3DF34F4D
3E894124
BD49E6FC
3E001D27
BDE0BD39
BAE6F827
BDA5394E
3BF627C6
3E94A43F
BE3E4D17
BD18B184
BD5F071F
3CF07364
BD8AE45E
BD27F433
BE21A748
BE135D75
BD679930
BE8FED4F
BDD02494
3E271165
3DF90981
3C05EF9C
3E1987D9
3E3A7E86
3EAB946D
3E121091
BC2F11D0
BE514655
BD8B51D1
3C49EC8E
BD8DAFA5
BB90120B
BD1F398D
BAF83510
BE8F7D5B
3D4A58D8
3E7358C9
3BA76101
3BFACBBA
3E429240
3E170CEB
BCAF0ADE
3E02C457
3CED9E9D
BE258EA7
3E35FDC5
3E037C76
3E9674BC
3EA3B180
3E0E3468
3DCB7469
BE25A6AD
BC9C77C0
BDA8B0DE
BDCE4DA5
BD147515
BD7E40F4
3D026321
3E5AC031
BC8A5120
3DDEE890
BDAA3BED
BE11528B
3E852CA5
BDDB2C1D
BE1B6485
3DD9D4EE
3D89C720
3E8682A1
BE5CF305
BE03EE34
BDFB71ED
BD373E83
3CC4DA0B
BE33ED36
3A6D74A8
BC358A2E
BC9AF8F7
BE495F3B
3D031FEF
3B91D415
BDA187BA
BBB13551
BE1B442E
BCD341EC
3E161E79
BD86A692
3E1DD5C0
BBD4DA04
BE048251
BE582B2D
3ECB09C4
3E2871AC
3D20DE20
3E0583E4
BE229564
3DD3EA4A
BE0E4239
BD329D85
3E5DCB43
3E7A5C8C
BD984462
3E201EB0
BE0386CE
BAC9BB46
3E22DD3C
3DDD876B
3EA5BB5A
BDE3ECCA
BBA09670
3C0C4204
3D46215B
BD5BF24B
BD8F5897
BD5B48A7
BE05752C
3DADEC6B
BDCDEB4F
BCF01307
3E580B33
BCEC5237
BD8FCC8C
3DDD1B49
3E6FB2CE
3E94D074
3DE8D9EB
BE1179C2
BE800D5D
BDE9CD75
3E394E1C
3DE9091C
BCD356BB
BD3F4173
BD88820E
BE36CDF5
BBD36FB2
3E3BA83D
3D691005
BD79ED92
3EB0F408
3BCCD27E
3E10BD14
3ACC074D
3E38E3B2
BE4917C4
3E4FB976
BD87C416
3ECCFA01
3ECB755A
3E87C450
BDCFB6C6
BE63818E
BD4DB9A9
BE0DF85B
BE37F4E7
3D90930B
3DA584FB
BD097881
3E5518EA
BD5A96F8
BC549AC4
BB18D71D
BE2DEF79
3E1FFD58
3C995107
BE1564A9
3E597BE0
BD2F6AE7
3E3822FB
BD08FC17
3CD69400
BE3DBBC5
BD972CB6
BDF322C1
BE1CBE9E
BAB5C55D
3D7947CD
3DEA3BCD
BAE06546
BD223194
3D9463A6
3CA61521
BDFA721D
3CE87F46
3DBFA912
3DA6CDFA
BDE7D0F8
3DA6377F
BB841302
3AD13780
BE8DC171
3EA9CBF9
3D5C73A9
3DE4B5DB
3E562545
BCF27EB2
BCECAC4C
BE2E0BED
BDA4141E
3E349A92
3E987253
BD40D5DE
3DA1F45E
BE112A88
3DF89B2E
3E597506
3E01707C
3E9AB97F
BDF0C6EC
3D154181
3C41BF18
3D111BBF
BDC5D017
BDE43560
BCF4A9AB
3DA4B1D5
3C3DDFA8
BE85CC91
3E0B251A
3E6781C0
3CCD1823
BD76A8CE
3E50F36F
BC2F7F08
3E7A0DD2
3D93E30C
BE3ED399
BE365B9C
3C428182
BC0EA32D
3E41DC14
3DDD4F32
3D8A54E6
BCB01DF8
BE47BB8C
BB58730C
BD1B3A7F
BCA18E6F
3D8A66FC
3EAC1B33
3E0578CD
3E9E9B1D
BE163DEA
3CFCD178
BE0B430E
3E1DD9FF
BE6F61E8
3E8104B6
3EACD766
3DB44DC9
BE195903
BE779705
BD8E9051
BE2D280C
BE4219E1
3DE4D06C
B9C7FEEA
BE0984C3
3E9E3C80
BC79C326
BE23AB8E
3CF581C5
BE488321
3E46842D
3E63A99A
BCCA33B8
3DCD157C
3DA16512
3E9DD61A
BD9211EF
BD3EB0EE
BDB52389
BC41B6BE
BD963B2F
BD95D53A
3D728204
3EA665AB
3DCCF5BB
3D402581
BDFD0A50
3E1E697E
3DB7BAE5
BD5C4CBF
3DCA3BDB
3E862E63
3CC48B98
BD881686
3E1D557F
BC96D21C
BD010DDB
BE1734A7
3E81D22A
BDE82EAA
BE04A253
3D8FA3D6
BDC2E2BF
3C1CD545
BDB8D2CE
BDEB7BDE
3D1E9659
3E06805D
BE1574A1
3E1CDE34
BE0D29B7
3D818195
3DD41781
3D3E1253
3E2AB30D
BDF18DD1
3B1879FD
BC2876E4
3D9F2BCE
BD0BE466
BE157AB1
BDFC1469
BDC69E23
BE074D9B
BDFBB321
3D4FB6C5
3D67932E
BD189958
BE00D2D3
3DC887E6
BD5CB02F
3DB5AA50
BDC2003E
BEBCC9F2
BE7411CA
BD8D9291
3C8F7E99
3E3EAFF6
3E0DD108
3D91AE51
BDC45EE6
BD33B8D3
3D264157
3DFD2810
BDF1EBD9
BD8EF455
3E55720C
3E111FD1
3DDA7BD0
BE08A55B
3DF2EEFA
BDD6F79B
3D86A476
BD7D2A24
3D4310E5
3E8FCD98
3D2F98AC
BDE20B38
BDC1FDF7
3C96FCB7
BE030C13
BDA839FD
3D24FFF5
3CD3EEAC
BD359502
3E5379AB
3C09E29F
BCDBE17C
BBC69F5D
3C8670E4
3E3048B9
3D91EA18
BDF6D036
3DFF9D53
3C2ECB7C
3E2AA33D
3CF3005D
BDAFD5D0
BE086D23
BE011B99
BE904506
BDD0A8C5
BD019AFB
3E0FE80B
3C972F8B
3CD08E49
BDCB2C37
3E36A32E
3DACB9D9
BDB5A83B
3C9635A8
3DA00848
3D45B172
BDF13765
3DAB13FD
BCD2D65D
BE075C6E
BE93CC5F
3E98D403
BE151CD7
BDAAEA7B
3E51368A
BE28702E
3DA1BC5D
BE16F570
BE2E91FE
BDCAEE09
3D88C0C0
BD70EC7E
3E3CEC7A
3D9658ED
3D7B5322
3DB97BFE
3E506C42
BDB40E2A
BE3B3DFD
3DD8A570
3D9F680C
3C38525A
3D34AAA7
BD195167
BD0E7223
BD6836C8
BE075267
BD49D2A3
3E04D5D2
3C8D092E
BD6DBB43
BE2F414D
BDAF1390
BE57B5DE
3E247D47
BD5BC40D
BE9C15CB
BE3FE3C1
BDF9F9E7
3D9404C1
3DAECE48
BC5197E3
BC7FAD6A
BE47C1BC
BC8C1708
BD636589
3DB6D83D
BD706450
3C49E1B0
3D9B4268
BCFD8DEE
3CA0F770
BCA38E82
3E56994E
BE0CA4BF
BDC0A835
BCD80C17
BDD57A1E
3E88B13E
3D64EF56
BE56D052
3C591053
3C776526
BE356AB6
BE3AB896
3D635735
3D39ED35
BE485A44
3D944583
3E15FBED
3D1CD221
3D97588A
3DBBB154
3E34D4B5
3D9BAA06
BD572B30
BDCA6145
3D6C43E3
3E55AD8E
BE00E93F
BE140943
BCDE4E70
BE1822F3
BEC7202A
BD68E10E
BD9222B0
3E4C4B95
3D3497C6
BD95C520
BDB0369E
3E918DEC
BDA7060E
BE58016C
BDEB9008
3E38D4DB
3CA3DDE7
BE28F74A
3DAAB57D
BDA974FD
BE9AB022
BE9517D7
3DDC7613
BE04781E
BD55601A
3D89DAE0
BE379F95
3D9A83EC
BDDCB69C
BE885A1E
3D12867F
3E3C5516
BE10F9E2
3E508D5E
3CE77C10
3E16AD9A
3DD9B74B
3D6950BD
3D38E67F
BE8DB571
BBF3297B
BD9A2480
3D226E17
3C97BEE6
BDAD04CA
3E114C96
3CCADDED
BE0C3A6E
3BA5FE47
3E33FF42
3DE68013
BCE7E766
BD2F23CB
3DC61589
BD945261
3DD511FB
3D01DE4C
BE0C7D41
BE20CF57
BE025541
3DF05DAA
BC40CC48
3E082FF8
3DBB3A84
BE78471F
3A221D24
BC9BC9E4
3D433C00
3C987229
BDE7C638
BDBC85F4
BD0B4DFA
3D29057A
3D6E244E
3E47121D
BDDA4973
3DA22BB2
BC4BEC0B
BC6CB4F2
3E4CA030
BD8708D0
BD243561
BCFC2D00
3D78EAF8
BE7CBAA6
BE542370
3E5D5C28
3C997501
BD36A9A2
3E636B64
3DE329C7
BD1998BA
3DB5E6BE
BC6619DE
3E2F8931
3E6A905B
BE2929EA
BE08B4CC
3D71816A
3E20FF36
BE1ACD6B
BDB807A4
BE08D7C8
BE533E30
BE9FB6CA
3D8E48D2
BE13F102
3D27EB9A
BBF0E9BC
BD808DA2
BE6458E2
3E7F42A2
3D7931D8
BDA12827
BDC8029E
3D667A0F
3AB4C00A
BCE22596
3DAD085C
BCA08565
BE60593D
BE50596A
3E24EFB1
BE31C533
3C8B5E11
BD72575A
BE6F9C5D
BB9D4D31
3D48BB2E
BCC6131B
BD69272D
3D20E61B
BDAC9613
3DB526B4
3E4BB3D1
3D235C8E
3E09F09C
3E6184B7
BD23B6DC
BE868FD2
3E47F267
3D8A38D6
3D2E6F0F
BDE22755
BDB11CED
3E2E9709
3E33B2C6
BE1B6A64
BE7DA402
3E418103
3E3926BA
BCA3E9AB
BD7C7530
3D1838C5
BE2B3BB1
3D879DDF
3DCB4E2B
BE09A9F7
BD25C9CF
BDDA136B
BD8F9898
BA8478D5
3E628C92
3DAB1D93
BE0E6FE9
BCEAF013
BDC05E8D
BDB1963C
BDC16C1B
3D5B091C
BD35B236
3CB4DAD1
3DCBE571
BE2CA859
3DB42B89
BC66AF30
3E4984C7
BE137EFA
BD198F69
3D920095
BDA27E39
3D80EEC1
BD8BB159
BD11EB62
BE46DA69
BE3E765F
3E32BB07
BDD0EE38
BDE72E21
3D37D84B
3DD352B7
3C69C3F7
BDB5005A
BE1A78D7
3D038DC6
3E57BA08
3AB628F9
BE576942
3DED280C
3DDC6458
BD946D25
BE293D3E
BE451ABA
BDD409CF
BE93A8CC
3C859AF2
BD25DB46
3E65DDDD
BD815B8D
BDF02F01
BDC1822D
3E5C734D
BD563FCF
BE11DE88
BCE9E927
BD63E5A6
3DAC262B
BDA55435
3C9262C4
3DB30F93
BE816169
BD3ED266
3DB025D8
BDFED7B4
BD699FB7
BDFD2B3F
BE44FB66
BCFF6E5F
BC753929
BD9B6C0C
3DBFA679
BD488215
BD92995E
3CC19C99
3E08F4B0
BD5D4B25
3D18126D
3E75757A
BD96DF77
BE8957D6
3EBD4E7E
3C5456E2
3DF31605
BE11078F
BC0C3ADE
3E6AF724
3E2DC741
BDE36BC0
BBE237DC
3D95CD1E
3E858ACC
3D66D83C
3CD9E57A
3C34CAE8
BDA48739
3DBD9886
3D7E099B
3C9547F4
3DA46A49
BDF74474
BD29744D
3DD91115
3E4142FD
3C584D03
BE339224
3AE3BF7D
BE69BDA5
3D1E0AC5
BDBF5F69
3CC1E0F9
3CCFB4D4
3DD671E2
3DF85AA7
BE42E39C
3E411455
BCAF15ED
3E6E6062
BE4EA7C1
3DEBA96E
3E56291D
BE1F8DBA
3E085941
BE1D18B9
3C028975
BE5918C4
BE67BDDD
3E051F9B
3D8881C0
BD63B588
BD04AD3A
3E8716F1
BD9F3335
BD018297
BDDDBD29
3D42B40A
3E068D8C
BC1F0BA8
BE6A01FD
3DA87B3A
3E3F8EC3
3E0FCEB6
BDF4C9DD
BE2FCDEC
BD318C71
BDDBBEB1
BE58DC69
3CBB3713
3D7E7CE2
BD9D8F2E
BAFBB794
BC964B71
3E968219
BDE4E885
BE050A2F
BD30CF59
3E0AAFE9
3E229210
BCCEEF2C
BC727166
3DE745C5
BE717B35
3C418BB2
3E349F0E
BE2DCB50
BCB6F0BE
BE88B5A5
BE1A7EE8
3DB7F8B4
3C06A2B2
BC0CF26B
3C5FCF4E
BDA4884D
BD9903AC
3CD886A7
3D7C58EF
BE224A80
3DCC3D7D
3E395396
BD042976
BE56521C
3E9E0D51
3DA4A73B
3CCC12FB
BDB5944D
BB37CEEE
3D751D56
3CDBC225
BD0893B0
3ACBCBF7
3D2A7F76
3E461470
3E0E7514
3CC1D0DC
3DFA1BD3
3D93D547
3E1F1589
3E504CB4
3D025515
3E2681EB
BD18B0DF
BDE0843B
3D68B59A
3E227BBA
BCF7F7BF
BE43D23C
3C8A7DD1
BDAB6AEF
3D4F620A
BD47A4E5
3D86C40D
BD81A8CE
BDA472E5
BD806460
BDFA7879
3E3D3985
BD90EC2F
3E64BDD1
BDD184BE
3E300ED6
3E486839
BCF3D8F6
3D6DE120
3DC3EC3C
BD94B897
3E082A63
38A4A569
3E671DB9
3E116D38
BC9153B7
3DC4E09E
3E97DCC1
BD864307
BE470CB6
BD71DC52
3CC05C48
3DBC1C2F
BCC7839F
3BA42FCD
BBD83633
3DC142CC
3CC22DC4
BDD42C1C
BDF03392
3D8D6704
3B939656
BD400A89
BD7CC9BA
3DC956F8
BE2168C2
BD954271
BDB60EBC
3E6E5DC1
BD1875DC
3C4268DC
3CC66D50
3E25E664
3E381525
BCAF031C
BDF84C83
BD125F11
BD79741E
BD4B6D35
3DEC721B
BD9BE7FC
BDDDAD97
BE05FBBF
3DB76AAC
3D52381A
BDAD610D
3AE0B479
BDD3C9CD
BD67A5EC
BE52349D
BD5E66C1
3DB29E50
BE14759D
3E534E62
3D688739
3E0269AB
BD4949BD
3E208F90
3D9F5556
3E33F4E7
3D413E91
3CB233B0
3E0FA19F
3CB822FE
3D809D4B
BE03D4CB
BC86E344
3E292878
3E72DC73
3DAC2FE8
3D589CDE
BC1A2C30
3E92C403
3E9148BF
3DBD3838
BC93322F
BE0357AE
3C01AEB6
3E2BEAA6
3E0344AA
3CE27179
BC2B5033
BD1D9B4A
BC587C24
3D3083E4
BDD19243
3D9A9B91
3E3CDB08
BD24B47D
BDD8F6EA
BD27F3EC
3E47C3E1
3E10874B
3D8E46BA
BE3B4343
3D769D3E
3DC668FD
BC82C465
BD0BFEC1
BDDDD649
BC050645
3C82D8B8
3DB2D282
3C4E10B4
3DFC9CE3
BE349517
BC91B52A
3E0C31F8
BE8D3B03
BD83185C
BE3FD36F
BD4FC7FE
3E06265C
3DBBD6B7
3CD7BD20
BD1F1F17
3DEA54CC
BC0880EB
BDFDBD12
BDA56BFB
3D7D590C
BE0801DF
3DBDCBFA
3D0F7D69
3E9B92DD
BD991715
BC2045F3
BDCB34C4
3E4DB63D
BDA74F8E
3D874450
3A664BAA
BD4253CC
3D89F514
3E18822C
BE34938F
BE27B02A
3D10D3E1
BC96D34A
3D5D762B
BDFF6108
BE086C95
BE1994E3
3E20646D
3D87B1A5
BC971D01
BD18384F
BE5C561A
3DBFEE77
3BBF3AB8
BCB0093D
3E20A4E9
BBEEC476
3E128A6B
3DF58C6D
3CBDB89D
BE4359D0
3ECF6486
3CFAC2D9
3D7D558B
3CDF40A1
BD8530F4
3DC92C31
3E1138B5
3CD4C288
BE4FF8FB
BD90EAFF
BDC3BCB4
3E290CD2
BD8700CB
BE29B4FC
BD951C34
3E2BE9CD
3E6D9EEA
3E27F197
BDE3DAC9
BD69B77F
BCB08180
3DE2F199
3D98BDAC
3DA9C05B
3E617AC8
BEA56254
3D8F2DBC
BDB12465
BCC84E72
3C600A50
3E6470A4
BCF72E66
BD6070E3
3D95D43A
3E432F44
3CE6FF90
3E08CC2D
BE1AF48B
BE048CC0
BD5B9554
BD73C74E
BCBF9D20
BD804CAE
BCBF239F
BD10114E
3D8066A7
BDC95CE5
3DB8F6C5
BE0313F3
3DAF3221
BDDA60E5
BEAD3D34
BD6E35B3
BE62B456
BD53BDA8
3D2CA17C
3D796DC4
3E4C21F4
3CF664A7
3DA9F051
BD809A08
BE1929CB
BC2B0390
3D9E69E0
BDFCC440
3D26320C
3CD80D7B
3E88D0BD
BCAE4B4D
BE967AD2
3C19CA87
3E14C0DC
BDC107A4
3DB6F50C
BC127E46
BDD92246
BD2D7DC6
3E658B4C
BD88061B
3C70CA47
3C412B35
BD312D8B
3D1AC30B
BE8C954A
BDDE0550
BE1F93D8
3E06D354
3D7642DF
BE6D2111
BDEB238F
BDB20B9E
3D0DB381
BD128E61
BD4CC210
3E619F65
3DE82D4E
3DEFFE25
3E2B709E
3E1FB7D9
BDE80BE2
3EDFCC31
BCDCDA51
3DDA995A
3D64DD63
BD89A9D0
3C6FC3DA
3DF17DD8
BDB50590
BD8D5F2B
3D6B904B
BDD10DE1
3BF85EDC
BC70F132
3CBB5E19
BE7C9C51
3E5D2DC0
3DDD2296
3E519651
BDFA21D8
BE0BB2B3
BD9EE0E8
3E14870E
BCEA8B42
3DA033C3
3E38DDF2
BE55A4B9
3D31D5CB
BD014126
BB0B8706
BD173193
BCBE2B5B
3C4BB553
BBD62A43
3C05BCAA
3E70BFBD
3D932118
3E440D33
BE02A4D7
BE0B989A
3DACDC50
3DFF0D29
BD57A2D5
BD2DEE73
3B8D2BAB
BE23F1B7
BD978660
BC612CDA
BCD6BE86
BE03E182
3D53FA10
BCF73032
BEA4CDD2
BD4474CE
BE90AD20
BDEE42B3
3C65A716
3D23F55A
3E8AD5BE
3C25D18C
3E29A387
BE0437C2
BE3B0972
BBA80F02
3B9ECA43
BD32E136
BD3CC278
BD6576C8
3D82E38F
3D3C2057
BDBF6BCB
BD5714DF
3D9571CC
3CCD74B7
3D4AD531
3CBD18BD
BD340197
BD5B0017
3E31D970
BC7EFAD2
BDA6FD27
BD427C66
BDA882BB
3DA797D3
BE909461
BE00A63C
BE4479FB
3DFA8AD1
BD256F73
BE694FA3
BC5E564F
BD480F66
3E058B96
BD83C9C7
3C975085
3E307A86
3E15BF67
3C45C186
3E443773
3E294D5D
BC85697D
3E963242
BDBDACFE
3E7ED604
3DB90689
BDDA10CE
3D78F7F7
BD220532
BE77660F
BE0A2D0C
3D447EDE
BDE1637E
BD392D47
3D65AFE9
BD2DA188
BDC26F30
3E6C8001
3DEE6857
3E554B45
BDA83D49
3D17118C
3CE682B2
3D9EA169
3CD8FAED
3DCC3166
3E18175B
BE915365
3D76F586
BD228DE0
3DF51F00
BCC5D551
BD2916EE
BB40A712
3DF99498
3D5CAC58
3DCDADB0
BCDEF09A
3E05D161
BE033EA8
BCAD1A6C
3DBACFF1
3D99A191
BD83DF2C
BD17D4B2
3C5138A9
BE597929
BDED8003
BCD9C1D6
BC4CE723
BE0584D1
BCFA4C27
3D707E20
BE5E02CA
BB41DA28
BE931519
3C2C24F2
BC1B4BF3
3DF4C08F
3E63B9F2
3D4E2EEC
3E92AC74
BE38C1C4
BE16D220
BC40C84A
3D186132
BD5C3CE5
BCA7242B
BD1DA25F
3DB168C6
3DF41E48
3CA99C62
BDDA9C0B
3C2447BA
3D66B3BE
BD0E9F45
3CEC31A4
BDA33F9C
3CD7F366
3D4CEE5F
BE016D27
BDFF9BEA
BE01F1D1
3DE1B48B
3E158F08
BE277A1F
3BB6CE13
BDECA30F
BB21DAF7
3BAC684B
BE348A86
BE1A11DC
BC8CF3DD
3E19D29E
BD0F99BA
3D2134FC
3D9C2BC6
3DF852A3
BD5970F7
3DD70D1A
3E0E18AE
BD643BF1
3E37A727
3AEECD77
3E37478D
3D5F615D
BD028877
3C53AA2C
BE02452B
BE4D2B87
BCFC1A38
3E0A867E
3C01DADA
3C8CE73B
3BA66623
BCDF5AD1
BC8AE417
3E957E2B
3CF0DB65
3EA92168
BDB6A7AF
BCEF2772
3D827CB3
3E126CA5
BC925E72
3C7B8B31
3D3A7DDF
BE8F0B1B
3DDA3857
3C14DF8E
3E179F4D
3DA50DB7
3DBFA892
BC48F4F2
3D244D62
3CD280ED
3E26C0D8
BCBE5CE8
3E3614AB
BE259B3F
3D8931D7
3DD13988
3D02E7B4
BD908B38
BDF3C958
BCC8F3F9
BC870105
BE14598A
BDD320F2
BDB1EC4A
BD6E1284
3C8AE9FD
BD067FE4
BE4AFD3A
BCFF1B40
BEABBF99
BB3C9CBA
3CAA0E39
3DE56DCC
3E868900
BCB151E8
3DBB8461
BE0BE960
BDA521D0
3CCFC8A2
BC8E6601
3D305FF4
3CF56063
3D2E5B5E
3E11BDD0
3DC64A38
3C71858F
BD246E27
BBC99415
3DDD0808
3CE62389
3DD4836A
BCFA82C2
BE43CA0A
3D6357C9
BE1EB43B
BDAEBF01
BDCDF8A1
3D5097F5
3E0FDBCC
BE6AEC35
BE1E49DA
BDF18FB6
3CCDB1E4
3CB37141
BE632577
BDB0BC11
3C83B652
3D7BE126
BD5FBF8D
3CC70D46
3E1BEB37
BC2AB8B5
3D168486
3D471A8C
3E2E3705
BCB14237
3E09CE9C
3C02573C
3E2CCC4A
3E136851
BD4264D2
3D6CBFDC
BE1399F3
BE165130
BE5EDDFF
3BA32245
BDB45B6C
3DBC80B5
BCBA6835
BE18EB5E
BDFB8EDD
3E7E2048
3E1175A2
3EABB262
BDF19FFC
BCEE9B4B
3C4D32BE
3E0AFC8D
3CC2C3D0
BD12B0BC
3DE67BCF
BE2CE3DC
3CF46437
3C937C8B
BD3D7B51
3DA537B9
3D999C48
3DC61C68
3E0C9156
BD35C636
3E2CD132
BDA191EB
3E4195F0
BE205851
3D91F8EA
3DB79E97
BBCF926A
BDA62155
BC19DCEF
BD761170
3C5EA698
BDE5A355
BE093CB8
3B9C837F
BCF74E11
BCA6BF4B
3E0CC127
BD9CD422
BCB84112
BE76844F
3DA2C5A4
BD38CD95
3E031B4F
3E5C8CAE
3D3E72D4
3E0DA649
BDC8FA09
BC740691
BD153134
BD90CCCB
BD5535BC
BD847780
3D4D1DAE
3D100AB6
3E23EF04
3DC02A9F
BCC0A181
BDA36FDF
BDC5C3CA
3DC7A5A6
3BD98B3B
BBF25F60
3D2141D9
3C11DDAE
BDE69933
BE3B1708
BD7A1218
B92C8CB4
3DCB540A
BE301119
BD4A5F38
3C19D88B
BD8F72A5
BA04E2B7
BE1EDD2A
BDA51F7F
BC3A75AF
3E40580C
3CCDD67C
3E2010CC
3C9D6A48
3DCFC7A8
BD890B72
3DFDDF1F
3E9141DA
3CA66B58
3DF45D2C
3D4AA6F2
3E7252F7
BC05C9D1
BE1D59DA
3C30D530
BD1C80A5
BE127952
BBAD0675
3D2A18F9
3D1F7298
BE23A5A1
BDB0C668
BD93B494
BCAA3474
3E5F276C
3E1946E6
3E0D0293
BDB3E64D
3D1FCF1F
3DAD1E5F
3D95033F
3D4F7080
3E00E573
3D6B68ED
BD14249E
3D0C306A
3CA44D38
BDF63AD4
BE25E928
3DBD38D7
3E26FF9F
3CE34933
3E08D0A1
3E7D0B64
BDBD2972
3DF44664
BD238DB7
3E30B9DB
3E834CE8
3E15BF62
3B369803
3DA548C7
BD25EDFC
BDCECE16
BE869E30
BDF997D6
BD8B3AD4
BCECEAF6
BC04A94D
3D95D59E
BD451C4D
BACA79CE
BDDA422A
3DC43CC0
3CC90651
3D099DF4
3E71149B
3D1432AA
3E071C11
BDF782D0
BD66A12F
BD4D92B9
38EB9427
BE24F280
BDF2FBF4
BE51EB2D
3DC765DE
3C795C92
3D4165EF
BB11F4C6
3E3D658E
BDCA55A3
3B46C4F7
BDA80107
3DA471D9
3DCC0390
BC0EBBC5
BD84231C
BD831D09
BD58A68E
BD9EAEC8
3E86E516
BD9D6907
3DCEAF6D
BD948C43
BB46AA60
3E260362
BE561B2F
BD955694
BDC5EAD4
3D73F71E
BCEBAB77
3D1A6DE6
BC401DB6
BD1E176D
3D36A60B
BC54628F
3E19776C
3D718AB4
BBC82C62
3C2497B0
3D12F2E3
BD50B8E2
BDBF6F8F
BD213741
3D29A3FD
BD76985C
BD8375DD
BD11EAA6
3D85D198
BD99CB56
BB440DF5
BD7F69D0
BDB0B92D
3E2E5051
BCC29EE7
BC89305C
BD746DD5
BD0D3C03
BBD889D7
3DD06C25
3DAE388C
3DBA0CA6
BCEBF671
BCF11354
BCF56B62
BB92D7CA
BD49F8A1
BE2E4452
BD42E617
3E0BD9FC
BD8B7218
BCC72947
3D820459
BDB50AD2
3E00BED0
BDD711B4
3DF19FE7
3E0D2953
3D2801F5
BDC90D8D
3D8F919E
BCBAB288
BE250C36
BDED6701
BD963F7D
3DA37E2E
BC8BA76F
3D430304
3D1D6528
3DB3E143
BB875B04
BDAD50AF
3D57BE9C
BCAF7F7D
3D2BA12B
3DAD7EB8
3D894A7C
3E2629F9
BDC236C1
3C8FA88D
39A4817C
BD3B1670
BDE38F66
BC30E48A
3DAF1FEF
3CC86E35
3E39DD2B
3E083C26
3CE7A0F6
3D8867B7
BD9CF8FD
BC651648
BCDFF792
BDAF673D
BD062522
BDCA8285
BC1F89B5
BE32AF86
BD94FEBA
BC90FD4A
3E2A7C72
BDB1BD1C
3DF01405
3DA06FA6
3D28E9E6
3DCCED85
BD935CC4
3A8F3800
BD8C1B00
BDA5D365
BD68B142
3D7F3DC4
BD5A6D73
BCD41160
BB352840
BD8AD053
BD55FEBC
3D2CD08E
3CAD5C50
39DA5F00
BD3F311F
3C543738
BC3B6AA0
BD9F1953
3A25F880
BD26C7A5
3D8C65C0
3D8A3D5C
3C79D400
BD81DE65
BC979F14
BD8CABF2
BD551A7C
BCB93920
BC5FFB10
3D2DD6D8
BCD2751E
BCC0A46E
BD8A46DD
3D7487FC
BCDAC940
BD2B9928
BDA64EE3
3C9E4C28
3C1B7DE8
3D83E102
BB88FD40
3B7E7DA0
BD6259B1
3BAF5F00
3D801226
3B0644C0
BC204E90
BD820BC2
BD1D1322
3D0B42B8
3BC0BC80
BD5CD950
3D6AF688
BD3B2293
3DA2975C
BD3D4280
3CF5B4C4
3D7AF424
3D3F05C0
BD6BF06C
BD50C0C3
3B68B380
3D4A87AC
3BE229C0
3C02F408
BD867C50
3CA9DD34
BD1C235F
BD56F5EE
BD9CFEF0
BC6AAD60
BD81BFEC
3D8587A4
3D99D24C
BD39E6C0
BD935F52
3C8E20C0
3BE32430
3D0E1590
BD806F64
BD101338
BCC69A7E
BC5EFF88
3CC540F0
BBDFD0D0
BD159DBB
3D52D3D0
BCDEB9C4
3D994A18
3C69CC38
3C3149A0
BDA850B4
BC4A7A00
BD4820BC
B989BA00
BD861456
3D582C28
BD5A75E4
BCFE92D0
BD4AC0CB
3ACA9280
BADCE880
BD507EC0
BD3D8678
3D586248
BD78D37A
BD640330
3B769340
BCE81894
3D5A31B8
3D8E66DA
BD2F6539
3A4E9780
BD57D708
3D814028
BD9D8040
BD7BD247
3CD55B00
3CE9F404
3D86F7C8
BD8CB569
BBC0DEA0
BD49FB46
3D28F048
BCEB04AE
BCE0D5F8
BD2E50F1
3BEA88E0
BCC64CCE
BC874724
BD56BC29
BD21B0A9
BD9C9496
3D26D3A2
3C1A4F90
BD84F98A
3C82BDA0
BD7DBFD4
BD7A8888
3C453840
BCF33D7E
BD0F4707
3C8ECBBC
BD22E698
3CBDB134
3DA1D216
BB82C1A0
BDA45657
3D4943C8
3A6CC800
3D5151C8
3DA775E2
3CAAEEE4
BD9E3640
BA729800
BD4B509E
BD842F16
BD82D0C3
3C9DD468
BCCB93C2
3CFF054C
3C4F5798
3CC0DE24
3D26FC00
BC24B960
3D8B048A
BCD8B3D8
3CF4B4F8
3BDEA660
3B2B2D00
BCA367DC
3D90FCB6
BCA296C4
3D9A4150
BD74B32C
BD439632
3AA87840
BD60FA22
BCC01FC0
BD4AA502
BD2C1A47
3D7BD134
BC3AB2A8
3DA7BC94
3D5E1524
BD781AFA
3D659CE4
BD9698EF
3D8E6312
BCFB73CE
3DA7F2AE
BD7BCA7E
3D69392C
3C11D7F0
3D867588
BDA1FC7C
BCA1F2DC
BD79FC94
3D712CB0
3D02432E
BD133D56
3D4DCEAC
39D78A00
3D098E7C
3D868E86
3CDBEBD0
3CB39D3C
BCA6FED2
BCF7D94C
3D134968
BCEDD522
3D875DC6
BD1E2039
3D051652
BD8A538D
3D677760
3B1EE3A0
3D7DF188
BBC20740
3D83126A
BBB4E640
3C951958
BD576113
BD9961A8
3BFF3580
3DA4259C
BD10A769
3CED12E0
39097A00
3D1919B8
BC383DD0
3D14B0B0
3D7AD068
3B98A330
3C8F7A30
3BB3CED0
3D782E28
BBDCC2F0
3D6F8DE0
BD9F2A2F
3D873DAE
3D277E26
BD86BCDA
3BFC1900
BD685220
3D371BF4
BD9EEBD1
39DC0D00
3D67E10C
3D3B8464
BD55661E
3D98F2EA
3D6A8100
BC99042C
3DA1575A
BD5E724C
BBD40B80
3D20F30C
BD3F8EEB
BD608CC4
3D8F95EE
BB239D60
3D7FA0B4
BB9A5530
3CA2DDF0
BC132D68
3C603A00
BBE4D4B0
3D0B9AE4
3C7E23F8
3D2B6DF8
3D97C05C
3D853F6E
BBFCAC70
3D44BE98
3CDD5E44
BD009960
BD2320D2
3CA2FAA8
3BEE1B60
3CFFFC08
BD550945
3D4CCF9C
BC984800
3D2E5F90
BDA187F4
BD9253A4
BD82DD73
BBF0B510
3D632D08
BC3733B0
3CB7D884
3CDB43C0
BCB208E2
3CF55DD0
BD8BBF39
BD759F9F
BCC8E476
3D70E138
3D29473E
3C37C1F8
BD911530
BD290678
BD3F4A30
BD85DFED
3BE87500
3D37C6BC
BCEE1108
BC9234A8
3D674854
3D19BD70
BD96BC2A
3CE882C4
BC8A0014
3C60C580
3CCB1FA4
3DA0012A
BD9A5C41
3D324464
BC956050
BCD50434
3B8F3C30
BB1B2740
3D1922BC
3D421F68
BD2BCF53
3D100010
BCC3DB36
BD8A317C
BD2CBE14
3CB39534
BC9146E4
BD67F4C2
BDA25B6A
3D476DD4
BCD55340
3CA7C018
3DA79642
BD2CD4BC
3CC7D220
3C97279C
BD78C1D4
BD0B3F08
BD7F2892
BD60644C
BCAA7018
BC78A1F0
BBFC5640
3D3A5E98
3D6D1B38
3D9554C8
3D29BAB0
BD7E831F
3CD503F4
3D978E76
3CEA50AC
3C806C68
BD8F6274
3D919978
BD7C333A
BD976378
BD0942F0
3C08B498
3CB1E92C
BD78CD4C
3D2F4024
BD5622B2
BCFD8B6E
BD919F44
BD1F404E
3BF9EDE0
BD0F7773
BDA176A9
3D959B34
3DA47C10
3D46FF08
BCB27962
BD1E7554
3D6B5B04
BC71CDF8
3D835C72
3B68FAA0
BDA7BA06
BD678692
3D59B3D4
3D42E148
BDA7E235
3D4EA9B0
3D25F624
3C530948
3C41E4C8
3CC45298
BD90B628
3D4F05AC
3C2253B0
BD443884
3CE35774
3D93A464
3D1BA72C
BCD26158
3C72A050
3BF89EE0
BD21F9E6
3C6FF243
3C37A26D
3D225C61
3DF48D74
BC884226
3DDC257D
3DD00088
3E01F74A
3C1625E8
3DB54768
3D8B8661
BD27E42E
BC697A1D
3BE47100
3DE46733
3E265828
3E2F7354
BDB82CA1
3D59B6A4
BDA575BC
BDA22E60
BD71C5AA
BE256AE5
BDF0FA11
BE40CBC9
3DB2811D
BDC2948B
BD2006FF
3DB2A6BF
3E259F59
3DB1D3D9
3D422796
BDCB13BD
BD71FE9B
BD5B26C3
3C051AA0
3E0BC412
BD044443
3D55B0F0
3CB6DD7E
BDFBB425
BD0E0860
BBDBBEC5
3E38B859
3CB064D6
BE0F499D
BDCEFB73
BC9B8394
3BA521B9
BE28A33B
BE02C9A1
3DD64AEE
BC1048B0
BC493629
BE236A96
BD049978
BD0CB0DB
BC2A1CE1
BD355924
3D92A454
3CBC5CA6
3D079B62
BC0D556F
3E498DE0
3E19F6DA
BDC249B2
3E3FDF0A
3D955BA2
BD5751EF
3C9C9486
3E0409AF
BB126EE3
BE1D77DB
3D141150
BD186EA1
BD96CAC5
3CA53D96
3DCA9BCD
3DBB6344
BDB96D5E
3D963ED0
3E1C0F0F
BD8F5886
3D40D231
3C8B3D93
3DDDFC88
3CB34716
3DE6DD79
3E42BE2C
BB4F0A28
BD816AA2
BD8195F9
3C9A9565
3D832669
3D58632D
BD4DA448
3D551F9C
BD800469
3CE51C70
BE3415AB
3C826B4E
BD1B1A60
3D18CBD9
3E50AF66
BD43AF5E
BCB8D132
3D78D82C
3D0E59FE
BDD79CD6
3D88F5CA
3D91FAEB
3DA3AA03
BD9C063A
3DC58409
3D34BB74
3E0B9379
3B16FC78
BD73D1FA
BE020954
BD673E4C
3C7DD2FD
BDA58529
BDB6DCB2
BCFABB28
3C175E52
3D8C81C4
BCEBD587
3D8B8552
3D991E88
3D957D29
3DC36C7A
BD53C4C6
BD34DAFB
3E047441
BCCA0E69
BD16D924
3CEA8CA9
3C76E465
3DDE5193
3CD2338B
3D28CFFD
3D4B1915
BDA203AE
3E2771F8
3C44D432
BE30D698
BD9619A0
3D0AA06A
3E1AE0E0
3E20CA98
BDFEEDBB
3CAD2C0C
3C811099
BD928CD0
BD5BD2B3
BE0D28F3
BDD550DE
3BF07F5C
BBE2ADFA
BC250068
BD81A50B
3BB72B1A
3B0C8AB8
3DA84F26
3D8642F1
BDC46845
3DC2E345
BD891DAB
3D80C86C
3D8264D4
3CD448D6
BDDA9889
BC327E48
BCFCDB78
BE5271FF
3D8CC28E
3E2A43A7
3E008BAD
3DBE8B90
3DB00D8F
3DB940C2
3D948432
BD11B61C
3D9070FC
BBE67088
3D328E20
3D3C1174
3E2E5250
3D9959B3
BC7FAB0D
3DB7354F
BD998B4E
3D35320F
BD5BBC4B
BE11BE8C
BBB94FC7
3D42C318
BE1E814E
BDF685DE
3CE8D23A
3D8426EB
BD088B1C
BD43AB36
3D772119
3E03F17C
BD16C94C
BC2D957B
3DEDB636
BC1F1A80
3CB53800
3D48F705
3E29B6DF
3D611A24
3E1F8A68
3D080025
BC923C7F
BE1BB6D5
3B12B3E6
3CC11F48
BDF3F008
3DF7824D
3D09604A
3D03769D
3D9106A3
3C4B1F1F
3D4281B7
3DCDC15B
3D99F567
BD96DE18
BC478032
3C6142A4
3DD79A66
3E0E7F43
3E4315D6
BD546AD7
3DD32DD1
BDE030BE
BB089B22
3D7012F7
3E1A4494
3CDEB298
3D90C9A1
BCD07D5E
BB90834B
BDB132FC
BDB02E10
BE0F0D4E
3CE194F4
3D783A8E
3D634AC5
BDC94E34
BDC85935
BD1919DC
BE17C4FC
BDE97792
BD7788C1
BDF52FEB
BD871458
3E068C2D
BDD6F5D5
3A813D03
BCAA99F3
3C7F12AD
BD3BCFBC
BD1E0491
3D892D30
3C60C9B4
BCE6982F
3E5FBE01
3E298C5E
BAD14222
BC380B7F
3D90D2E8
BD568874
BD1AEBD3
3DCC56FD
3DAF8B62
BD4A8C3D
BD3005EE
3D218333
BD312383
3C76BBDB
3DE17E90
3C8A0D80
3D8FBE19
BCA73B56
BCE73956
BD7C63BE
BE4C7B28
BDA958D8
3C220901
3CC536D7
BDDDD03D
BE198B54
BDB9BC0B
BCD1032E
3DCE8BFB
3DAC8797
BD5DEBDA
BCE40126
3DA38A1A
BCBADF9A
3DD8BE78
BD61811F
BB844CCA
3DEA71AE
3C36FC62
3DF78246
BE0F6191
BE08161F
3D46BE26
BDCC16B2
3DD7DCD6
BDA6F6B3
3CE0FF52
3DBF0A51
BC93AF6E
BD811C8E
BC6EF8AD
3AB14AB7
3E79CDE6
BCC4EC92
3D6EB65E
3D835C16
3DE57A80
BCEC30A6
3D910518
3B958C0C
BE35415B
BB809721
3E08EF42
BC62327E
BD43C32F
3DD62200
BE2F6F37
3D9CCBB7
BD3727B9
3CD117F0
BDBCB812
3C9AA90C
3D5735B3
BDACB67D
BD4BD44B
3D448F0C
BD99E19F
BC2FC5AA
BD4C92F8
3DCB02F7
3DCB627D
3DAE69D5
BD78A204
BE46106F
BD5449F8
BD71238A
3C17E14C
3BBA80A5
BE197861
BD279FD7
3CA9F281
BD704A41
3B079BF3
3CAC7FB4
BAA84F5D
3E2B35E4
BCC43BD7
3DDC7604
3D8D9429
3D2501B0
3E085190
3DD47E2B
BDA3DC0A
BD7B280F
BDC5A889
BDB35C52
BD2B8815
3D8F0254
3E055D32
3E0EF397
3DB63D9B
3DB973C3
BDD673ED
BE295989
3E3526C5
BDBD977F
3D2602DA
BBF99BA2
BD51632C
BD0F8219
BE2B98AE
3C1FF630
BDEC01C7
3DA6B836
BD9A6936
BD6D4655
3DD4D455
BD5EBA89
3DEDCE45
3B4E0405
BDE245AD
BC4A6F71
3E1E6963
BCF4CFD3
BD843B56
BD665AAC
3D8F66EB
3DF5C1CB
3E724E35
3E0B7080
BDF62F53
BC951AE0
3CB96040
3DC165A4
3CBCAF7B
3D895F58
3DD8CAF1
BD950E69
3CDA3824
BE6EA1D6
BD8AD798
3D20ECBD
BCCBB224
BD548070
3CBCA10F
BD76671C
3BE480C2
BD6A212E
BD1C7306
3C050F87
BE52FBD6
3D1A9484
3E0D3363
3C64C7C1
BD8D6B11
3E25DE82
BDCD120C
BDD2B8BE
BD30CBF8
3C200BEB
BCBF783E
3D98AE11
3D3B4DD4
BB3DDFF4
3D72C07B
BD76C211
BE706DAC
3E0F1ED4
BDD8C605
3DDBDC53
3E38CA6B
3DC8FF72
BCABC8E7
BE963E77
BD2DF6BB
BADE8FEF
BDB3839D
BD6576B3
BD39687C
3CADA204
3E3C983A
BDB5DFAC
3B7168E3
BD8D4C47
BD149DEF
3E40D622
BD2574A5
3D692854
3D629A93
3D230EEB
3D9CC659
BD8B73D5
3D28508D
BDC3D96E
3D39721B
BDA76A03
BE15C470
BC890AE2
3E5781FF
3D5411FB
BD65F865
3DB63D44
BD00C701
BAD2B23A
3DBE4A9A
BD94A706
3DDF08A8
3CD0782B
BDF2FA24
3D898BA6
BDD37D03
3D839BA3
BE028A79
3D85EBB9
BDBDF963
BDC015FA
3E13376A
BDCB3FD7
3DF8E143
BDECEC2E
BDEACC32
3C62658F
3DC68F58
3DC69CA6
BD98A6B3
BD5E425C
3D2E1B22
3E54075B
3EA4B802
3E09E617
3CDFA573
BD284403
BC114A2D
3D0A22C8
BDC8B028
BCBAD0F3
3CD28B6C
BC9142F8
3E068A92
BEC04BF1
3D2E71DC
3D515A68
BD959019
BDC2AAA3
BC044501
BE39A1C7
BD9D3F26
3D14C611
3CFFCFB3
3C1020F3
BD7868BF
3DD8A944
3E5C8D64
3E3A32C6
3BAB3F29
3DA98F6D
3CA37295
3CA27760
BD19951D
BE3084AF
BE129B75
3DE7FED9
3D21879C
BD817FAB
BDBA58DA
BE1CD5F5
BE75A594
3DF260C8
BDF32811
3D92A6AB
3E554498
3E86DF18
3D8C8921
BE1C9C12
BBEE09C0
BE46676D
BDDEC611
BE0ED6B6
BE2DA546
3E12DB93
3DBB4C8F
BCD491BD
BDEBF1DA
BDA86992
BBE9178D
3E704214
BD9237F0
3CCCBBAD
3C994EB8
BD1F84AC
3E2BF38E
BCBFDC1D
BDD4AB6C
BDAC0598
3BF091EA
BE3AB623
BCADEFE7
3C9F3C0D
3E16E211
3DC6C073
BCCDC8C3
BDBEE50D
BCAB8469
3C329EDF
BD8FF838
3E0BABE5
3CB2D488
3DE91F16
3E04225F
3DC3CFAC
BE1518F3
BC3AE32D
BDFB9593
3E02CD71
BCC18827
3D360190
3E6B7673
3D2976BF
3DA2C15C
BBD288A7
BE81AE66
3E816145
3E41DC79
3CD272A9
BDEA3E4A
BE3105E1
3D9FE8D7
3E5913DD
3D27DB25
3E6B38F0
BE203676
BC721531
BE163814
BDC4AF0C
3AB8CA9B
BE555A1E
BE30CDD8
3DDB5833
3D48D02D
BEA1070D
BDBE554F
3DBED479
BDF72A45
BDAB851F
3E360CF5
3E045F8F
BD04ABEA
BCBBE2AE
BD59B0D4
BE88A5E1
BDEE6A82
3D0672A8
3D42CC08
3DEAA5FB
3D26CBA7
3A4C507E
BC71D668
3E248778
3CFA5ABF
BE573510
BE64F7C9
3E0846BE
3E142ABE
BE02CFDB
BE4DC9F7
BE0C4A9C
BE70F880
3DCF4A71
BC9A6248
3EA028E0
3E86F02F
3E8B859A
3DD7F7C1
BD915D37
BCC9B812
BE32DEB5
BDCCA4B8
BC610280
BD67EC1E
3DACF403
3DE0A729
BD864EE8
BD7823C2
3DC80CA8
BCF4E5CB
3DD4E37C
3B2AD1C6
BE48AABB
3D1E63B9
3BDEA92F
3E31797C
3DBEACC8
BDCD4748
BDF965B8
BE24704F
BE267A9D
BE3FA597
3DED8648
3D5CA828
3DB3FFBA
3B898CF3
BD452220
BCAFF9BB
BE11D777
3BC87373
3D29CD06
3C247E4B
3E846A8A
BDD64186
3E7A9602
BD28D18C
BD64C799
BD4ECC59
3E0B5470
3C80CC80
BD85064D
3E65E183
3C8CFE0A
BCF362E2
3D216B22
BD5C40A2
3E80CF46
3EB6ADC1
BD2ED2AE
BDB91AC5
BDAC28E6
3DEBCCCE
BC896E5D
3DF4DBB2
3EAC8548
BDCFF074
3D6432ED
BD2BBFAD
BCC1AF3F
BD8139EC
BE13B8E2
BE81946F
3C2A0ADE
BCCF9575
BE74E657
BE8091D0
3D9AC6CF
BC818C9D
BD929753
3E350558
3D959D6F
3B66E444
3D45D7D7
BD75C5CC
BE831897
BE0AA5D7
3D8C7006
3DA95390
3D151B5D
BDED5456
BD7BD364
BE368F65
3D95C10A
3E1A84A0
BDE8A085
BE41CFFF
3E8B96E1
3E11511F
BE07BF47
3CDEAB51
3D0DDD9B
BE077661
3E97BC8E
BD9973E3
3EC51A14
3EA69A88
3E210702
3DF970E1
BE4C7F6C
3D35FB50
BDDDC7F6
BE93964B
BD87F24A
BDF8B340
3C68F028
3E5167AD
BDA75EB3
3DC723FC
BDA0C702
BE106EFE
3E0F849A
3D53E74E
BE5843EA
3E20249E
BCEDCFB7
3E6390F8
3DB6C08E
BDF56DF4
BE4E5C28
BDCFBEF8
BE08DD00
BE35CFBE
3E4C5653
3B82065A
3D2B9A2A
BD8C0CE3
BC22953D
BE324A59
BD0C57B8
BDD0E711
3DC13B7E
3E284944
3E7B2B85
BD529701
3D84F08E
BDBD347D
BE242C91
BD9815D2
3E899B8A
3C6620EE
3D11F8E3
3E8F6D64
BE5B7ACE
BD130F5E
BE64426E
BD049018
3D80B97B
3DB062E1
BD1BB880
3C3FAF72
BE24253D
BC6B6B31
3E2D96C8
3DB132A7
3E9A3CF0
3CDA4FC1
BAF6343E
BD5508CF
BD35CFE9
3DED4C68
BE2DEA17
BE5E4724
3DBD2C04
BD1DA922
BE4C248B
BE47AE6A
3D7F689C
BDD6448F
BDC4AD02
BB8C2F06
3DF7D89F
3D6F4342
BB865050
BE71681E
BE7A9995
BE4BEA42
3D9AEB2A
3DBB7044
BCB12975
BDA02EE6
BE0455D2
BE19453D
3D5D9D6F
3C7EFB34
BDEE8691
BE21BD9B
3DEED8FF
3DC32FCD
BD0AB2B8
3E024C3F
3CF02D0B
BE0A6111
3DE8CDF6
3C4D615C
3E908CE9
3E345E3A
3E9CD7AB
3DE0BFEC
3D5D1F34
3CF4CD0F
BD55621A
BE8850D8
BD509A93
BE2DF35A
3D06F81F
3E2856BC
BDCE5D46
BE04A876
BCCE2A5E
3C9B7DA9
3E00FD25
BD3DDF72
BEBA7306
3E67E4AC
BA708354
3D9C1016
3E3458DC
BC35B4E9
BCA80E0B
BE2EE42A
BD8AB4FD
BD73F6FB
3E9CC368
BD1B9776
3DAB0641
BC7189FE
3E185E3B
BDCF5467
BDA377E5
BDE5065E
BC6660C9
3D8CF6F8
3E1DDD4F
3D8B83C8
3E00F3D3
BDCACEEB
BD9F5849
3E0C7F6C
3E9E127E
BD008CAD
3C78FACC
3E983F94
BE501A4E
BDDFD611
BE639811
3D3E1269
3E1F07B5
3E846787
BD141571
BDC47B4B
BED7CE91
3DC0DED3
BD1B543B
3DDF8B04
3E21625B
BDF19142
BDCFB538
3D6F8284
3D092BED
3BE03567
BD4F1A41
BE89B4D0
BD35EF90
BD29B488
BE0BA18A
3D0C5740
BD62ECD3
BDC70D3B
BD4D7404
3E5936DB
BCBB95B8
3E2D036D
BE062A7E
BE43CDD0
BD423A86
BE1C35A3
3CD3A43F
3E07537D
3B846675
3B3C132A
3CF2394F
BE1D34C7
BC9746AE
3D3E8103
BDCE98C2
BE184231
3E73D7F1
3D13D923
3D25C013
3DDE827E
BE02E98D
BDD9A3ED
3E3CEBE7
BCE74516
3E7F753B
3E7617FB
3E873DAA
3DCBA7DF
BCD2AE29
3D6BF986
BD747C39
BE06C015
3D1B31CE
BE01071E
BD3087BB
3CF076DE
BDC07F15
BDED81DE
3C6000BE
3D819885
3DD92203
BDDCF681
BE7943B7
3D485D00
3C96B469
3DD19CB1
3DCC2DF1
BDE86D11
3CB243C3
BEA231AC
BE318BBD
BE46F21B
3E3AC3A2
3CF5C43E
3D9B4566
3E1EB82F
BDE121F8
BE887C9E
BE3E7EF8
BDD5C832
3CA7E171
3E59D952
3E05D30C
BD912CEA
BC548858
BE06A94F
BD991107
3E152F91
3E880E29
BDDA7858
3C8110FD
3EA6DCDD
BE245F26
BD0EC34D
BE138443
BE72E1F1
3D98AF3A
3E42D55E
BE5A8814
3CC24292
BE9B8FF8
BDB9333A
3D660C94
3E5A6AFB
3CA2D342
BE1DA689
BDD98398
3DA518FA
BE082DEA
3DED77F8
BDE17BE0
3C1EA618
BE04CA87
BDF5385D
BE95BB93
3D11066C
BD8D0D53
BE286323
3D844AA0
3DC71326
BD6687FA
3E080983
BD2DFA3A
BEE4C770
BE81CD62
BE3E92BD
3AC3C777
3E061795
3DECD375
BDA3BA01
BE41D2D4
BDE41290
BD17C8D2
3DB2BB10
BC6A3890
BE389660
3D8ED49A
3CCEF334
3DF729B0
BD3CD5D3
3DB9694E
BDD565C8
BC398839
BD824B4C
BBDFB65F
3E94C37E
3E62CFFF
BE896342
BB75AD9E
3D8789A7
BEA9C857
BE8E14DF
3D4C49E8
BCD7958B
3C614772
BDC95AF1
3E33FE09
BDAE2373
3D47C24F
BD35483C
3DC01FF2
3D252E8B
3D73EC40
BE5A8561
3D6401F0
BCEA1E99
3DD8D08C
BDCD2567
BB68E03D
BE3CD8DE
BE9768A2
BDF76A28
3E036AD8
3E0200EC
3DF8D3DA
3DBCF721
3C57E8E6
BDDA5F38
BE38C1CC
3C8CA1FB
BE905FD8
3D474FE0
3DC28592
BE98FB11
3C6068E6
3C0EC509
BE79F465
BDBCA11A
3DEBD288
BE6C773E
BE16BD9E
3E853ACD
BE9A37E8
3D9EB644
BE5720C3
BE923830
3C78F6BD
3DF63784
BDF49ABD
3DAF3DAF
BDA30D7A
BCBE1B58
BDBB578A
3E40A230
3D9F4C3C
BE895815
BD724DB7
3DDD35A7
BCD9293D
3E3E4C42
BE252359
BD9B6B8D
BE6687F6
BD890BE3
BEDB1487
3C41D579
3D94FB83
BE5DEA90
3DAF19BA
BD427DC7
BDCE8628
3DC206B9
3D9E50B1
BE7FFEAE
BE021F7B
BD2D6CB5
3D156F78
3E682BB5
3D6F071E
BD22A439
BEB10D0B
BE19E2D6
BDB5EB38
3A953796
3DF7453B
BE09B66C
BC97DD97
3DC5822D
3DF39740
3D293311
BC48B39C
BE5D0CB7
3D233818
3C551331
BD1B92D4
3DEF9CCD
BD4F0809
BDC5491F
BE03796A
3C95ADAD
BEA96E1F
BE92144B
3DEDED20
3C177355
BD9F6783
3D495E52
3E4435A4
3B34BF6D
3CA2D56B
BD3EDAEA
3E103FE2
3D471FA5
BD496AC1
BEB6C9D7
BCD0341A
BD6D545C
3D046716
BE613D12
BC910A00
BDAA4392
BEC659B4
BE01F0D9
3D9D8667
3DBDEE41
3B21D1AD
3E048619
3B816468
3DB0B144
BE9D8A8D
BD716A2E
BE9E7F44
3E1DC800
3D7622A0
BC0140C5
BDD21EF2
BD010780
BE82DD5E
3C8CE5BA
3DD33813
BEA08ED8
BDA0F244
3E8F995C
BE9A97FC
3D292056
BE169F45
BE7EC0B2
3DA57771
3D3A9368
BDE35B4C
BD0E4386
BD15F915
BD3558BB
3C6C4ECC
3E06B446
BD757E46
BEC74C59
3E3618D0
3DBC6772
BDC13AB3
3C46077A
BE11AD20
3BC2EAC6
BDC18336
BDA46EBE
BE8FDBAB
BBEE7C3F
3CA6FF58
BDF6C320
3E1CAA75
BB6B2972
BE2D2B92
3C62C673
3DB231A2
BDFD68B7
BE3C2542
BD796DB1
BD29F671
3D39C8B7
3D61CD8F
3DD5ABD5
BE2EBBD7
BE61F20D
BE2B887B
3B825DB4
3DB0D046
BC3E7B7E
BDA5F425
3D015652
3E619B8E
BDAA1DD0
BDB8EFAD
BC735020
3E7D7610
3D37C119
BE3E2729
3D9D6397
3DFE4A48
3D9E0829
BDBFC58E
3C7D1BB7
BE24BE4C
BE253259
3E0DF92F
BDE8C7B3
BDE1AEA2
3C0A6AA1
3DAEE171
3DA3D77A
BE298679
3D96DCDD
3DA482F9
3D5697FF
BD9D996D
BEB1C026
3C77E09E
BCD4BBF0
BD41610A
BED4340E
BE25EFA0
3D22F203
BE653EFD
3C081A1B
3E199FDA
3D820A54
BD4CEA5E
3E8E9EF9
BB324041
3D89F7A2
BE881643
BD70865D
BEAFEE8C
3E39B207
3DB1BB64
BCA14F0A
BE26C208
3DDAE190
BE1F6368
BD39ACEA
3E0843AA
BE505FC1
BDB407BE
3DD8B448
BE8DFBA8
3D20469A
3D39B250
BE7AD0C6
3DFFF361
3D3845A3
BDCAF2A4
BDD90959
BD86026C
BE02A6CE
3E7A4E96
3E36F721
3D644CC4
BDE62DF0
3E148298
3D1A399E
BC717835
3D639614
BDDFA0EB
3D4E5420
3DB830F4
3CC92D0D
BE7F44B5
BE0171AD
3DE39887
3C903261
3E5EC7A1
3E3F7FB4
BDCD7284
BC915940
3D538F05
BDCC4D92
BD9648D7
3D2083FD
3E034314
3DE1E427
3CABFBC1
3DECEC2B
BE53F51F
BE023019
BE292055
3D8D66EC
3E5DBF9A
3CF433E5
BDA5C53C
3B76C5C9
3E189BD3
BD83ED09
BBCD284A
BC97ED07
3E0199C6
BD21C682
BDAF3175
3D7CF33D
3D8FA67E
BCA86080
BE06263A
BCB72232
BE033F49
3D252027
3DBA2AFE
BE68987D
BDC1A5BC
BE0486A6
3E35B31D
BD22190A
BE181A5A
3CE56DB2
3DDF6F23
BDE03F80
3C7C2FC2
BEC43EF2
3C53475B
3D21A301
BD1759A3
BE8A2B24
BE758569
3E1B0406
BE507118
3E0EBCA4
3E254A11
BCD79AFF
3C91FCB0
3E231ABC
BD4BA341
BC855B36
BE02D463
3C1B7C90
BE5F270C
BD510950
3D0F8743
3D61FEF5
BE870710
3D85E3BE
BD4D42CA
3D969C5D
3D96660C
3BBAF0F7
3DFCC2CB
BE2F3576
BD97C9B2
3BF5DDE4
3E385806
BCA6A0AE
3E1E5CC0
3BD7BCDE
BE152678
BE0D5BC4
BD92BF40
BC9402D9
3D9A8A87
3DD4C6BF
BCB5566A
BE4CD46E
3DD6FAD2
3E169C29
3D585ED9
BE00194B
BE0EDE50
3DC17063
3E1053E8
BC761A4A
BE1F1059
BDD0BE92
3E855FA3
3D2D7C58
3CECAEFD
3E4A6FD7
BDC7E225
3E205E63
BE1A714B
BE1000E2
BC229A9C
3C96301C
3DCE130D
3C803F7F
3DE55935
3D89A156
BE90B35E
BD96A497
BEA17998
3E1A2E73
3E7EB8E3
BDC22AE5
BD5539E9
3D41E04C
3DA4D693
BDBB5BCA
3D1D0A16
3D70F337
3DAD7EBE
BD8E8B81
BB73F65D
3E85791C
3D247874
3CCD5607
BE81B9BC
BD7DBD64
BE378726
BDB325B2
3E344916
BE2944C9
BE466218
BDCC181B
3E79AB54
BA793246
BD99288F
3E3F8059
3E4D4435
3CAD6C97
BB0D787E
BECF21D1
BC620653
3E1D0A9F
BCD1419F
BE12F2C7
BE59F096
BD7907D0
BE14CFAF
3D33403C
3C96DD90
3CD984D0
BC9927F6
3E359A08
BDA99E83
3DC138E8
BE3D6541
BCF4E542
BE3A922E
3DEA3EB1
3E35EC99
3E8062CA
BDDB7D56
3E4B11CD
BE7DBCC0
3E5A93EA
3E3ACB92
3D288257
BD41F69D
BE544689
BCD51C4D
3CCDDCFE
3C6E4967
3C20725B
3DA634E5
BE20F9FF
BE5E97AD
BE1A6911
BD5FF7D1
3D45A8E2
3DEAD0DD
3E521498
BD849D37
BDBE3FA8
3D6C9769
3E566B11
BDF3AA15
3CCACE94
BDB8411E
3B3DCED6
3E415B14
3D8E8B37
3DD85A7D
BDF9F4A2
3E645064
3D758ACB
3D51BAA6
3D920283
BDB9726E
3CF3B896
BDE5337D
BD7592F7
3DDE8F40
BDB04803
3D0E1A69
3B87D1EF
3DD95105
3D2A07A5
BE879C02
3C92BA69
BE90AC25
BD382163
3E2437AB
3D54555E
3C90D6F4
3D9767DC
3CB774C6
BE1DE8F1
3D3D611B
3D91EB23
3D142111
BDEF2098
BE0BF95C
3E72FDB8
BD0DB5D9
3CEF7FE1
BDA09561
BC89282B
BE391DAC
BDEECE75
3DCB5C07
3D22AA0F
BE449FD5
3D5CF872
3E2D2F13
BDF31F7B
BDEADCE1
3DE3F2ED
3DC2CAF9
3D38D41A
3DD0AA50
BE2CD0A2
3DAAFE44
3B22A0E2
BD7B167B
BD302FD8
BDD4D102
3C04E2F4
BDE95E5F
3D9D7CD2
3DD6A182
BDFC8E21
3C380BE3
3E5F8D7D
BA22ED61
3DEB857B
BE0F4045
BDFF037D
BDB17AEF
3E0F02C3
3E6A0EB5
3E03952C
BE1FC553
3E5A2FC4
BC581F07
3DA3216A
3DA1B0F9
BDFEAEFA
BE1736B8
BDA883A4
3CEB30B7
3DD5D55E
3D8CB465
BE1BB962
3B9168C5
BE72F321
BBD028D1
BDC26240
BD914F8A
3D7D1680
3D7DC4C5
3E39EB0F
BDB28083
BDE858FC
3E6350EA
3DA2170E
3DCE38FB
BCCEBF75
3B366643
3D96A12D
3E0C4B2A
3D97C527
3DB17C86
BD831537
3D49DE2C
3C486842
3E3D53E5
BDE59F1B
BE0F6222
3CDADDCE
BD7EFEA0
3DB6DF68
3D38652E
3E09DBCA
3CEF321A
3A75BE66
3D1E7E0B
3DB5E55F
BEA57CA1
3DF15EDE
BD9E3914
BD7B2253
3DC38FBB
3D7E81BA
3E369DAB
BD4CDCAE
3C91E8BA
BE0F0931
3DE1FCA3
3D66CE2F
BD193C22
BEADF867
BE45C891
3E3E299F
3D36CB37
3CD1396B
BB99E2B2
3D233A90
BE2000DB
3CDC5A86
BD95FF05
3DE65A3F
BE5388FF
3D915F4C
3CB4AD13
BDD30EC0
BE527615
3CAA1654
BE07692A
BC00CF12
3DA7FFD3
3C6A474B
BCC74C42
3D9511C1
3D6B205D
3DCCE1AC
BE51380B
3E1FE679
BCAA86AB
BD9ED40E
3DB3024E
3BE20BA0
BD87328B
3E1828C6
3DC61017
3DC9E922
BE1ECF2A
3C33AB74
BE2CB50B
3D5801FD
3DE1C75C
BB2BF9AB
BE3C7F50
BC658EF9
BDCDB025
BC2CC516
BDDDE51A
BE64803E
BE22BC2D
BE89012B
BD10898B
3D24B8F5
3CAD4868
BD77D01F
BE23F535
BE0E777F
3CE189CF
BC82BF44
BE0685FB
3CFB10B4
3CB0B979
3DC51C58
BDDB2AE8
BE6FBF6B
3E948759
3C6ED702
3E5494EA
3DC7D7FC
BCE10150
BDB24D0E
3DBEA7BB
3D1AA5BB
3DD4A3B4
3DCCF61C
BDDE79C7
BB835F38
3DF26095
BE7CD9C4
BE14F6C7
BA6EAD20
BB1FA73F
3E3AAE9A
3E10ACB0
3C2D5A6E
BDF2B010
BD3DB5B6
3E58D5C5
3E48529D
BDA61358
3CE1E18C
BC6FB082
BC4BE9BC
3E48FA9C
3A0775D8
3D78C38D
3D46488C
BD74843F
3CB0FC6C
3C1254E3
BC6E16AC
3CB23CDB
BE6A1C91
BE712790
3D81A29B
3E230584
3C9989D4
BE33F86C
BD83111C
BE2F700A
BD21A8DF
BDC57B0F
BD5E267D
BE3AFED0
3CB681AB
BD96C945
BD57879E
BE41927C
3D48060F
BDB40BF9
BDDC5913
3D74DEF0
3E17AEB9
BD6548FD
3D2B1CB4
BC8C90BE
3C5AB9EB
BD673DCA
3DC3AFE8
3D4A9031
BCE070FE
3DDFD74C
3D89A8D4
3D7CD507
3D4256C6
3B50AD09
3D734323
BDF9DC1E
BC6504A1
BD072295
BCC946CC
3D066EAA
3D3E312A
BE1A2BFB
3CABA551
BD926E9E
3CA75DDA
3D068B1B
BE6C9FD6
BE2C35C3
BE90CA8B
BE180ACA
3DF44D19
BCED1DD0
BE061E18
BDCA6824
BDA5022C
BDE2795B
BDF21A07
BD8E1823
3E389EE9
3E0B0441
3E40F7EB
BDF038AA
BE139A21
3E8F1D5A
3CD5C5D5
BD33C248
BC989027
3D24D83E
3C339FD2
3DF9EE3D
3C3813FF
3D108801
3DAA9C2B
BE4E8636
3DAC3125
3DBE4621
BDE7208F
BE4C769B
BDBDB450
BDAC14BF
3D8B2FC4
3D7E97F3
BCD01CA1
3CD0788C
3E624BEB
3D7D24B0
3DE17472
3DC12BFC
BE5E6A34
BD82B7C4
BE4D693F
3D249440
BD1ADD20
3CC9E73B
BCAF0877
BE071E1B
3D52D562
BD7C0D2F
3D1EDDF3
BDD72CE3
BE3469EB
BD05D87E
BDB447C9
3E00F288
3DFB32D8
BE0A5220
3D1427E7
BCBD7BE3
3D2C28CF
3CB64409
BCB38424
BE07F23F
BCFB73D5
BE4B9654
BE4AB9F4
BE0219EF
3E68AB58
BE2A923E
BD2E4455
3C9E590D
3D90542D
BE16EBFF
3DB9C156
3C042102
BBFB8CE7
BE075D7D
3E3929CC
3D50CBC1
BC885B68
3E283E5C
3C69AFDB
3DCDF844
3E541B77
BE40C4AF
3B5F72B9
BDBB954F
BC926B7A
3D689B54
BE153B90
BBDBB134
3DDF4F69
BE0FE42A
3BC4DD78
BD6A79AF
3DC5C1A2
3B067C7A
BE9BAB1C
BE27D586
BDC289C3
BD884C8E
3D81F656
3DA0B27F
3D0CF0ED
3D0A46C4
3D00FAC6
BE198E53
BE3B7B5D
3E00C4C2
3E6A4779
3BA972F6
3E7D3EF9
3DB881E7
BE1ACBB6
3E88AF90
3E5158EC
3E2872E0
BE4F633F
3E7B9831
BC1575F9
BB597990
BCEEBC32
BD78EAE0
3D649A7C
BDE661EE
3B914499
BACFE491
3E3B9369
3CB99D74
3E005187
3A3A17EC
3E7D6DD2
3D3BABF9
BDEDA42C
BD630EEC
3E069246
3C576E1A
3DD36526
3E31AD4B
BE285644
BE40A9BA
BE19D5E2
BBE43D77
3D711E87
3D450A6E
3DBA9F0C
BE166928
3D9E51FC
BD6E5559
BDFE08D2
3DFF9F1F
BE17370D
3DE19512
BDB5CC57
3D4BB6F8
3C87D846
BDF34021
BD416ADD
3D428179
3AE0D703
BD2F28DA
BE3E71BE
BDC53D31
BDB4E0E9
BE4014D4
BDD8D512
BDA84901
BD6CB139
BE629C67
BD2BBC48
3D444E06
3B4ED951
BDF9E123
3DFDE56E
3D9E220E
3D2F13FD
BC38B541
3D4FA6FC
3D2D3E99
BD929E2D
3E0C859F
3DFB7086
3CC4E1B9
BD001884
BCA20449
3CF938D9
BE0D2393
BDB30C13
BCBD35A7
3E05C1E2
BD694E79
3D238E0D
BDF81661
BD84442C
3CDBC411
3E188314
BD40EC44
BED0C45E
BDC88FA0
BE16A354
BE024257
BB02086B
3CCEB273
BD91C189
3D19AD20
3CFBBC8E
BDB371D1
BDDA7E4C
3E0C3EE3
3E136D51
BDF0C455
3E2C24B6
3E424CDD
BC6BFFAA
3E102056
3DB73A94
3DE9750C
BD92BF82
3E2B4DBA
BD71CC5B
BD0F9CFE
3D99432C
BC9CE42F
3E35B9B3
3CB3F794
BCA2DD5E
BAA81F63
3E56529F
3DAEE269
3D2F333D
BD5F40B8
3D9741AF
BC002B80
BE172399
BE0FDD95
3E43A279
BC6E47B5
BC994513
3DAB9D44
BDCF2AEF
BD6ACE26
BE009B76
BE177228
3C33CD36
3DFE9043
3DC00539
3DB79574
3D13A85D
3D80B093
BD90FC9C
3D1E8BA8
BDDFD0B1
3E086DC7
BD5F374F
BD3756EA
3E029A15
BE398A2D
3D87752F
3D2F171D
BD99E3CE
3E1F1928
BD004BD5
BE617C5D
BDDDFFA0
BE268992
BD29F130
BE17C939
BE60C839
BD8DA6A9
3D030A51
BE17621E
3D693516
BD909391
3DF23467
3CB3C467
3D466C9D
3D69C9DE
3E3C8A3B
BD3A94E8
BE3956D7
BD1C0744
3DBC032B
3CD16D0E
BE0BA0AD
BCE1BE35
BC00EDE9
3DD4CFA6
3BCB5CDD
3D7A7933
3CAFE1DD
BE10659C
3E3C126E
BD2AEBF0
BCD3AC08
3D18197C
3E145415
BD1872FF
BE9CE96A
BE83D2A8
3B9AB05F
BDC531B2
3D0A1EB5
BCA60696
BDDC85A0
3E3C8267
3E4E4298
3DE25E08
BD35A7CB
3D89C0BD
3E003D73
BE17387B
3D915A84
3E831337
BC1D76C4
3D30519A
3E425328
3E1F6089
3BA84452
3CAE0FA6
BD1DB49F
BDB734FD
BCF88583
3C96A8CB
3DA4FA53
3D163706
BDD93959
BD8C1D56
3E4A6D27
3CC5E3B9
3E88F75D
BE06AF29
3D324199
BDE606CF
BC8F7A23
BC6506A2
3E01342E
3C8EA006
BC670E7B
3D0F4DD2
BE3B85D4
3D0172DC
BE80F7BA
3D53077C
3E450292
3D301FB9
3E3C1F91
BDACD2F2
3D0EB0E7
BD8B1F75
BD372F00
3DC182A1
BD99D59D
3D9658F8
3D92AA3C
BD5FC3E6
3DEDEC86
BE40CC37
BD8C348E
BD6F2A7F
BE1EC610
BC4FBCBF
BD0AA49B
BE570957
BDF68D10
BDA0ABD4
3BD5BB30
3CD0F939
BE6E6607
3DB6D6E2
BDCE9665
BD0F606A
3E7FC58F
3DCBAC75
3E95DE95
3D58FF8E
3E4F60F9
3CE025C7
3DC7BA98
BE511224
BE15CDBC
3D91CEAE
BD57CAF9
BBF9DF6C
BCD03C57
BC9AD524
BD9B9232
3B807C81
BE17EAF3
3E0663FC
3C6F7D2C
BE20A24E
3E42C954
BE3508E4
3C2C7A77
BC9668D6
3E6A58F0
BD5003E1
BEA486BD
BE45B6E1
3C401049
BE0C3DCB
3D0B3672
BD333BB0
3C3B562A
3DE3980D
3E979E38
3D26BF74
BD93A118
3DEB0FAC
3E221B5F
BD775D12
BDDA6062
3E30694C
3CE34F9F
3D422C01
3CD36744
3D7119B0
3DC52F09
BDA80D8B
BE0B00E7
BC809BC2
BD93089E
3DD111E6
BDDF8CD4
3D54F4B9
BCDD6768
BE4FA992
BAF6E20F
3CD90161
3E146E29
BDB6C69D
3E385190
BD9C5169
BDF73B1B
3CB7DB9B
BC6F9302
3DC944E1
BD871868
BDEA3985
BDA48108
BD3FB2BD
BE1B05DD
BD1A1421
3E4D9F1E
3D998D9A
3D4B4824
BCB7A9D8
BA32BBD2
BE066A6D
BE17A58E
3E1EC6C6
BD95EFA7
3DE5FCE0
3CD4FD19
3DA89C75
3DA5BD9B
BD09FBBF
BD902AA4
3D4B0F2D
BE43AEB8
BE379344
BDA869F4
BE016B0D
3D3965F3
3DC5D32B
3C588765
BD495261
BE1D405C
3C8DB541
3DC36CED
3D6AEE89
3E32DDBD
BC1CF404
3DAAB7DC
3D494022
3E04B308
BC78C35C
3E574C57
BE15E1F8
3C822D90
3DD7D5C3
BD12C67A
3D6661D0
BD8A20EA
3E03EA22
BE3CD776
BDEB6E96
BE32A175
3E00482C
3DB79858
BDEB26D4
3E0F727C
BE13CB74
3A826356
BD73DFA4
3DF01313
3C9C0951
BDF3BC0E
BDF033AF
BD33657A
BDBF32C4
B7A3CADB
BE1E248C
BD8BEC2F
3E882886
3E766C41
3D263E30
BA89D473
BDD7C840
3D2054E7
BDDE6AE0
3C6A5E02
3D59626B
3DB00255
BE023D03
BD2071CA
3CE27580
BD2224B0
BD02727D
BDF3FE75
BD1137C0
BD199EAA
BD3B0509
3E106C15
3CBE9AA5
3D55C5FE
BE0F5B51
3A54D5A4
3D348DE6
BD115E4C
3E16AEE4
3D9D6257
BCFB75E1
BD75282D
BE072926
3D5EAE16
3D7A5F31
3D8E5EFA
BD3539A1
3D541C66
BD7345E3
BD9C0EB0
BD01E2E1
3E043C1D
BC7BAFE7
BDB1375C
3D800E93
3DFF3A7F
BDA82CED
BD496604
3D5B7D05
BDB3264B
3CD4A35D
BD142A7F
BDF9DECB
3E89756E
BD098BCB
3D1AE226
3D8CB104
BD4538B6
BD89F4C8
BD800D32
BD64AF03
BD75365D
3D4B2BAC
BD905439
3D44112B
3D80B793
3D8FAC18
3D630673
3BF35E2A
BD9055E1
3C41DAE5
BE0CA457
3DC5DE90
3E453BBD
39D4DAD2
BC9545A6
BE112B4D
BCF276A8
3E10E46E
BDB1B857
BCE326FE
3CC0950D
BDBD7B1B
BE4D0D6A
3DC8D186
BDD58BC2
3D7BC0E8
3CCEDD92
BE0F4D01
3D8B0730
BDB8726C
BD2FC6AC
BDD26137
3D5DDC6D
BC0D0B05
BD483DF6
BE5D5275
3D2094E3
BD05B55B
BDBDFBB2
3D844505
BDCDEBD3
3DDBA9E6
3D77D037
3CDA9118
BD9D92A3
BE062407
3D053AA9
BC838F35
3D036179
BD8DED90
3DCA5066
BD11CF18
3D0504CA
BC095973
BD351D06
3D3A006C
3D9B9550
3DB87602
BDDCDE9F
3D2C82FC
3D543B9A
BDBF3F56
3E1DD585
BD9E348F
3DA709DE
BE03F3C6
BCB37660
3DAC8DB3
3D0C8D80
BDE7ED18
3D41F3B6
BCBC3058
BD6A87AF
BD3EE8FA
BD946B40
3DF3C8CC
3CC086EF
3D8DB6EA
BDD25AE6
BD924EAB
3D5A5B9F
3D70A448
BC595956
3E33E97F
BCFA0BD2
3C8D8351
BC839D54
3D8F2D2A
BDAA20CE
BD41A9D4
BD92D2F5
3D0B84B0
3C49CE87
3C118758
3D256606
BDE35907
3D84960F
3CF4263A
3D435C0C
3CC20FC5
3BC465F0
BD396B9B
3D47BDFF
3DB4D7A5
3DA4B965
3C0CDFFD
BD6B5F3D
3DCB0090
BDE78286
3C560E6D
3CBADE3E
BCC9786D
BD7E38C5
BD90F75B
3D82F146
BC1D9F90
BD27A3A8
3D13BD88
BCDC06F8
3C682056
3E680591
BD855710
BDC4115A
3BB1F30F
3DA820B4
3D1D0054
BC2F7789
BC1112C8
BC0F9586
BE1ACE58
BE13BE6B
BDDBBBAF
BD8153D6
3D3CE48C
BDCB5684
3DCDEDEA
3D7D2FA4
BD6E74F6
BD69DE7A
BBCB83D3
3D923492
BD8A39CC
3CFEBE5C
3C717F38
BD7E85B2
BD95DFD0
BD197607
3D3EE098
3D83C77E
BD803CB6
3C1B83B0
