BEEE093F
BECF919C
3D5C0A72
3C3DABB3
3E45BF51
BEF2EB12
3D995990
3EEFEF46
BEC51524
3D218B61
3EA2D037
BE8F3109
3E0C172F
BEC05652
BEE47B0C
3E15DF85
3E8A95DA
3E1F15AF
BEF04AF4
BE817969
3EFB6E7E
3EAA6A1E
BDB96B8A
BEE22D49
3EA5F651
BE8C2586
3EA60C1C
BDC19CE3
BE5C4AEE
B99CFDFB
BE3392B9
3CA0E3E2
BD897E16
BEB97443
3E5A87C2
3E6E23E6
3EACC928
BEA05A66
BE512757
3D94DD2C
3F197F24
BED58E2B
3E63F538
BE6D64ED
3E4F6CB4
BE55652E
BD7B8B13
3E2DA43F
3E7E6ECC
3E8387A9
BED29D3E
BE6DDDB6
3E8E0FCB
3EC20BB3
3E38322A
3E8C92A6
BF0950B1
BED262BA
BEDB3E69
3D77A12F
BEAD5445
3E5B97F1
BE5F824F
BEA62DC1
3C3996BA
3E4E011E
BE0362DB
BE86E90F
3EF15B30
BE96B595
BEDB5F5D
3E95F97E
3E2151D0
BD645B20
BE50BBD1
BEA7675A
BF0A82D1
3DAC5A96
BE9E06B7
BE9AE741
BE28580E
BE03523C
3E58E950
BE83C586
BEBD9FE8
BCFE33EB
BE766CF1
BCDB3E12
3E951B5D
3D3637BB
BE9BF070
3EBD8A56
3ED14060
BE86F34C
BE83C93D
BF0D821B
BEC65E0D
BEAB566E
3ECAE615
3E5C00BA
BECE0374
BDCB4DF8
3D568484
BDCC2492
BE6B935A
3E389E6D
3EF06B3A
3E7D6D7B
BEAC6027
BEEBCEE9
BDDF9E8E
BDE9B0D8
3EA77B93
3F0F65D2
BE0856E4
BEADC61D
BEB98205
3EF5FFF3
3E282873
BEE11F92
BD965649
3DB10E94
BEC6A164
3E263740
BE2EE58F
BEB2EDFD
3DA4BF6A
BE9753F4
BE3E8BA2
BF04E5DC
BDD58EE8
BE4DF635
BEC2BA71
3EB11066
BDF19E0A
3E88928D
BEDC81B9
BDDF02BC
3E2D577A
3ECA67E5
3E949B2E
BE66BD03
BEA36251
3ED42552
BF26811B
BEA4EDBB
3E94102B
3CE8BEBF
3E98F0F9
3EB339F8
BD992798
BEF66782
BEED93DB
BE50D091
3E344E4F
BD38C9C4
3E93DA85
BE94C7E1
BF0EE79D
BDAF9177
3E95E2DD
BE86E93F
BC6F3BEF
3EC00BD2
BED58133
3E21B3F9
BECD6768
BF004855
3E289383
BF086B9C
BECE1CB0
3EC8C130
BEAABE56
3E24B832
3E971F69
3E21FFDC
3E17EE69
BE5796AD
BE5291CF
3E8F5C3B
3DCCCE38
3E0DD48C
BE59F1CF
3DF6DA1D
BE71BF87
BDC2B03D
BEF0D9DF
3EEF9B73
BD9F91C1
3E5FFC53
3C0F3990
BE9EC077
3E8726D8
3CCA2970
3F0EB2A3
BEE47B4D
BEDBACCD
BE9AC205
BE7B8410
BDCD1CCF
3ED08FAE
BC5DC260
3E8291A2
BDA1BB3D
BEE9CC96
BE1E20E5
3EC5F0DC
BE47F8C6
3E3160C3
3D87CC85
3EBDB74C
3ECEB9D8
BEDF0395
3E069334
3ED2FA10
3EEB614F
3BCEE8FD
3E86056F
3E50B442
3EAB7E1A
BDB38049
BE64DE89
BCC6FF72
3D10BFC7
3E83F6FE
3DD72969
3ECFADED
BE406D00
3EBD3FF2
BEDD5AD9
BECAA44F
BECA1611
3CE4C783
BE40A56A
3D805115
3E4B38B5
BD0DD65A
3D50B6F5
3E771DD6
3E445970
3E8FE0D2
BE987DDA
3E30F477
BE08D7CC
3E39F14A
BEB6EB98
BEBA3B05
3EF70E46
BE0C2C5D
3EB2E4D7

