BD6A2F24
BD9F18B1
3E56B766
3E63E10F
BDB32F25
3E911075
BE5634E3
3D650515
BA8CC7CA
BD5774D0
3E91772C
3E87593F
3E0C2A9E
BD615D34
3DF00317
BDBBE042
BEBB18E1
3CF673FF
3D351EC3
BE43C0AA
3E4B81B3
BD32043B
3DBBED0B
3E34C7C9
3BE97F70
3DE48495
3EC5303D
3E803424
BE747360
3E56A06F
3EAE0CED
BDC9326E
3DC55346
3E1FB68C
3E04DBF4
BE3C472A
BDE30B54
3E362486
3D94D7A0
3DA35305
3E02054E
3E8D2683
3EDD44DC
3E005A8A
3E552638
BD2FCCF4
BCF674C0
BE2FD592
3E9CB249
3D9F44A9
3E75A7B4
BDC0FAFD
3DA13378
3C058D43
BD20FC4B
BE2BD5D8
BE0E5BD9
BE2F3E4C
3E60F5C6
BC8B5630
3DAF7EE5
3DC40C68
BE37CD06
BCAB6C84
3E1B8495
3E163EE5
BBBD07FF
BCA80DEE
BD581014
BDF98E7F
BDFE0601
BE169404
BE50FEFF
BD8B7700
BDA0985C
BE76EC18
BD1D459D
BD1888A1
BE878625
BD2C61D5
BE777C4E
BD759646
3DC9DD0E
3D628FA5
BE0E9430
3DFDFE2E
3D8B695D
3D8C9EF6
BD8E9288
BD8B6776
BD9FCF83
3C0240AE
3D8E92BC
BE40437D
BDF320BF
BAC49542
3E34F989
3D77129B
3E423D6C
3D0D846B
3E6DB929
3DFD48B1
3EE64851
BDDFE41C
3E3DE594
BC1B1B99
BE224526
3E79CAEE
3E59D54C
BEB55A77
BE434340
BDF55282
3DFA2923
BE8213B8
3D949C0B
3EAA5FEA
3C858F62
3D22F930
BE176932
BE313FCA
3E49469E
BDF0A86D
3EB3D918
BC96735F
BE2B35E4
BD73BFC0
3D1A4B10
3E19D3F8
BAE905E8
3CA75D41
BE713066
BE2E6BC1
BE60AF79
3E30FCFD
3E3EDC03
3D4E7F83
BE127F3C
BD985D6F
BE1769D5
3E8533D7
BE8E1F63
3D8D935B
BDA444B9
BED5E852
BD09A660
BCB17578
BE845653
3DE76545
3E8EEAEF
3C61B837
BB97A266
BE629FFC
BE39EBD5
3E5F3C7D
BD9ACD8B
BE015A3A
3E4D5EE9
BD801658
3E6C28BE
BED6A30E
BDF20664
3E3D6796
BD5C1121
3D8196E9
BDA46003
3C8AD1AD
BD73E3B6
BD914AB0
BD4D34AC
3E54F134
3E6D3C40
3CBF854A
BD72D3AD
BDE8A8A3
3D5A1D2E
3D83D771
3DB93E99
BD942EFD
BE921AA8
3E5AA49E
BE23FF58
3BDF8D17
3CF444BB
3E6468DF
3DCAE6AE
BE447424
3DC9AD89
BCBE4C77
BC791031
3E43B28F
3E6404D4
BCCF37FA
3E583702
3E776A9E
BD400CFE
3E089F07
3E70A4C8
BE3DDFE3
3E85DD59
3E4AA4BE
BD75E3D6
3E44B492
3E3F9DE4
BDBC6FDB
3E19FC80
3CCEE5FC
BE2F31AC
BE736509
BDE51309
3D678442
BEB8FFE5
3D085F32
BD6FF81F
3DF747D4
BD78FFDF
BE3C6382
BE305CED
3DFE60E5
3D651DD4
BE868176
BCE9CDC9
BE952DB1
BDB5E7DE
BE351CAC
3D076764
BE89A9A0
3EB438DB
BD889FE3
BDD55F8B
BD591DFA
BE153B57
3DFF1E2D
3E5103A7
3D1FD965
3DD912BE
BC712B24
3D01361D
3E4FC5CD
3D7D373A
BE2A935D
3D98F51D
3D24D3E6
3DC33B57
BE5C0F59
BDD4B52A
BE86B15A
BC8C61B4
BD076C9C
3DBBDC77
BDC4A265
3E1E0CBF
3E01510C
3D2EE573
3D1E15DA
BDB2E725
BDAD1DA5
3EA9CF84
3E261186
3CD58E6B
BE0BBA75
3D9E06B0
3DFC915E
BE2A5F4A
3DE2CCE7
BC1BC4E6
3E6ED9D8
BC9FC420
BE429FDB
3D7438B7
BEB33821
BE02A9B5
3D2D9CFA
3E9653BD
BE194046
3E43D299
BEB552E2
3DE762E7
BE42B31D
BDAC16A0
3DA6E5EC
3E9E250F
3E2A570F
3CADCCF8
3D929351
3E195EE9
3D5EC019
3E1641A1
3DB24B57
3DCFBEA8
3DDD7E6C
3DF36AC2
3DCBA296
3E93DA06
3DF1A631
3EAC9E2F
BE431E10
BD88ADA9
BE375FAE
BD5E9921
BE315DE5
3E3A2A10
3DAE6F83
3E168010
BE3E932B
3E7866D1
3CBCFDC3
BD882B11
BDB7E9CA
3E575F0E
BE7343C4
3CBBC449
BD720513
3E402E43
BE792147
BC5ACA49
BD91295B
BDD8614D
3E13C655
BD1C2DCD
3C3CC86F
BEA8851F
BE38F3A5
BE8029DD
BE806957
3DB24D8B
BD8D84DB
BE4AF29B
3C981D6B
BD3FA676
BE6F262C
3E26C54A
3E1B0314
BE52FE46
3D4AA6F8
3E17EC63
BDB9272B
BE52295B
BD843FED
3BDCA7F1
BB7CB441
BC6D5041
BE609EC0
3DE7D8AE
BD21965B
3C509BC8
3C8EC5BE
BBBC1585
3AD2658F
BD0D84CE
BE11759E
3C9C82D9
BE125D08
BD44BDBB
3E893C44
3D45DBB8
BD080E06
BE7EF657
BE0D51D2
3E06CB45
BCB284C5
3E32B52A
3D821EA1
BE24ADBC
BE94C080
3E840B32
BE839B73
BE900375
BEA11B77
3DF4630D
3E276F9C
3E8289F2
3E8007C7
BE03FCB7
3E7B2CEE
3E8A6E65
3E0AB625
3DD30D1A
3E943145
3E36B839
3E33B298
3CE5D0CF
BE404A49
BE0BC264
BDDD8C09
BDF2DD7F
BE3D9B5A
3DD9748D
BDB78BD3
3EDE7005
BE8AAFDE
3E8D8EE5
3DA4F29F
BE09612F
3DCEB2F2
3D1849EC
BE3116D9
3E2A0DAB
BD420C6B
BD1F566E
3D958105
3D5E60A8
BCE0091D
BDE732BA
BE854926
3E186D08
BE6A57D6
BEA7FCE6
3E5DBEF3
3E0283BF
BEA8F4F3
3E5F024A
BDE0F5A5
BE4B2AE2
BF1D7D23
BE62E1F8
3E861B3F
3DDD7322
3DC82FD2
3E5EE3D1
BCB902ED
3CA868A7
BD2AC776
BED6B206
3E6FD430
BCB3F16C
3E89B84F
3E8D4843
BD6B4945
BDAF8157
BE89AB41
3E9DB30E
BE820F0C
3D1CBC76
3E884CE7
3EB1361C
3D56CFD2
BE366419
BE78CE12
3DD3F474
3E0FD069
BD945B13
3E591B0E
BD8254AE
BE5FB892
3E5644C5
3E98BBDF
BD34B2AA
3CE08C53
BE396127
BD25D249
3E8E37D8
BE69774A
BE19B0DC
BE276B43
3E0C3664
3DDFE95B
3DE5EE23
3DF01662
3DFDD82A
BE40B96A
BD63CA9A
3E712D4B
BD1DF078
BCD5562B
3DE79E2E
3DD44984
BC07E2D0
BD5FF62E
BE41CDED
BD528324
3E0D214D
3DED3ABA
3DF8F2AB
3E706B16
BE9E6CB2
3DAF1582
3E28C587
3C9F5E24
BDAE49ED
3E437A91
3D7204EE
BDCC36A4
BDD3ECE2
3E1BFB3D
BE621EB7
BBFBFF74
BE56D65A
3CDB0468
3E6D7E6E
3DBD45F6
3A70ABD5
3E12E250
BD14E285
BE681031
BE1C14AF
BBF5EC91
BDADC033
3D86B9E1
3E250FEA
3E0B2F61
BE68EF92
BE0FB544
BE35C6D1
3E02836E
BE1AC0DA
3DB9D63C
3DBBD0BF
3D927F07
BDEBA827
BC9C8D82
BE555E78
3E662A0C
BB41C124
3E60C23A
BD1195B7
BD6F9BBC
BD67721C
BE67BF2A
3E362575
3E4C2357
3E4C6147
3DA7666B
3EB20151
3DF97DBD
3DCEAF65
3CA640F4
3C8E6FA7
BDAEE99A
BE3CF9B6
BE3E8F56
3E7CA736
3E09979A
BD2A107B
3DE3A9DF
BE968AAB
3E079C4E
BE2372F2
3D92B2C4
3D8143FC
BE492FD5
3D8670B1
3E5365CE
3E1C0108
3E2F62B7
BE19DC71
BEB04325
BDA37BB8
BE1467B4
3BCBEAC7
3DCFCF84
3EA1AD4C
3E8E7E76
BDBCE188
3DA8458A
3DDFEA15
3E97082D
BB382DB4
3E825F2D
3E909EF5
BE8ED1DF
3DF5237A
3CA3857B
BED5455D
3D8FE8F5
3D8C79C5
BE392618
3E0F5227
BE73CB4A
BE3F196C
3E34BDF2
3DDFB930
3DF66746
3E5CAA90
3DFC6DE8
BEA83052
3DA87C12
3E8ED88A
BE04E459
3C618678
3BE03A11
3E93E070
3E300D84
BD975D76
BE10DDD0
BD4E9AB3
BBA98454
BD1D566B
3CED73DD
BD8C78E4
BEA52B1B
BD2022C2
BA25EAC4
3DBDDA69
BC44ADC7
BD9B7275
3DC69BEC
BD1DCF01
BDE0BFD0
BF2651E5
3DCC33BB
BDA6892F
BDE5A020
3E9A4393
3E827A2A
3BBB3FF6
3E64018F
3C16ED55
3E2BB538
3D9B4226
3EAE7C5C
3CCD2FB4
BE876C36
BDB01CB9
BD008260
BE9E5394
BEC2B650
BE18F92A
BE8971A6
3D88DAD5
3E6EB7FF
3C36D26A
3EA1A262
BD920B5D
BE36D103
3E07B482
3E13D525
BD938DA6
3D60E575
BE060B43
3C1C817C
BD8AF2B6
3E931F69
BDCD9D68
3EAA55EF
3E240410
3D65BBD8
BD93B44E
3E2E55FB
BE8C951C
BE17F342
BD442D8C
BEC2B7A6
3E856326
BECD5B34
3E2CE7E2
3E53A5E3
BE9AC447
BDF0B5E9
BEA7DFA3
BE82E5F2
3E322AC7
3D8DC12C
3DD64BB8
BD5CDDB0
3E790E80
3DD8CC1F
3D944341
BD8E27D6
BBB25308
3DF3E1B8
BDBC18DB
BD554BF2
BE274439
3DEDDAF4
3D103B84
BDBC4CAE
BE28CB10
3D27E936
BE807410
BD036DCF
BDF3FDC4
3DD01BCD
BC99C9EE
BE85C5FB
3E001963
BE4D19B7
BD295819
3CE1BD37
3DB8F53E
3E2DBBB9
BE96E7AE
3D56DB54
3CC29CB2
BDC07E79
BE2EA37A
3D879543
3D5E34FA
BC7BCB05
BE07D9FC
BD038EAE
BE92EB64
B9091116
BB564B4F
BDF82E4C
3E1D5833
3D8C21F4
3D92643A
3D730CE6
BD9921F6
3DEAEAAA
BE2DCBBD
3CBD8134
3DE71B8F
3DA505FA
3EA6778A
3C845B93
3E397FEC
3E3C504A
3D1ABBDC
3CA93625
BCA57638
3D57C015
BE3A9245
BDB560E3
3E9C3B49
3B184BF5
BDBA18CF
3C532E44
3D62422E
3E37462B
3DD5354C
3E16AFB3
3E241CD8
BE7CD292
BEB96417
3E4895A1
BDE4B33C
BE4BD6AE
BD0FB792
BDA39188
BE09A1A5
3D97FAAC
BE6FDC7A
BE52BC45
BE45502C
3E8FD943
BDA7D9BB
BE1F27DA
3E6A72E2
BD9D2D05
3D32C2F8
3DF5C77E
BE6C6FFB
3E184917
BE5CFF28
BDAD42E9
3D20EA2F
3DBCF3E4
BE465D77
3CB2DD4A
3D64DBAB
BDDE5720
3D6C41B9
BD9AF9A1
BDAE305A
BD9C4DE9
3B343D60
3E45DE2F
3D9D95C3
3E77996F
BDB24A45
BD512390
BEAE7CF2
3DAA320C
3E376648
3E4DF158
BDAACA45
BDF83098
3E154DF9
BE9F7DFE
3E6C01C9
3E0D4188
3D6FFFAD
BE16B0B9
BCD6B596
BE8D298C
BE9B138F
3DC3CB1B
3E6C1CEC
3DC38FF0
BD08F188
3D169922
BE5D5684
3E443275
BEA2E6C2
3E88235E
BE3AD429
BD154189
BD2C3E9A
3DCFB2A9
BC9EF906
BE8DC973
3E5C705B
BE7B0AA7
3E8D42BA
BC72D8E7
BDE33074
3E0BF4B1
BE41DC9E
3CB1B243
BC88BDD1
3E1D82E5
BDAE798A
3E76A6EE
3DF758BD
BDC734A2
3CC0AEF5
BD87D64E
3E5B627B
3E48E0BA
BE1975F3
BE54CFA7
BEC64599
3DCE75F0
3E2D7F82
BE707077
BE460F14
BE6DD5DD
BDAC76D7
BE4EA2B4
3E085095
BCEB8AB7
3D73DAF7
3DF943F4
3DA7FF5A
3D7FED9C
3E487ACB
3D80DA17
3E939547
3DA202B8
3EAB67F9
BE46B11E
3BB09D85
BE24F7A6
BB06BFD9
BE5DDF45
3B00029C
BDF8521B
3ECF5A1B
3DEDF2C4
3E8E210A
BD2B1296
3E643DA7
3E1F9B16
3E930989
3DF01538
3D1F1A64
BE4F9C37
BD9F28DF
BC8ADF5A
3C71995E
3DC776B4
BDBF2213
BD577D12
BD492983
3E3F2710
BE114D4E
3E19E56D
3E346262
3E30204B
3D237F66
BDFF0BF2
3E20867E
BEA0CD5F
3E0B5F2D
BCB398FC
BE300DCF
BD764D06
BE6C82BD
3E0E5BBE
BE6DB2A0
BA74C899
BE81D4A6
3E69ECC6
BC3F8804
3DBA5B45
3DACB125
3DDDA046
3E67AF99
3D161F58
3E1A0315
BE78DB76
3DC6223E
3D64C4A4
3E87CFCF
3E112D1C
BDCD30BE
BEA1A52A
3E15F9AA
3D88750F
3D192C79
BDBAB3A5
3DE29BE4
BE4A4F2A
3E89014A
BDDEC2BE
3E3125DF
BE327C70
3D5DAF8B
BDA3D7FD
BE113A72
BE2ED6A7
BD583BF3
BD64BC7D
3D172120
BD9E80F3
3E4B67A3
BE32596E
3DE50A0C
BE02DB81
BDD93B38
3E340F63
BD844728
BDD80CB9
3DAA47A4
3E0DFA9B
BB8C2C0B
BD915B96
BE18A86A
3E144F84
BB9EBC76
BD99FEC0
3DBA46A6
BB23F483
BE19DBE7
BE8B9A41
3D987152
3E101181
BE1D33A6
3CBC99D3
3C37E2F4
3D922093
3E2DCD93
3D2E9F2E
3E584D76
3CBBE011
BE706DDB
3E349863
3D0D8C77
3DBE0489
3E5A4E12
3E02656E
3D3E5238
3DF75B0D
BE012B59
3CA92EF4
3D8D08B8
3D235994
3E2DEE2D
3DDD5E25
3D3861FE
3D47AC7B
BDF12F94
BC6D5CEF
BEBFC07E
BD3D9BD6
BDF61A11
3D310D18
3E90E31C
BE42F640
BC80C95D
3DFDFF56
3DCB23CE
3E6B6EF0
BCA1754B
BE938882
3D603E86
BDB659D2
3E3F3B5B
3C56CA49
3DE465A6
3E3EDDA4
3DDC1DD5
BE6BB1B5
BCBC82D0
BCE3BD7E
3C2654A3
3EA9247B
3D908742
3DDC5DE7
3E395570
3DF92CFE
3C32500D
3E582724
3E07EA06
BEC38B24
3DDB79C8
3EA245BF
3C65B832
BE0F205E
BDA70801
BE69C518
3DB57115
BDC1A99C
3E8333F6
BE03A8A1
3E82B6F2
3E475EF3
3E88AF3E
3D5B89D0
BD9FDF83
3DDA3D36
BD42E2A5
3E5B1DE2
3E3F448C
3E0BBBC3
BE1F6136
3E9676E5
3EC213EB
3BEC12C3
3DB5FEFC
3DD6AA5B
BE7B3728
BE2A2C9B
3E5184A8
3DEFF8B5
3CD27E80
3CA00734
3E2A1945
BD0369FF
BE26C185
3DC2A6F9
3CE4BC3D
BDA0281C
3E6866B6
3BB8A98A
BE161E1B
BE071216
3BADC738
3D587234
3E00EF1A
3D9155E3
3D50FD38
B9AC3153
BE0D6A90
BD20F462
BDCE9646
3D86F572
BDFDC8DD
3EBDF96E
3E0DC898
BD108422
3E5AF2E2
3DB138E2
3E610F92
BE243437
BE6A39A3
BE8596D7
BDFBDD43
BE0DEB66
3E4FF7BF
BDA2264E
BE1B5BC5
BC1930DC
3E85D111
BDDDC679
3E56987B
BE29BC4E
3D78E50C
3DFD2932
3E437926
3CC136B8
BDA74AC8
3DA5C1DC
3DD67559
3D39756A
3E1128F1
BE4E6974
BE4695B4
3D725543
BE416C69
BE5D0DA8
BE2C511A
BE80AAAD
3E16D7DE
BDE04B70
3D5C067B
BD8EE280
BEA0F8EA
BD633CFC
BE10AD97
BD3DB3C5
BE1A4286
BDE66E97
3BBD0116
3E45B056
BE708C93
3DEC0A72
BD969442
3D5A3CAB
3DA3F672
3E52372B
BD4D3642
BDEAE3EB
3CB3E15C
BE2B8275
3C4D4FAD
BD42B426
3C6A8C7E
3E2622E4
3D54AE49
3ECD726E
BD238A8D
3E8B8254
3E2630EE
3E39FE95
BEDC6744
3D0D2F8A
3E1FFE39
3D593464
3D8E0095
3D967CE1
BD9E2AC8
BB4421C6
3E1AEE6C
BAD174F4
BDE78FF5
BE970718
3DB525E9
3E135970
3ED3B559
3E182168
3E7ACC6B
BC8708A8
BC88DB2C
3D9D66AB
BE165F37
3E3CD358
3D95EE3A
3CDDC54A
BE982FC8
3D8DE210
BE3BA5D5
BEF02AB9
3DB2E778
BE3D9761
BDAC4A82
BEA2A8F3
3EB3AA54
BEB13B70
BDA5FBE4
BE9AC748
BECE5D40
3E14D525
3E563847
3E0D4B9C
3E1226BC
3CA34F78
BD7CD0CF
3E855D67
BD97ED72
3DC45A03
BD5116CE
3E46605D
3DD8DD5E
3D5A4BAF
3D85256A
BDE2FC34
BD9C831F
BEA1929A
3E210A3E
BDA55163
BB90152E
BE1DB786
3C856AD3
3E441729
BDA4AF30
3E62457F
3E2B9D97
3D02B52F
BDC274BA
BE15A26E
BB7E19D9
BD9A21DC
3C93D632
3E3EA534
BE41AEA9
3E1F481A
BE27CE9E
BC454312
BE2B2CBF
BEA92C82
BE20E389
3D9E4D2C
BD2DB810
3E904DB1
BE287534
BD3F6052
3E215EEB
3E867919
3D7043AE
3DE1F735
BD12C8D1
3E8C011E
3D8ACB79
3CAFFFD4
3E5524A5
BD8E8994
3E3E4532
3D7B9DCE
3E91E35C
3DA0A4E5
BD20D9AD
BD7819E3
3E4F84BF
BDDE09C3
3D6DEC99
BCBF99EE
3E89E4D4
BE7C5367
BCDEC690
3E935642
BD7B1DE2
BE266BA7
3E247C4F
3E5087EE
3D8F4651
BE152373
BE6C5744
BE1E1804
BE1DB7D9
BE143CA6
BE6CF02C
3E38E33E
3E6DA271
3E4B3FDD
3CE540E6
3E1BBDAA
3D90A22A
3D736F73
BEA2EBA9
3E2464F1
BDA37CD8
BC8069C6
3DFA04B0
BDC23E3F
3B41F714
3E2E5ED3
3D4A424D
BE11CA8D
BE39B45C
3DF95670
3D2F08DA
BCB2D0ED
BE70B761
BCCFD642
BDF58562
BDD332FB
3DBCF054
3E3E56AC
BD222A6B
BC5F0A9D
BD0DDE86
BD995262
3DE001E9
BE759634
3E391B2A
3E4221FA
3DAEEB46
BE4F2B2E
BEB1D3F8
3D8F4918
3C0F0AAF
BBE422DA
39932F87
3DBB007C
3DA83BEF
BD95847A
3D8BDADD
BE4B8219
3E7AB3BE
BE590229
3E88DF71
BE57F1BC
BCE0F024
3B045266
3E08A086
3E5D6769
BDB46BAD
3DFBA91A
BE16D137
3E12FEE8
3CE5BC0C
BA9230E5
BC8950F5
3B53858A
BE1F060D
BE0AD582
BE4AEBCE
3E601D94
3D4EAA55
BCF4DEDC
BB8A84CE
BCC1855C
BCA9AFE0
BD0F9250
BCD48291
3E3FC810
3E3E997F
3CA23DD4
3DFFD014
3E83B9D1
3D0DA23F
3E8FA7F6
3E937715
BE31F104
3D7FBC1E
BE24D242
BDE4F2C7
BDDA0AF4
3C6C0DA8
3E65C476
BE13FDB4
3C1A00B4
3E922C90
3C8AECCE
BEA5C50C
BE8393FD
3CAF88EC
BE743F8E
BDCD842B
BE587E84
BC8D24C1
3DF42A8F
BE5181A9
BE20822E
BDA404D8
BE9EFBB1
BE40D8B7
3DA9E166
BDD9A2CE
BDD7A5C1
BD2C77D3
BE6B36A3
3E2568DE
3E6C9CC5
BE5B6539
BE31D798
BD7721AC
BE348DD0
BDEE936F
BE18FA25
BE22762E
BCB1A2CE
BE0187D5
BC90DF58
BE3B8FC9
3E26CA73
BE05F4CE
3E6DB76F
3D2436F0
3E217DFF
3C04B795
3E47D63E
3E686AEE
3E2FE0E0
3DF045E3
3DD9EA14
BD19FD99
3C3376D0
BD860732
3C1DB395
BDE21E5E
3DF40DD2
3E79681E
BDD580E9
3E341AF3
BDE9D19F
3C7B97EE
3D770C27
BE2C75B6
BDBC00E2
3E65CE2E
3E3FF05D
3E710028
BEAF2CF4
3D163657
BE67A7B3
3DFA9FEB
3E2FA9F5
3D871E14
3E3781C4
3E621269
3D84D298
BCB6E44F
3DD817CC
3D685344
3DD75F62
3E6166B4
BD85C64C
BCDAF6D8
BD8D51CC
3D3C01F9
3D78EB0D
3E3E51A6
BDEEA842
3D699A4F
BE508EBF
3E6D01D9
3D3608EB
3EA9CEA5
3DCDC0D5
3EC234F6
3E90C2BD
3DC6C350
3E13B3A8
BD139651
3F0C73C3
3E49AE82
3DB06145
3D682C51
BEA158E2
3CFE1D4F
BE669DD3
BD86006C
BDE37D93
BE987E9C
3D988839
3DC6557A
3D520360
BE0080EF
BE403B48
3CEF415F
BDA209DB
3D90DFE6
3DC237DA
3E2CA2D5
3E026C2F
3DE98E5A
3DCC05D1
BD3C2278
3E3C19FD
BE50845B
3D7137CF
3E1537FD
BE829671
3D8D7222
BC6FC6A0
3C84A40B
BD7E0517
BAD79CAC
BDB42595
3E5B4066
3C051D27
3DC5A657
3F02174A
BE8B5CC1
3E11E34E
BEAE5D87
BE9C3AEA
BD5E54F4
3E9D4B2E
BCB54BBF
3E3C4C1B
BE9CA047
BD918809
BE705200
BDB5B0AF
3B35CC50
3E01B151
3DFA0EFE
BE720C22
3E0360F4
BEC51121
3E2AC9D4
3E373AA5
BE1B0E06
3E105C54
3E5BDC35
BE56056E
3EE3BE27
3E901C6A
3EC172F7
BC182D95
3DFAF0AC
3E3C0312
BE79BC37
3E942763
3D8E5542
3E38E9C9
3DA59BBA
BE1E2DF9
BEF90AE9
BBC2E3D8
BD7AC55A
3D530A74
3E1621A3
BDF646CD
3E63A36E
3DED7489
BE112BB8
3DCB6DE1
3D72F114
BDCEB330
3E843373
BE02D69F
BE6345CF
3CD7A2DA
3EAA9349
3E5F3C9F
BDE5EE89
BE8FFAA9
BE0CC72D
3E8BA95C
BC06F9F4
3D53B11F
BDBE5839
BD850533
BDBEC625
BD68D04F
BCFBF4FF
3DB09223
BDDDEE50
3E19A75A
BCA52737
3D49F8A4
BD560A14
3E120DB1
BD852CEF
3E87895A
BCD8565D
BE0384BD
BE8EFF41
3E144037
3DB64597
BE5F00B7
3CCE1C6A
3E3E257A
BE805EEB
3D145043
3E045054
3CB4F866
3E32A611
3DC511A9
3E117F53
BD976679
BE1DE03C
3E633887
3E33811A
3D9C2F36
3EBD939D
3DA0D139
BDC89DC8
3E61A6ED
3D9245F6
3E04D2AC
3E0C76C9
3D923B61
3D2F8FC4
BDB1D0A1
BDBFDF9D
3E2B3B08
BE5D3BF3
3D95CDD5
3E004BBE
BE7D22C7
3DCC30F3
3DD237C8
3C7058B1
BE349CC9
3DAA75F9
3E6FDD42
BDAA1FA6
BBC37210
3E83DFB7
3DAD1CC8
3E5A8CF8
BE8DE33A
BDC475DE
BD86BC37
BE0BCC18
3E37BE0D
3D3EC326
BE014808
3D09C610
3D4D65E6
BE124BA1
BE3232B0
BDD50882
3D334824
3E520ADC
BE0A17DA
3C2ABBE1
BCB31679
BDF08B66
BD4A3583
3E177D52
BDF7CBCA
3E393E46
BDBCE00D
3E8D7B7D
3E52F609
BE3F849F
3EB09224
BE66C80D
BE8FCEDD
3E291F6E
BDEF247A
BD397367
BDF7338E
3D211EE2
BE52B4E3
BD915547
BDB2D7A6
3E1AC0AD
BC52908D
BE81B62A
3E4B0674
BE2B46E1
3E0BC4B4
BDF2B8F5
BD450463
BE9B5B33
3E618983
3E4CB38E
BE7B6D04
BE6AEC7E
BE21AB79
BE3C7B53
3E407EDB
3E3A03F1
3CE1630A
BD0E74C7
3E872641
BE81DDF1
3CB4895B
3E6361E3
BE41B4D5
BDFAF810
3DBA00B4
3B40676B
3E33AE7D
3E1F0784
3E2B18AA
BE7CB58D
3E21BDD4
BE1F7BD3
3E192AA4
3E613CDD
3C942624
3E6092B7
BCFB83EA
3CFBD6B7
3E2C429D
BDB7F3B9
3E5B94AC
3E53DE9C
3E715789
BEB79F39
BDD09B8F
3E5D6E67
BE8265FD
BEAEA407
3D16C00D
3A15CE6B
BDC7892D
3E32C810
3E75B549
3E612942
3CBC99C7
3E9CA68E
3EA02331
BD5B4F26
3E2500B3
3E57D526
BE11B593
3E1D5AFB
BE3AE2A9
BE27FFEF
BE0B2CCB
3E014CB3
3C89EEA6
BE25DCFA
BC1056F6
BE320D28
BE77EB88
3E23E6C9
3D6A1800
BE574D10
BD44FEC7
3DFFE0A9
BC0A79E3
3E70A279
3E0818F8
3E1664AC
3D036739
BD4EC602
3D9B2188
BBCBD459
3D6F499D
3E012C2B
BC73E549
3E259670
3E40DAB6
3D4DCAC4
3EC71C95
BD034C2E
BD4DC9D5
BE87D660
BCA63328
3E3CB2B8
3D7F9629
3E376096
3DC66781
3E3FD0D9
3E29E3E6
3E4B1D0B
3E340957
3E7767A7
3E31DBA8
3E1264C1
BE1A884E
3EB271EA
BC12894C
3E1A684C
3E5C3191
3E58841D
BE2BBBE1
3DBDEF79
3E10602B
BE082538
BD6E0FF6
BAACFF57
BE9AF4C3
3E061368
BE274F5B
3DEE8D20
3E74D09B
BCB31FD1
BE877336
3B05F304
BD04BF4B
BD412358
BE0DEF58
BD27EA87
3C05EA3B
3D4715E0
3E84D1C4
BE9203DE
BCF11FC2
3D082897
BE557F57
BD5D5820
BD1CB2E9
BDA028F4
3DD23696
3E11B43D
BC40AC57
BD8D2BC3
BE87EB55
3E6115EF
3E7F8526
3E3823C2
3E15B958
3DA5577D
BDCBADE0
BED72B94
BDC3EEE6
BE02B65C
BD30652E
3DA5E35C
3C008379
3E16FA98
BE5FAA16
3DE36CDC
BEB0D877
BD70BC96
3E6EB776
BD0F4053
BE351440
3EA3B716
3D5D78B3
3E710088
3D95674B
3E203D49
BDF2699B
3CC3E6D6
3C3715AE
BE8855D3
3D1152CA
3D542C3C
3E119341
BE6C6DE9
3C6DD9E2
BB32FCDA
3EA2580D
3D0C34E2
3D4B1AC8
3E1D42A9
BE2644D8
BDDC8B3C
3E170D33
3E79117C
BDE11701
3E4D5EA2
3E7D69E9
BE65830E
3CD1C6B7
BD921E4A
3DD2729B
BEFA7952
BE2F672B
BE3C903B
BD71DF23
BE730256
3E2DE200
BDFA2235
BDC8CC6C
3B9F75DC
BC6EF323
BC20C3B0
3E591B25
BD6B7BB3
3E86D716
BDB1E5E1
BD9D9D96
3EBD3AC7
BE0D9168
BE2B0AE2
3EF6BAF7
3EF0A018
3E2137D4
3EC0F333
BE45CA9E
3DEA1833
3E7225CB
BDCDF4AD
BD808A1D
BD1B57A4
3DBE19EB
3D9D6062
3DF1B1DB
BE04D0F0
BE4CFBDD
BEACE63B
BE1F8FB8
3C6CC033
3DDE7CB6
3DBF0BC7
BE4A97A1
3C8297D3
BE042A74
BE48661D
BD06CCE0
BE686FAA
BDD838D3
3E840110
3D9361B8
BD335DDA
3E93C66F
BE099990
3E78C9EC
BECD40AD
3E5EEDC6
BE3F9B05
BE21AA35
BE724113
3DF943F8
3EA1DB39
BE1F6015
3D9D7F68
BDC11A8E
BE8AF494
3D87D49D
BDBB209B
BDB9DACB
3DC45934
3D67C312
BD86140A
3C08A696
3D66C038
BDD417E5
3EA2C9F4
3DE8A29A
BE10C538
BDF0569B
BD4DF8F9
3E397B55
BE3E4B6C
3E2C34C1
3DAC2FFC
3EA41360
3EC49391
3EC74487
3E9C4522
BDB1394B
BE2F22C5
BDD053E1
BC75406A
3B9A1A58
3EC4F227
BE2A7EA9
BE19F1CA
3D249F4B
3E88DBC2
3ECD2C33
BE5AC247
3E8BA800
BEAF92AF
BE10D0A4
BE25F259
3EBAA972
BDAE35DB
3E01A3A6
BE9869A7
3E4F881B
3D9B3F31
3CD06ECB
3E0B8544
3E62EB5C
3D310406
3E739CD1
BD4BF1F9
3E048D8B
BEAFABFD
BDFC7E12
3CD0218B
3D134F75
3D830C22
BE81B126
3DF33E8B
3DF561A9
3EC9C88F
3E8E810B
BD48A844
3E5B549A
3E175D5C
3E4335F4
BE180706
3E5FDA26
3D68630E
3CB628C7
BE13C07E
3E0E2AA2
3EB436B1
3E18D9EF
3E093BEF
BE3B1E5D
3E620A7C
BEC8439A
BE839FC9
3E121559
BE6CBDAE
BEA26D7E
3E60F4E8
BE6C18B6
BEA33C5A
3D95DF72
3E4C03AD
3E961D3E
3D003A56
3E393C63
3EAA2507
BC339980
BD2B4F29
3D9C0141
3E539835
BE5A891F
BE49CD36
3E5EFC5B
BE45F7A7
3CBA6FC9
3D40B3DC
BE8AADA6
3DC9D576
BE9A24BC
BE2A0A76
BD266FE2
BDB4F989
3C9FCDE1
3D565053
BDAAECB3
3DAB3CC3
3CBA9473
3DBDD967
BD8FC40F
3E91A69B
BCB3CFD1
BE48407E
BD82FE60
BC21A2C5
3E70E25C
BE7A1F89
BC99A8CA
3E7C137D
3E8A93A5
BE5B967C
3E72BF45
BD921C98
BAF746FC
BD8CAD62
3CBD7F25
BB8B9007
BE80C7B5
BE87B57F
BE6342E9
3DFBBE4C
BE25364A
BD0E103F
BDABC682
BD7F2FB0
BD0E6739
3DED8DCD
BD51E3AF
3E963EC3
3E4D2272
3DBECCEF
BCB7452E
3E5068CB
3EB2CBCD
3D85C50E
3DA79011
BE415B7E
3BC5197F
BE009A89
3E309E7B
BE2E3737
3CB63E97
BDA7B4AF
3B5B0ECA
3DC5A8AE
3D8D0031
3DAA05FA
BE98ACE3
3E002683
3B9E66DD
BE5518E4
BDDED8E0
BDA3DA80
3E28654E
BE4AE7B2
3EB0799F
BE2CED2B
BCEC87E0
BE877875
3D97E84E
BE0B6F06
BC7A66F5
BD8139BF
BB5075D7
BDBCD61A
BE9C3725
3E5BB7A7
3E1F0CE7
3E5358C9
3DF4B8F0
BE7D658E
3E128943
3DDCD7A6
3D284476
3E2DF281
3D342821
3E2CE446
3E29BB67
3C0BABAD
BDE4755A
BD940739
BBE4341A
3E748E70
3DAD0EBB
3E370BCB
3E1D1671
BECDF7E4
BD8611FA
3E2A0E61
3D224A3A
BE2927BE
BE499137
3D90376F
BEC06C96
BE4BE890
3E0499C3
BDA75D80
3E1FD9AE
3E6823C3
BED483E0
BDAEBCD4
BE0EB7C2
3E0F35BE
3E026512
BE418EEA
BBC803EC
3E9065BC
BD8867F5
3D85B705
3CD183B1
3DD5D718
3E123D9C
3E284A3C
BDEFDD56
BEAA7413
BDDAA9E5
3E39F3EA
BE1A3CFA
3E3C9166
3E31F3A2
BDB3A025
3D61F931
3D873677
3D6983BB
BD734A01
3E35B96F
3E807EE9
BE913A43
3E93A675
BEA2EF67
3DA6CCB3
3E09E91C
BDF0C763
BE2DFF56
3CC5D880
BE63AE3A
3E9AB579
BD88EC03
BBB7301B
BD845613
3DA9FD0C
3E171DCD
BD89303C
BE4EE4F0
BDF3C734
BD1DC267
BD65C582
BD43BAA2
3D399C37
BC94E46E
BBD98E88
3D969A1D
BE3C9552
BE52672A
BE20FE65
BDAFA70E
3C662F8A
BE724B20
3BB2564F
3E242B26
BC2F90F7
BD05A36C
BEAAF263
BE0C9430
3E1E50BE
BE455AFD
BE04CBA9
BD799356
BE32F06C
3E221EE6
3C2F5704
BE66BDF9
3DAE6FB6
3D4D669C
3E2715DB
3E6E9981
3E7525C9
3E13455C
3E5F1F74
3E41A194
3E2E8EE5
3DA8BDE2
3E7E5660
3E2565A0
3CE9947B
BD0B9A24
BAD65563
BE2A5D15
BC695D43
3C40E877
3E79A180
BD1C349A
3CA5CC40
BE329B5E
3E6C4F06
3DCACE62
3E2CF12F
BEB1C73C
BE115ECC
BE64466F
3E27AAA2
BDE2CF0A
BED87D82
3E6CC1CF
BE0A7A8A
3E647162
BDE5527A
BDDE7087
BE91737A
3E8634E6
BDF3162F
BD039251
3CEECC80
3DD5A7A7
BE3342D2
BE79F9BC
3B907C59
3E216D0C
3D353977
BE511A9F
BE09D607
BD66E164
3B5D4213
BCDB61FE
BDAD83B4
3DA008C0
3E77F94B
BEBB087A
BE06B406
BD56B391
3D769B18
3E96E451
3D65B249
BD02DF03
BC2A74D5
BDD89210
3CFD35D4
BE21234E
BE8814C0
3E6DAE41
BE885784
BE23BD11
BE1BE813
BEA96644
BE127D57
3E10D6C5
3D88088B
BA8FF893
BC19795C
3D031355
3EAB27D1
BCED0F30
3DC4C343
3CDE4A4A
3E2A8B15
BD22702D
BDFFE108
3EB055CB
3E2FFE7B
BC80F1D6
BDC31DCA
3DD89E80
BCA6C9AB
3DFB6DC8
BED85009
3EB3B8E9
3A7929D0
BD8D6C11
3E240F5E
3D1F6299
BE670F79
3E3963B7
3B591755
BE98033D
3D03EDF8
3E78D2DD
BE56317C
3DFC073F
3C875B22
BCF50F36
3C40E613
BDACF2A1
3E576666
3E4156BC
BE893AD6
3E31002F
3D29D605
3E287BBD
3E703157
3E17031F
3B6B6144
BE814892
3E91E0F6
BE035CBE
3E671677
3CFC476A
3E9DD24C
3E173CF2
BE1E0309
BE5B3CDA
3E174C5C
BE0CC3E0
3D54C4DE
3D23E07D
3D04623F
BEA9547C
3D171A04
BE602686
3E691A26
BD2E1FF1
BE618ABD
BE753E82
3DED0BBF
BDD68F19
3E34E69C
3E829EAA
BE1B50B9
BD06FAF2
3E5187DA
3DC85654
BDE552FB
BDE4E1C2
BE1B6FAB
3E91D7AA
3D559388
BD66DD0A
BC2F02B9
3DC1CC38
BE26754A
BE4E0EAE
3D84376C
BE01DD3C
3E175B31
BE3AC190
BD6FAC9A
BCFA7D20
BE160449
BD3A48DD
BDFA4883
BCDBD9D4
BE0DD46E
3E05D395
BD53840A
BD61D4FA
BD3E8E74
BD82DAD4
3E130113
BDF43B18
BD31462D
BE358D4E
3E20F907
3E743614
BDCA6AFC
3E42E4D9
BE873FDD
BDE2CF60
BCC8C442
BE13D9A9
3E5FA4F6
BDA4CB91
BDFCC1E9
3DD277DD
BDE81E6F
BC6E817D
3E628A17
BDF94BCF
3E03394F
BE630C34
3BD1621A
BE3E7653
3EA35D2C
BD9D2E67
3B5C4721
3DCFEDE1
3E98EFBD
BE189095
3E14A6F1
BC6A8DDE
3E0401C2
BEC41C94
BCD62660
BCAAF486
3CA327A3
BDC7D08D
3E17880C
3D641CEE
BD61D00A
BDE1A4C5
3E3D424A
3E35D4B1
BD7C45F4
BE055D44
BE09CC37
BD447A9E
3E191DEE
BCF962BB
BE1E898C
3D135D0F
3D91B2BA
BE99EFF4
BDD84E07
BCFAEF51
BE6E0F1C
3E480BCA
BE49B2E8
3D0DF3B6
3DFEC7F6
3D4B32FE
3DD90DE1
BB4ACF16
3DBDFE7C
BAC81FD5
BE206F3B
3EA03101
BD030079
BBC0CA6F
3E62D7E8
BE4D47A1
BE1DF039
3E7E5014
3E83C07F
BDD2AF98
3E51E1F8
BD38310E
BB645B27
3E9C5CE4
3DF0CD3E
BD85E605
3DC62F0D
BE066220
BDBEE005
3BE1DB75
3DC0D6E9
3DBD1795
BEB20212
3E423DC8
3C29BB8F
3E539FCD
BE37306C
3E2A7AEA
BDAF3CEF
3CD6B407
BD5C3FD3
3E2ABBAC
BDF564E3
BDB4CADC
3E171675
BD02450F
BD1C5669
3D5CD0AD
BE1244AD
3E095B08
3DF5728B
BE8493B7
BC672EF1
3D95E28B
BE17DB0D
BE18E651
3DD9509E
3E0AC961
3E03F168
3D83E93B
BE2397B6
BE263F97
BDBB7011
3C7D4D16
BE007AE9
3DBA0AB6
3D4DEA72
BE66F963
3CAFE8B5
BE2E554C
3DE3C44D
BDA97569
3E422E81
BD608906
BDC38E39
3D9B335A
3E314869
BE43F048
3E2CA3C1
BDC04EA7
BD935E93
BE706FE2
BEC6F9A9
3ECD9A59
3E42EE3D
3E8AAB38
BE1B561A
3DE2C767
3DB5634B
BE585CE6
3D5F3AE9
3EB278D9
3EB137B2
BBF5CB4C
3EA28BE5
BDA21F40
BE017FCC
3E77F78D
3E5838D6
BE702037
BBFF40BF
BE25A462
3E1EADA5
BDE353E4
3E3D148D
3D1246F3
BD2E9493
BD0B6FA1
3DA5B310
BE3A3538
BE7E4AD5
BE743F33
BB2AD658
3E165AEB
BE0ACDFB
BE151C55
3C2113EB
BDF6DFCB
3DC7E6A8
3DDA61FF
3CF858FD
BCC77F34
BDF377C2
3D115C03
BD80FD72
3E094374
3E61EEDC
3E21642F
3DE7B59F
3C4784BE
BC112C02
3E1E6ECD
BD3CCB38
BCA035BD
3DD90F75
3DBEF0E2
3E6ED097
BE2B2AB5
3D371865
3D79FBAE
3DD6D8B1
3E39C931
BE640302
BE89AE94
BE03C7B5
BD7E36E2
BDDCD00D
BE815C1E
3E07FE94
BE503F8D
BE580476
BDE1DC82
BD187958
BE2BAA9D
3E370864
BEB289F6
3C5306F3
BDC26460
3D4E675D
BE4EA2F5
3DC5BAE0
BDA501CB
BD395AA7
3CF64023
BE9351ED
BE336ABA
3E173895
BCB82C41
3E2B3355
3E14CD27
3E074D90
3E471C90
3D96C8A4
BEA7446F
BE00B3F0
BE83FFE2
3D8D1DAD
3D16F91B
BEAC6820
3C4A5143
3D7601F5
BD75C5B9
BC3E9969
3EA10D60
BCC1D828
BE8FBC51
BDF3FC05
BDB7CE88
3E14C74E
BE3A2E11
BE6296B4
3E58BFBE
3EB274C0
3E0B79A8
3D757F9B
BDD8E6F4
BDFE501C
3D9C7A78
3D9227C2
3E991762
BD7B36C1
BDC6CFA3
BE3A5419
3D82620C
3D7ABA58
BD33BEBB
BDBBD80D
3C0B8708
BD0F7B80
BE64D656
3EC61028
BCD58B0F
BE44A2CE
3DBC5970
BC35AE52
3CDF1A91
BE716140
3E8712DB
BD65F014
3E9A5CD2
3DFCC5A0
3E671DF8
BDA64A6A
BE5A98EC
3DD8CAD6
BE18F68E
BCDF5301
3D84346C
BE65267D
3E0B2D43
3E3C6BAE
BE0D902C
3D866B3F
BE1B9DE1
3E63EBC6
3D55D07F
3E4D035D
3E1AD6D0
3CFE655E
3C6DCDB8
3D1C65EE
3E8148E7
BE2ADFF0
BE1147F1
BBF449FA
BE82B8B2
3D1F529D
BC21538A
3DCD54CD
BE1B05E6
BE5C13DD
BE1CED3E
BE41E793
3E52D3D3
3E056A42
BDE7C995
3DE07152
3E510BBA
BE81ED14
3E08CEE8
BE970E9E
BD2DC637
BDF72AAF
3D15DCA9
3CDC3184
3C97271A
3E4A5CA0
3D9368E9
3DE18795
3D079C8E
3E0338CB
BDCA89F3
3EB39E85
BE00BF85
BD190D7E
3E97262B
BDD7B2D4
BEB05610
BDFC3425
BEA6B0EF
BE1CACDC
BE2D61F0
BEBE73ED
BDA80D4C
3CDE0C2A
BE50FBF2
BE65757C
BE1786DF
3D2CCD59
3DE656BB
BDC415C8
3E89EDE2
3E2D5B47
3DB1BC4A
BEB051DF
BDB3DFB8
3E0421B1
BC040B51
3E97D097
3EA4F0A2
3D403C39
BD624C79
3D8DF660
BD2DC427
3DE4F621
3E6B48E2
3DE2964B
BECAF91E
BDA6C1A1
3E1A8EEC
BCC8BB20
BEA06CEF
3D93C433
3D955F70
3E567B04
3E301407
3E0CB7F8
BCB171A8
BCE66C50
BE3DE36B
3D8CD853
BE4B4B0E
3DCCFFAE
3DE2725D
3D124408
3E18163A
3E43B396
3D00F7EB
3DD2AF8F
BE2EDDC0
BE1723C6
3E3E3EE7
BD029377
3DB937F9
BDADB3A5
3D021D24
BE332596
BD812BBE
BE0785C4
38EF7BD1
3D75CAE4
BD95770E
3E241FCB
BE2F8C8A
3DDFEEC1
BE391BA1
3B9DED8C
3E344F8B
BE0114DA
BDF04BAA
3E206FD6
BC3A001A
BDE588F9
3E297BF0
BDBF6E41
BE2A054B
BD895229
BE1FC85C
3E1A9435
BD0015A6
BDF8D37F
3E3A6656
3CBF1ECF
3E0B9958
3E0F595B
3E265BDA
3E086886
BDFF3456
3C06B6C2
3B80690A
BE32BFA3
3DBD0A70
BE372959
BE158A95
BCC58301
BD4E6A4E
BD220B35
3C8B86C5
3DF7C25C
BE0BAE72
BCA5517B
BD9C97B4
3CE7F9FD
3D05C050
BE61ADF5
3E28C2F4
BDFF26B9
3E4A9505
3D07812C
3DB58E9F
BE32656B
3C87FE08
BE3169DA
3E33D2B8
BD6BA2FB
BD7386C2
3E488801
BDCEAE6B
BD2A6DA0
3E76D2FE
BD5E85AA
3E918085
BE6AD9BF
3C84319D
3D5C0E11
BD160DE0
BC276E04
3E211A71
BD7FCC72
3E2C0242
3DD161DB
3E458403
3CA4F4E1
3DA980EE
3E1BFBB7
3C068F1E
BADA97F6
BDCF1678
3E0C3A23
3E24A9EB
3E516384
BE3C157F
3D90373E
3DCE07E2
BE410F61
BC6FDC0D
BD9530B0
BDA7824E
BD641615
BCE7B3FC
3E064C7D
3CC4BEF6
BDC416EE
3E44E1E2
BDDE512A
BDDA6821
3D95DB7C
3D309668
3A50AFF8
3DC8C922
BC447ABD
BD83A71B
BD9A4EBC
BDE0455B
BD229C45
BDD89416
3E13D3A7
BD365D95
BC8724C2
3E57F5D7
BDB75377
3D89BDA7
BE2511CC
3E12B015
3E255E54
3DD9C43E
BE09B5A6
3E2683CA
BCE3F52E
3D9E2954
BE61D89C
BD07F0F2
3E6FDE01
BD4388D6
3D8FBE9B
3E177657
3E0FDA39
BCB09AA3
3E3142E6
3E7A6CE8
BDEE12D6
BD9FAB93
3E8B9E3E
BE2250C0
3E02D90F
BCEAD9B0
3E5A6BF8
BE8EAAD3
BE1B7DBA
3E69783C
3E0785CD
3DF1AC41
3E3CDD62
3E3A3BC6
3E1288DB
3E10BA6D
3E6153CF
BD838AB6
3E0AF993
BE84A4C1
BE8805C8
BBC846F8
3D8453C9
3E250D00
BE18B767
BD9C6A06
3E687E6F
BE6241F8
BCC4DF96
3C9F2A0D
BE4A725E
3A8FF0D2
BE5AC458
3E58B91C
3E22A4FF
3E02F076
BDBE4A6B
3DC8A713
BE87E02C
3E062C27
BE1C7DD9
BCFC5C25
BE19D9DE
BE210904
BDC8AB48
3C017B07
3C97DAE7
BE27D75F
BDB6AE0D
BE222E15
3E8492E5
3DE2AB0E
BEBA355D
BE56925C
BE953093
BE700789
BE48E7B0
3E7D8769
3DAE5762
3DE22A43
BE3E57E3
3EB1A9B5
3E1F8BDF
3E7A4255
3E5BA125
3EE0BEBB
BE7CCB3A
BDDB2A38
3E035D31
3E69A974
3D096307
3D884877
BEC846FC
BBB62B5F
BD140BCF
BDEFC156
BE60EC13
BD59F451
3EBE1D58
BE42E62C
3E17918C
BE04AB63
3EA998FA
3E5FE205
3EEE78C1
3E9BB860
BA281E14
BE4D7541
BDCD7263
3EA45916
3DD1916B
3E0E5986
BD3A7236
BD5DFE43
BC53B266
BE284594
3D81B02D
BDCC3D4F
3DB522F1
3E39293E
BE79E7B3
BE20E23B
BDB9A8F6
BDEE3897
3D72CBC4
BE04C38D
BCC22678
3C66FF48
BD805A5B
BDEBD04C
BE587E84
BCFA864B
BE059970
3E7FFF8B
BBE8B75E
BD2379BD
BE3501D1
3EA791C4
3E31E857
BE0851EE
BDC0EB4E
3CFE4F50
3E80D14C
3D8E9437
3DF32ACD
BD0A3111
BE4498C8
BD4F51B5
3D254F8A
3E133C0D
3E62B1F8
BE9D28A3
3E20A8D6
BD5A8F4E
BE5EDAEE
3E315F1B
BD99BD6C
3CA40469
BE254953
3C91A9DD
3D46A77D
BD975245
3DAC34C9
3E340EE8
3E7C9BB6
BC94E995
BE416F4E
BDBCD179
3B9B4171
3E5F9FE9
3E4D6437
3EAE181F
3E620144
BE2321F8
3E54200B
BF253064
3EA39CB1
3E94B652
3E2B3821
3E5A0583
BE519397
3C21B6E7
3E5B2A72
3DD2516E
BE1F37CD
3CEAC6B4
BE0DDEA5
3EDFE78B
3E1ED005
3C18732A
3E87ACF7
BEA01E60
BC931507
3D35D06A
3ED25096
3DC1FE9C
BDD75A2F
BD54400B
BCE6787B
BE9163AA
3E805006
3E020BA2
3C93F6EF
3DA551E5
3E0C11AD
3C5D6B69
3E516F5A
BDB727DA
BE3A1684
BE9A9415
BD94570B
3E963E35
BE23ACB7
BDB65B8D
3D34C833
BC5FAF6A
3E023F9E
3E00E86D
BE432DFC
3DC73E5B
3E38EAF2
BC5E44E8
3C2FE7F7
3E33A960
BE268E73
BE9499F1
BE956999
BE5DAB15
3C9E818D
BE3EB055
BEA40EEF
BE7E94FB
3D6962D9
3E1031DB
BE3295A3
BE57F7B8
BCC1EB47
BE404DB3
3DC789D0
3BA37DF8
3E08577A
3E8E26AC
3E09A409
BEAEB07E
BE1566D6
3DF13F51
BE997EF3
3E2394BA
3E9A8858
3E8678A7
BC99CBEC
BE85DCCC
BE70251A
BE647965
BE81637E
3EDB73BF
3EADE270
3E05033C
BD8207AE
BF013864
3E847A84
3D927308
BD934B6C
3BAB59AC
BDFA73A2
3DB5B460
BE246A2A
3DC0EFB6
3E4FE515
3E8987BD
3DC5A08E
3E8D13F7
BCB2887D
BC8B9D44
3E987AAF
BD74D535
BD45E852
3E0BFA64
3E8B63E9
3CC201C9
BE60162E
3DC016E4
BDDA0B9F
BDB634C9
3D78767C
BC11FF0C
3E4240A7
3E86ED86
3E0AA9E3
BDC72621
BE7D0772
BE4247F9
BC0CB1DE
BE500F6A
3E1FCFC3
3E20ABE2
BE52EB2B
BD28F862
BE856899
3BCAE244
BE8E14C8
BC87CF89
BDF7170C
3E070111
3D61EBE8
BE8B5AA7
BD492A2E
3EE91BDC
BCA08863
BDC0129C
BE4DC51D
3DB789D8
BD78DF17
3E299629
3D9CE2A2
BDA2EF97
BE0D9EED
BD3EFE0C
BE3E657D
BE3D2973
BD26BA86
3E2EC08B
BE818E18
BD57859B
BC4E1D09
3D8BE826
3E17184A
3E0A6AAD
3E75BD8B
BE1430C3
3C368441
3DAE99C5
BE51FD94
3E45E847
BAF1444F
3DFD2A76
BE3639EA
3BD0C66D
3D895A65
3D84EFBF
BDFCD57C
3E270EA0
3C1D27DE
BDD814C4
3E256BBE
3E81ED2F
BE3F2EEF
BE4845C8
3E4F013C
BD366F2C
3E83FE57
BC9A1E2D
3E5C0969
3E26DCA1
BE098275
BD2270B6
3D3F4B90
BDACA896
BE83E018
3E25E8CA
3D86E07B
BE831CEA
3DD042B8
3D3EA9F0
BCE5FB0C
3D6F76B9
3D9E0D39
3C1F36BE
3E045D88
3C2CD441
3BAF9613
3DE2DBC5
BD72FE1B
BE61C656
3E4757E3
BD9C10F8
BE17911E
BE015C24
BDAC535E
BE6DB97B
BE9155FC
3E844ED7
BCE453F5
BD84B9FA
3E89EA28
3C59CCB4
3D97332E
BE9EFE1F
3E296A55
BCE114CA
BCA1CAF8
3E4E0385
BCC7B4D7
BE075B43
BD5C1F28
BBCCB82C
3D079BCE
BC4CA202
BDCF64ED
BCD603BA
3E1105A0
3E4EEBB1
BEDEEFB6
3E4FCEF6
3B06D17B
BE84B7DA
3DBE0949
3E31A00D
BE6D3417
3E198348
3E554DC8
BEF75006
BD5D60CB
3DB60D7A
BDE8900C
BE60E1DB
3DA45C1B
3DAD87B7
3E4EB517
3E454BC1
BE23C855
3E4DA074
3E18570F
3E947F1D
3E1A5A00
BE25B0F9
BE3860CA
BE587217
3D9E1DFC
BE21D304
BE23A4A6
BE49AB51
BDD1E4F6
3E61FF11
3CA65C3B
BE7D8FAD
3E0C5761
3CF7F666
3E81F89C
3E898ECE
3D129979
3DDE43AB
3E0045C1
BEA2B768
BE4DD6A3
3E32E05B
3DC3CAC2
BDB8CFE9
3EA02A00
3E1E20AA
3E638783
BE83F41E
3DC3C65F
BCEE8372
BE9F0B92
3E836CBC
3E65F9C0
3C7155BC
3BDD94E5
BE807645
3E0EE83D
BDE3A5D8
3DDAF08E
3E5323A3
BD798E7B
BE180413
BDA83955
BC20AE7A
3DC83DA1
3E574943
3E316FEC
3E85D9FD
3E610805
BE41F199
3B434B68
BDAF9899
3EBC9550
BE2F8A19
3ED50EEA
BE0D284E
BEC105F6
3CFB6171
BE6BBC2B
BE2B8464
3D951164
3EAA1AA0
BE93F8AD
BC99B0CB
3E088350
3BEA2ADB
3D24076C
3E0B3C1E
BD9B5B49
BE8148FA
BE2E7CB6
3E75C1C5
BE693E26
BD5AD3A9
BD7E947D
BE68A6E9
3E9FF075
BE01D63F
3E81A55E
3EA10437
3D811B37
BE09EB09
3DE35BBB
3DC59A6B
BE20D751
BDA6D5BC
BE635226
3D75F61C
3E0F140D
BC49FABA
3B0E0DF8
BE8C7E1C
3D1B7354
3E4DCBA4
BE08B5FB
3E099820
3B96EB6F
3C56CA0B
BD70773C
3E527077
BC360807
3E81D6AA
BC95DA4A
3E95E241
BE7E0EFC
3E93941C
3DED2608
3DC6A01E
BEA34BB2
BDFFEE17
BD995345
3DC192C1
3ED7E4B9
BDBE9E2D
BE917C16
3E3D8A43
BD19506F
3E35126B
3DA75D0E
3DA286C3
BD37FE06
3DDFEFD9
BE61FC9B
BE6FEF63
BEBDBA64
3E5196AF
3D18766F
3E55FAD1
3DFA38BD
BD5C62CE
BE15B35E
BCD516B6
BE8288B2
3E669833
BDCB57F9
BDBB1DB5
BCEAA6EB
3E6641AE
3E4D26DD
BE74314A
BE0E9192
BCBE823B
3E88A1F6
3E90809E
3D50E8F5
BE7D4368
BDB0608D
3E1CA188
BD3AE86B
3DDB072B
3DCA40AB
BE4857F6
3C9B3E9A
3DBAF2A8
3E74C38A
3E45525D
BD99B5CB
BDD050B0
BE13063F
BE14EF52
BE17FB11
3E5F4556
BE12933F
BDA5176D
BDAD3A33
3E9DA382
3D81D196
BA982A29
BE1E11C8
BE11F0AF
BD0BEE8F
BD49DD5A
3D9DE4CC
BD76029A
3EA2F433
BE231099
BE0D8464
BD3DB7AB
3E0CB8C1
3E8E73C6
3E685A2E
3E95B69E
3E91D1B6
BDEFB0EB
BD279AE9
3E424F64
BDF12BC7
3E91793A
3D99D46B
3DF5D7BA
3D35453A
BE03A65C
3EA6D353
3E752F16
BD664B91
3DBE451E
3B5DA1B5
BEAD160D
3DB7DE03
BE093207
3DB60CDA
3D1B3DC4
BE22224C
3EB428D4
BD6FBFE7
BE5A54F4
BED21D02
3E42166B
3D601E20
BE0F448C
3C259E0B
BD853868
BE29A093
BEDE1F93
3D7EB896
3E848315
BD68C354
BD295851
3EA4C1DF
BBA6D539
3F0E5991
3E4C4644
BE3A7E02
3E6144AE
3E4E5BA4
BE6D15CF
BD44E38C
3E5D7615
3E49C47D
BEF14240
BF11ADD8
3E1F2AFC
3EFD754E
3E10CC18
BD6C16A9
BD1DEAB9
3F0BFD8D
BED90664
BEB1FE22
3E225CA6
BDCEF627
BD91406D
BD70E804
3E31CCE0
BDD30952
3D88FA88
3E867E85
3EAE8D30
3DFB3991
3E74D331
BE8019A9
BDC72B29
3DF347C7
BE3955B3
3D4375D7
3E4DEB8C
3E2A46FB
3DB15DD2
3D354E62
3D8B0ED4
3D7D9763
BE083755
BC15EE2B
3E893E77
BD889623
3C0C0FD4
BCE80F72
BD525D3B
BDC9D8F7
BE6C0ED7
3DF35838
3D049FD0
BDE0DB7C
BE352D55
3C1896E4
3DEE7706
3CA182F3
3DC3E61E
3C1E52C6
BE66B8B0
3DFEC876
BE26DA43
3DFB85C9
BDF6EBB5
BE057DA9
BE67098D
3C85B43D
3E4A6748
BB5953A3
3DD06A89
BE2AAF4B
3D23A751
3DBEEFA4
3E141C70
3E14442B
3E04E428
BCF6E57F
3E0C90C7
3D65865F
BE8E6CE3
BD30C7FA
3CA2C08B
3DC8B12D
3D97626D
3BFD9770
3D7F8E13
3D2E72F1
BD443032
3DCB4718
BB55BDB8
BECE43F7
3E55AE70
BC02881A
BDC35A2A
BE4F45F3
BE916F45
BEA754CF
BD76C2D5
BDA0DBC7
3E72232B
BDDF9B1D
BE9C681B
BE8ABFB0
3E087C8C
BE401816
3DFECD06
3DA4703F
3E49528E
BDB56928
3E03D181
3E3BE65A
3D757358
BE6591AA
3B689745
3DE4979D
3E3C3C0A
BD855A0C
3C07A767
BE739966
BE3AE6B6
3DDB382D
3C76703B
BE530CDA
3DB20481
3E82F66C
BD80047B
BDF0CB37
BC3581C0
BD155E79
BE4156AF
3D552F1C
BE9EE577
BE87C29C
BE332DCD
3E89F641
BDEC98F7
3DD18C83
BD81CEB5
3EA1D3A1
BD88AC73
BC0FB75E
3E813DBD
3CA514FC
3DCA80E7
BE802802
3DC29E63
3CEDD9ED
BEDAC763
BDAC3B82
3E2EAAFF
BD8939A6
3C98CACC
3DE15677
3C91BE52
BDC51E20
BE177789
BEB9B5A0
3EA22687
3E82854F
3DEFBF28
3E933AB7
3EB46038
3E71D499
3E82E1EA
3D5E2B53
BDEE9C0B
3D3FE429
3EBF2331
3D83C78D
BCBD2EC8
3C75FEC0
BE9F496D
3E765ED5
BE393862
BEA930FD
BC48D47E
3E508F6D
3E599AF1
3D506E97
3E1A989F
3DF8513B
BD37F873
BD540C7E
BD1BD517
3E882D24
3CECFB18
3D080837
3E6051C5
BC9AD179
BE565B9E
3D3C20F9
3D6EDE01
BD62B3C9
BE51331C
BEC0D9C6
3DBAEC15
3E7A8FA0
3DDA7636
BEADD658
3CBEA3A2
BE6C7ACF
BDB843B6
BD493BA2
BE5E7519
3E88696E
3E80402F
3E40E179
3D14B306
BD758EED
3E0FC373
3E1F16AA
3E84F505
3E164FD9
BC2D4DD3
BE11A08B
3E7164F6
3DDD6984
3E10811D
BD8D567D
3E50979D
3EBDA338
BCAB61F7
3E866E99
3E1921F4
3D9CF028
BD86C5F9
3D88D165
BE3646DF
3EB5981A
3EA70AA0
BD3BEA02
3EFD4AAC
BE450493
3E9029D8
BDA719AB
3D48D66F
3EB54C6D
3DEDDB0A
3EF859B8
3E38FC55
BE32F26A
3D4C7BA1
3DFC1C77
BEA046AF
3CB464EC
BC6F97DC
BC61BA6D
BE8DFC69
3E87EA8B
3E261861
3EC95708
BD3FAC8C
BE88C8FC
BD910DA6
BE1DD4CB
BE3A4986
BE185E43
3F08582C
BDD221C9
BE25AA4B
BD1202AF
BEBB99B4
BCB32E4F
3EA47DBF
BE6492A7
BDEF2F3E
3DF7839F
BE577484
BC4D2B2E
BED09826
BE87F8DA
BE029A29
3E5F5298
3DC84EC3
BEA4F16F
BCAEC125
BE3E322F
3EA151C4
BE55152B
3D921D53
BE35B8EB
3E69E908
BEB77E41
BDE0DB1E
BE869B2C
BDEAD27F
3D1A381E
BDF7D8AC
BDD9709E
3DC1A629
3EAD27A2
3A915A42
3DD54B46
BE5D071A
BE46A067
BE307B73
BDD8D705
BE096E8E
3E111421
3D0716F8
3E66D965
3CDD7CFA
3E41B1FB
3D0BAB75
3EA4F79A
3E32FC2B
3E8D6A90
BEA30F33
3E2779B4
BC574688
BE1DA765
3E812C19
3E639CF4
BE180E07
3D34EA4D
3E94CAF5
3E8DAA60
BD834F7B
3D071581
BCDD4591
3E7DB99A
3E52176F
3E91BD12
BE3739D2
3C5683BB
3E76BEEE
BD5B9B65
BCD30602
BC61E3A2
391C735F
3E21D642
BDDE9400
BE1A9F73
BDA038D7
3EA7BF08
BCB30453
BE755F09
3E1E15B8
3E44BBF0
3E5A4A00
3E8E271D
3D0FFE7B
BECAD840
3DAF62C9
BED641C3
BCA5EFE0
3DAFC97D
BD66DF33
BEB08A43
BE6C7D59
BDC8672E
BE4AC424
3D5B091C
BEBDBC81
3E236CFA
3E1A07D0
3E2546D5
3E24AFC6
BD5E64CF
3D2D59BE
BD917EBE
3E881BB7
BD82C4E2
3DC26235
BE3FB8B6
3EA730E6
BE0640AC
BE1CEE78
BE9942F3
3CEF754C
3EB25D52
BDD5F99B
3E080C35
BE3B58C5
BD94BBE3
BE05C71B
3EF19B32
BE48F8AD
BE22C062
BDF841BE
BE8C5A4C
3E5FA3BC
BE4C9578
3DEF4381
BDC854D3
3D4F0F38
3E98909D
3DB305A6
BD1D4904
3E3D45B4
3E879A1F
BC3A1D99
3EC4E748
3E27C005
3DE4B4E6
BEC8A558
3BC284BB
3E2F81A7
BDB6536E
BD480879
BADCFBAC
3D31064C
BDE0A1B9
3D395604
BEAFEA79
BD0523FD
3B0BB8C2
3E817FE5
BE3A9DCD
BAF5D890
3DD902CE
BD5C44D1
BED8126A
BE3C74DA
BB842068
3D5A0176
BD43C648
3C774A95
3DF0AA2A
3D958B8D
3E2C7F7B
3CFD5B87
BDA635E2
3E07C5CD
3E1D6DC2
3DE92133
BDE1921B
3DCAC848
3E79F45D
3E09B279
3E76F0F4
BD7BFEC3
BBA64F03
BCF4FDC5
3E217FB6
3E11E1E7
BD895BD2
3DDF3846
3D77B913
3E27D374
BEAB193B
BCF29C0F
BE83E884
BE9B973D
3D89D973
BE1522F1
BE403537
BD8737AC
3E34B005
BE2AB585
BE06999C
3E105CD4
BE4F87E2
BE2A24B5
BBFFC4F5
BE05E5B2
3E070385
3DEEEEB4
3E85CF12
BD223D1D
3E68E5BE
BCB85C60
3E955945
BE92DD83
BD5624D0
BDBA5C6D
3B6E7C35
BE26B063
BB5EAA19
BE60A9AC
3AA50411
BE3F21ED
3E0EF387
BCFDC0FC
3E102436
3E3B89D8
BDAA831B
BE205EF3
BD13919C
BDD9CCD8
BD661CAF
BCC3524B
3E5C5673
3D09F6A4
BA139606
BD800E48
BC6C699B
BDCC1BCD
BE8A8264
BDB747DD
BCA03ED1
3DCFEC1C
BE1E9D46
3E5107E3
3D0EE715
BD7A2608
BDCF6248
3D4FFD10
3E129FA5
BD9FBADA
3DCA18FA
3DA3DBC2
BE7FBF0E
3D8CC9CA
BD9740EB
3DF7E20F
BDD37952
BDDC726E
3BFCC890
3CB855C9
3DC1EFED
BE3ACB5C
3CCAAC0C
3E44CBA6
BE20B314
BE771424
3E739D0C
3D478F48
3E7CC5A8
BD18A9D1
BE9A745B
BDF9A9FB
BE73FF07
BC0A2068
BDB987A0
3CA4C1B0
3D07ACC4
3E5C0DC6
BE4004EE
BE7F6041
BC9E484B
3D98A6BD
3CC0B120
BCD39F8F
3CC6A7A8
3DAF51C7
BE69908D
3DB83756
BDB2AF22
3E2B8860
BE195D37
3D25D0F1
3E812C8E
BE807B5B
BDC79C3C
3E68099E
3D0DF3DD
3E476878
3DDD21A8
BE23F59E
BDAB2EB9
3E0A9626
BDF9452F
BE6EA0F2
BE3BE019
BE80A29F
BD88F5F4
BE5C323D
BC0CC384
3E3B7E9F
3E70A8FC
BE3558B3
BE625EAF
3E457BB7
3C5B91AD
3E2D1F28
3E72E964
BE38D355
3D6870AD
3E0D6EF0
BE71F7E0
BC05D2F1
BEA88ACF
3D78A759
3E21923D
3E905C54
BE620BE9
3E397DAF
BC8C91E2
3DD43C8C
3E31A728
BDAA3D17
3E4A3318
3E446D02
BD0B6655
BDD2B31B
BE2BC014
3D8E1476
BDB14126
3D10DE66
BEC49C93
3DE87348
3DEA1206
BDE07D0D
BD912A7E
BE9B0C63
BD938C85
BD74F074
3E259E3E
3E149EF0
3E03EEB7
BC8C0E37
3DC8E39A
3E27749D
BDC4A1DF
3DC9D5A0
BE02C71E
BDBB23F9
BCBE711D
BE1E5406
3D813D71
BE3BD576
BD93853C
3DDE0398
3E063A95
3DC28118
3D9789D0
BDB1758B
3D910716
3D2644A7
BD7D93BC
3E365C06
3E60CCE9
BBF5AD31
BD6C06A1
3E1D7BB5
BDEB1E7A
3E34F6AF
3D47FC72
3E761DB5
BE018DA7
BDB801AA
3DC00AEC
3E0376CF
3E3B95EE
3DCDB3FD
3E1FD176
BD39330E
BE2E0081
3E1764CE
3E49DF00
3D8B45DA
3E3168D1
3DB6EC05
BE24A40B
BE622021
BD4BE926
3DB6B017
3E664C7A
3D864979
BDA34919
BE028022
3DD9AF39
BE3F9CDF
3E8D35C0
BE448C7C
BE3A575B
BD5A10FE
3E8E7E9E
BD00C723
BDABDADC
BE3D9086
3E03DD89
3E2F1AF3
BE16CAB7
3DD073D8
BCB4FDBF
BDB9D658
3E12BC6E
3E453EB4
BDD60999
3DDA1492
3D6D5439
BE39836F
3D5B296A
BE885F1F
BE1300A3
3D119F42
BEA3B46D
BD1B12CD
BD25F122
3E50CCAB
3C224AB0
3ECA3056
3E32C176
3C1ED443
3E6012EC
BD3F4EC6
BBC6C4F2
BDAB8654
BEA5EE34
3EE5AE8C
3E8F07A2
BA5E4252
BDC513B5
3CC6B9F8
BC8E6599
BE2EC8F8
3CC63C9C
BD36A328
BDA0064E
3DB8402D
BCBAA656
3D2267ED
3AAE0FEE
BE47152D
BEFCD5A7
3D85DB4B
BCE3A733
3EA2B412
BBB34F2F
3E4BE5DB
3D801587
3E9987B2
BE2A3491
3EB9CF07
3D9476A2
3E7F6508
3E9636EF
BE7BB102
3D9E2F93
3C928C74
BD36762F
3E907F81
BCF2FE4E
BD8CAF90
BD8E9266
BE46F537
BDA82116
3C0C907A
3E426C1C
3EB7C2EB
3E32A654
3E315B53
BDA3FC58
BD270D25
3CFDD217
3E8A193C
3D758334
3E17B246
BDE79E70
BE0FDC26
3E6F613E
BEAA01E9
BE468BBE
BD973CAF
3CF6F93F
3E9E33D2
3E16E999
3EB46531
3E48EC55
3DCB9604
3E5F9C6E
BE1595B6
3D3618E1
3BB978E9
3E8688F8
3E94DF74
3E7845D1
3CB46606
BE3D91B2
BD8F3F62
BE8B1578
3BE9545E
BC51233F
3D838AAD
3E62949B
BE32F970
3D8F0F0C
BE275598
BE925A0F
3EB529F6
BEAE9DFA
BE834CD6
3EA1D50B
3E71E237
BE0D5F4F
3DC304F2
BD1ADAF1
3E669D2E
BE0D8678
BD58AA10
3D746184
3EDB662B
BDEDBB24
BE0A686B
BE4DAF16
BECBBBF0
3DFE2960
BEAAD26E
BE8565C6
BD4478F6
BC01D41D
BE14BFDC
BE5F6D17
3F0256C4
BD418F84
BD684417
BDB0F81B
3E75866F
BE36BE29
3D9F055D
BDE87630
BE2B878C
3EB059D3
BEA1E779
3D999C7D
BDED852A
3F026FE2
BE8BE2B0
BE046F6E
3F0D0F8F
3E9041ED
3DA7EFF0
3D8515A6
BDC93C82
3DEE3723
3EA74E76
3EA76BF3
3EADF717
BD18391A
3E8E2037
3EEE72AE
3EDC6E7B
BF048974
BEA07CD8
BE146B96
3D6ACC45
3D1C4779
BE0AFBFB
BDC6D4DC
3D470820
3E9A913C
3E66C939
BDA1ECEF
3E10E0BC
3E51BC22
BD6616B7
3E909047
BE37A669
3DF9F633
3E622620
BE41922B
BD0ABAE9
3DF6328F
BE27CC16
BE40D1A5
3E03453B
BDA6FEA1
3E98393B
BDECA397
3E1FD817
3E2544EE
3E188A29
3D80FF08
3D225A21
3DFABBC7
BC777DE7
3D823194
3DEE7FA6
3DD09AF6
BE93D72C
BEAEDE07
3DAD7AD9
BDD5F3F5
3E8DEC85
3C2419F4
BC0669ED
3DD2CEE1
BE539F65
BD841C55
BDD142FF
BD813DD7
3DDFE131
BDFBE4FC
BD879C38
BE936144
BE29346A
BD54B012
3DBA2D13
BDB4FCF2
3E37C5AF
BE95AB31
BDD83B60
3E1FFD0D
BEA22B17
3CAF0C99
BE4F22A0
3DF0BFBE
3E770856
BD97BB2E
BC0E3EB7
BCE94B20
BE632DB7
3EB491E5
3C90A818
BD142E1F
3D81A696
3DDE8CBF
BCD9B15E
3E88EF45
3EC6A5D3
BEDAB3FB
BC468F64
3EFBC216
3E1016F3
3DC5A4EA
BE51C18A
BE029D21
BEB86D3C
BDC1B985
BCEBA19D
3D197139
BE3C800D
3CE22331
BEC9E5A2
BBFE8249
BE527A0E
BD8F20A7
3C6BFA5C
BC3310F8
3DC33309
BE39FB6D
BDD784B7
3E3139A4
3E877FB9
3E7153AE
3F016D4D
3D9CDED4
BE14A9CF
3DEE41EC
BE893ABE
3CE0911E
BE1D1BE2
3D89CA0F
BE64CC6A
BE5CFD93
3CC1A763
BE18DB37
BE1A4A7D
3C411AEF
3E25147F
BE04BDC0
3E2A4BA2
3D48EE46
3D5CF4C7
BE720F80
BE08E4E8
BE9D2D0C
BE1735A4
BE29446B
BE380D1F
3DE7A3FB
BE9E4888
3D2E1640
3DDC2F5B
BE9B7AAD
BE54DD22
3E077E2A
3E8E7D92
3DFF007F
BC382358
3E5E56E3
BE6C2C43
BD361C81
3DD8B26A
BE87780B
BD5637AE
BCD537F7
3E62E745
3D858268
BDAAD17E
BE6560D4
BE2DDA00
BDC6DCC9
3EC921DD
3E5125DA
BEABF6F0
BDC92DCD
BE33901A
BE17E17F
BE2C6C38
BE495B55
BF02EC8E
3E7DCA36
BE9DB0F2
BE676EF2
BE8723DF
BDC30BA0
3DB0163F
3E8E8B84
3E582DBD
BE3895E6
3D7ABABB
3B8BA7ED
3E1ECBD9
BEA53104
3C680CB4
BAED5285
BEA04F46
BE642982
3DD46887
3D5F8558
3DAFD8AF
3E8B8476
3E72F619
BDE9C871
3E35E24B
BD82EB82
BE9512E9
3DADC8CD
3E5C6144
3E120C45
BE648CAC
BD1BB1E7
3E312C14
BD36DFEC
BC12A648
3E1B6FFD
3EC73D04
BDCD2563
3E6A6CD9
3D383E92
BE814FE6
3E9C5ECE
3D9A9DDF
3E63DBE2
3C9E0B54
3D1AA8A5
3E0820D1
BCCB596E
BD7D3834
3E51F057
BEA61A92
BD8957FE
BDD30089
BE1A1D11
BE5FE549
BE16364C
3C5806DF
3E42F20B
BE0D482D
BC296F17
BDD34691
BCECCF5F
3DF5BDBC
3DBC8A0E
3D1759B9
BE072221
BEB5BE82
BEBF58DC
3E8F3F31
BBF4556D
BDF1ABEA
BDD1E86E
3E36BD4A
BEAC08AB
BDD66441
BE6EE7CC
3CBB43FD
3E0C1B7D
3E97F188
3E116F82
BE465A51
3D6D93F0
3DC7B5D7
BE642E99
3E41B458
3E89365B
3E7C9F0B
3E915DFA
3DEA07E6
3E2BC79F
3D8A930D
3D4FB0EB
BCB30811
3E920672
3E1F929F
BE5D36F6
BE25C240
3E2B51F1
3E818DCA
3E3075DD
3E0BFFAC
3C214770
3E2ECBA1
3EC87B87
3CB20B10
3E719CA6
3E14F8B4
BD138AB9
3DAECF8C
3E9C9013
3DEDA94F
BE904F22
3D16B781
BD57D4A2
3D042248
3E2A860A
3E6164DF
3DD4AB84
3DEA4C72
3DEACAA4
BE7580A0
BD140C84
3E6DD182
3E22B379
3E9E40F1
3C257024
3DFFBDA2
3E4EEA4A
3E42AF69
BE95584E
BCA99133
BDCD80A4
3E5D18AD
BB1E5A8B
3E54DFCE
3E25B6EA
BE46C2BE
3E9F34FD
BDAD9C78
BCF87E58
BE49626A
3E33FA3E
BE83F174
3E3F985F
BD0D5E13
BE8A8A1A
BDD698D9
3D259E4A
BE06183B
BBB136DA
3E992576
BDA49D70
3E7FEE10
3C94DB7D
3E4FD0F5
3E20FF74
BE80D2DE
3D55181E
BE24BF53
3C33120C
BE8438AA
BE77E7CC
BE013F52
3BC8B48B
BDB03A55
3D16A7A6
3E812720
3E037B99
3E99174D
BE6C02F8
BDF73205
3D31C66E
3DCFCDC0
BDBA7E1B
BD332C6A
3B2A85DC
3B41A253
BDCE2BAE
3EBE3656
3EC862E4
3E046174
BE4C142D
3E11D20F
BD838CA1
BD0FA360
BDB7028F
BDF64CE7
3E86822B
BE348AD1
3E6C0A16
BDAAEFF0
BE8CFFC0
3D156F16
3D987124
BE4BCEF8
3EB9DC7F
3E336F40
3E115CBA
BDB5FF22
3D125E46
BE2B4490
BDB6A1A9
3E265EF3
BE9B55E4
BEBD6FD6
3E88AB56
BB1F30D4
BE2D0400
3DCF1327
3DBC82EA
BE6E0DC8
BDA8C954
BD4BDD0B
3E15289D
BE3F23E8
3EC67394
BC497AB9
3D9328CD
BE5E8A34
BEB8DA8F
BE8D2C1E
3E8852C8
BEA5BF7C
BE9E531D
3E182DEC
3E68D424
3C80A47C
3EA77ACA
BEC12299
3DDF3F37
BE36F939
BDE50B8B
BE029EC0
3E1C2885
BE71B329
BE803DB1
3BFD6F10
3D9111C5
BE1D02E1
BE9BECE8
BE024E55
3C604D68
BE4BBDE0
3E615631
BC069BF0
BE8F98CC
3DA5A3FF
3E31C0EE
BE3617AC
3D34ADCF
3ADC8146
BD1DCD19
BB8352BA
BE1E6258
BD594214
BEB2F7B8
39F0767F
3E4C29D8
3CD5EF6F
BE0C1854
3E081898
3B68D4E5
BD471353
3D814E9E
BC999FA0
BE11F7D5
BE321316
3E5B7140
BD9CCF7D
BDF1B2E8
BDCCAB0E
3D4F4D90
3D9F7F1B
BDE03C43
BE9CFEAF
BD9E6352
BD0497F6
BD22B7B9
BD059710
3E256E84
BE08B8A6
3DAEA353
3E14B686
BE63F6D7
3CC8DADC
3E1AC576
BD9CF238
BE5C8F37
3DC1EBCC
BDF2EC54
BD89034A
3E424DC6
3E40EC1A
3E07220D
3E0F7994
BE13483C
3E507653
3E68C707
3D72471C
BCE82A67
BE538CAE
BE5E1A98
3E42B5AA
BBC4F897
3C4EDF2D
BD3CBE95
BE9609D1
3DB97CFB
BDDBDD5F
3DE421D0
3E84B0F4
BDB13B80
BEBBDE19
BE900ADD
BE362B93
3E230841
3CCA2383
3D6C035E
3DB69A02
3D2CB3D3
3DC9D38C
3E3BD534
3E2EE557
BDBD233C
BE203EE9
3D6EE5DE
BB44230E
BE7E1546
BD7443E9
3DE448FB
3EA649A9
BE67CC33
BE268D30
BC9323CB
BE1B1617
BE2A6F7F
3D9266EB
BE479ACC
BDB9742B
3D05C9DA
3E289DA2
BE74F018
BDE7DE70
3EAB50F2
3DCD2F18
BDFA447A
BE622D45
BC917A62
3AFC2841
3DDB9FC1
BD78B807
3E47D1CE
BE739E67
BE9B0EDE
3E51DFC3
BDC6341A
3E86E98A
BE63DA01
3EBA9604
3E03D8A2
BE1A702B
BC3D9475
BEA6F255
3CCA3D6B
3DA73788
BE66C92C
BD923AEA
BDF03EF3
BE13AEC2
BD653F6D
3E3E4B47
3E555DA0
BD7AF4DE
BCE50671
BE4BC35B
BD9038D7
3E86FB20
BCFFC7FE
BE3B2E6F
BE3DF7FA
BCBABFC8
BE60E589
3E385144
3E33AB34
BE47AFC1
BD6CD26B
3D4038A2
3E2D203C
3DC49DD6
BEE346E9
BE10BAC1
3D04BC33
3D8824B1
3E892AD6
3D12C83F
BE8B88C5
BDC0B29E
BDEEEB6C
3EA93DC4
BE20B080
3E4BE09D
BDB7FB60
BE664675
3E578F2E
3C041726
BCF0E650
3E5E803C
BEBAC73D
3E0B651E
3DF8B197
BDB88DAD
BE1A03C8
BEC85E96
BE0AE153
3DF78BD2
3E75B6CF
3DB6A7A3
3DB6FBEA
3DD3B09D
3EB86A1A
3E2E8B1C
BE507615
3E85AA4B
3E02E9CE
3D35E8DC
3E94BE25
BE5A6F07
3BF0F4BE
BD21E4EA
BCAF0123
BC265BD3
3CE89A55
BD5FBE4A
3E3AD256
BE32A8A7
3E7FE29C
3E183BDB
3E3D4778
BDA94CD9
3D6A198D
BE7FB712
3D4AA049
3EA247E8
BD012A48
3C4CF19C
3D127458
BD3D892E
BDD7FDE4
3E2E65A0
BD6D84BC
3CEB0000
BE04A809
3E3C2759
3C896B2B
BE5FFFE2
3C91CAED
3E15A307
BCE767EF
3E89B5CB
3D6EC411
BE818622
BE460002
BE0D887A
BD8227D8
BE897E0E
3E57B709
3DFAD851
3D1F6399
BE3C6ACD
3D5B6D8F
BD79E01D
3E584457
BDCF1187
3DAB99BE
BE443B7E
3DE13FAB
3E7A225D
3E901EEA
3E6496E0
BC7BD1D7
3CA6C029
BDA87FDB
BBC46EDE
3D9EB0FB
BD5B75F4
3D4412DA
BE324D91
3E347AB3
BE20C5A8
BE0E5B90
3DB3093E
3D9D2242
3E7CFCC5
BDCB98A1
BDA59131
BE63461D
3E1F0126
3E583066
3DA907D4
3DDA194F
3E139076
3D5EA1DA
3E2087BD
3E344B6D
3D371FF6
3E447888
3E763B17
3E5AB604
3D0BB0FD
3DF98F31
3D7F743E
3E8C3FAA
3CBE18F6
3E1E6058
3D995F3F
BDE79C80
3D452073
BC4717FC
BE016496
3E73E7F8
BD4D34EE
BE1D3CCD
BD0A0E69
3E5E521A
BE03EB3C
BDF2E544
3D904365
3D0FDC99
BDB71517
BE336545
3E46476A
BE5E887F
3E2BD1E7
BE33DEF7
3E17D756
BDB7D868
3D9A63A8
BDA383E9
BD9F7C1C
3D8103D0
BD1BFA89
3D9BFDA9
BC822DB8
3DDAC842
3E2AABD8

